{
  "version": "1.0",
  "truncation": {
    "direction": "Right",
    "max_length": 512,
    "strategy": "LongestFirst",
    "stride": 0
  },
  "padding": {
    "strategy": "BatchLongest",
    "direction": "Right",
    "pad_to_multiple_of": null,
    "pad_id": 1,
    "pad_type_id": 0,
    "pad_token": "<pad>"
  },
  "added_tokens": [
    {
      "id": 0,
      "special": true,
      "content": "<s>",
      "single_word": false,
      "lstrip": false,
      "rstrip": false,
      "normalized": false
    },
    {
      "id": 1,
      "special": true,
      "content": "<pad>",
      "single_word": false,
      "lstrip": false,
      "rstrip": false,
      "normalized": false
    },
    {
      "id": 2,
      "special": true,
      "content": "</s>",
      "single_word": false,
      "lstrip": false,
      "rstrip": false,
      "normalized": false
    },
    {
      "id": 3,
      "special": true,
      "content": "<unk>",
      "single_word": false,
      "lstrip": false,
      "rstrip": false,
      "normalized": false
    },
    {
      "id": 4,
      "special": true,
      "content": "<mask>",
      "single_word": false,
      "lstrip": false,
      "rstrip": false,
      "normalized": false
    }
  ],
  "normalizer": {
    "type": "NFKC"
  },
  "pre_tokenizer": {
    "type": "Whitespace"
  },
  "post_processor": {
    "type": "TemplateProcessing",
    "single": [
      {
        "SpecialToken": {
          "id": "<s>",
          "type_id": 0
        }
      },
      {
        "Sequence": {
          "id": "A",
          "type_id": 0
        }
      },
      {
        "SpecialToken": {
          "id": "</s>",
          "type_id": 0
        }
      }
    ],
    "pair": [
      {
        "SpecialToken": {
          "id": "<s>",
          "type_id": 0
        }
      },
      {
        "Sequence": {
          "id": "A",
          "type_id": 0
        }
      },
      {
        "SpecialToken": {
          "id": "</s>",
          "type_id": 0
        }
      },
      {
        "Sequence": {
          "id": "B",
          "type_id": 1
        }
      },
      {
        "SpecialToken": {
          "id": "</s>",
          "type_id": 1
        }
      }
    ],
    "special_tokens": {
      "</s>": {
        "id": "</s>",
        "ids": [
          2
        ],
        "tokens": [
          "</s>"
        ]
      },
      "<s>": {
        "id": "<s>",
        "ids": [
          0
        ],
        "tokens": [
          "<s>"
        ]
      }
    }
  },
  "decoder": {
    "type": "WordPiece",
    "prefix": "##",
    "cleanup": true
  },
  "model": {
    "type": "WordPiece",
    "unk_token": "<unk>",
    "continuing_subword_prefix": "##",
    "max_input_chars_per_word": 100,
    "vocab": {
      "<s>": 0,
      "<pad>": 1,
      "</s>": 2,
      "<unk>": 3,
      "<mask>": 4,
      "!": 5,
      "\"": 6,
      "#": 7,
      "$": 8,
      "%": 9,
      "&": 10,
      "'": 11,
      "(": 12,
      ")": 13,
      "*": 14,
      "+": 15,
      ",": 16,
      "-": 17,
      ".": 18,
      "/": 19,
      "0": 20,
      "1": 21,
      "2": 22,
      "3": 23,
      "4": 24,
      "5": 25,
      "6": 26,
      "7": 27,
      "8": 28,
      "9": 29,
      ":": 30,
      ";": 31,
      "<": 32,
      "=": 33,
      ">": 34,
      "?": 35,
      "@": 36,
      "A": 37,
      "B": 38,
      "C": 39,
      "D": 40,
      "E": 41,
      "F": 42,
      "G": 43,
      "H": 44,
      "I": 45,
      "J": 46,
      "K": 47,
      "L": 48,
      "M": 49,
      "N": 50,
      "O": 51,
      "P": 52,
      "Q": 53,
      "R": 54,
      "S": 55,
      "T": 56,
      "U": 57,
      "V": 58,
      "W": 59,
      "X": 60,
      "Y": 61,
      "Z": 62,
      "[": 63,
      "\\": 64,
      "]": 65,
      "^": 66,
      "_": 67,
      "`": 68,
      "a": 69,
      "b": 70,
      "c": 71,
      "d": 72,
      "e": 73,
      "f": 74,
      "g": 75,
      "h": 76,
      "i": 77,
      "j": 78,
      "k": 79,
      "l": 80,
      "m": 81,
      "n": 82,
      "o": 83,
      "p": 84,
      "q": 85,
      "r": 86,
      "s": 87,
      "t": 88,
      "u": 89,
      "v": 90,
      "w": 91,
      "x": 92,
      "y": 93,
      "z": 94,
      "{": 95,
      "|": 96,
      "}": 97,
      "~": 98,
      "": 99,
      "¡": 100,
      "¢": 101,
      "£": 102,
      "¤": 103,
      "¥": 104,
      "¦": 105,
      "§": 106,
      "¨": 107,
      "©": 108,
      "ª": 109,
      "«": 110,
      "¬": 111,
      "­": 112,
      "®": 113,
      "¯": 114,
      "°": 115,
      "±": 116,
      "²": 117,
      "³": 118,
      "´": 119,
      "µ": 120,
      "¶": 121,
      "·": 122,
      "¸": 123,
      "¹": 124,
      "º": 125,
      "»": 126,
      "¼": 127,
      "½": 128,
      "¾": 129,
      "¿": 130,
      "À": 131,
      "Á": 132,
      "Â": 133,
      "Ã": 134,
      "Ä": 135,
      "Å": 136,
      "Æ": 137,
      "Ç": 138,
      "È": 139,
      "É": 140,
      "Ê": 141,
      "Ë": 142,
      "Ì": 143,
      "Í": 144,
      "Î": 145,
      "Ï": 146,
      "Ð": 147,
      "Ñ": 148,
      "Ò": 149,
      "Ó": 150,
      "Ô": 151,
      "Õ": 152,
      "Ö": 153,
      "×": 154,
      "Ø": 155,
      "Ù": 156,
      "Ú": 157,
      "Û": 158,
      "Ü": 159,
      "Ý": 160,
      "Þ": 161,
      "ß": 162,
      "à": 163,
      "á": 164,
      "â": 165,
      "ã": 166,
      "ä": 167,
      "å": 168,
      "æ": 169,
      "ç": 170,
      "è": 171,
      "é": 172,
      "ê": 173,
      "ë": 174,
      "ì": 175,
      "í": 176,
      "î": 177,
      "ï": 178,
      "ð": 179,
      "ñ": 180,
      "ò": 181,
      "ó": 182,
      "ô": 183,
      "õ": 184,
      "ö": 185,
      "÷": 186,
      "ø": 187,
      "ù": 188,
      "ú": 189,
      "û": 190,
      "ü": 191,
      "ý": 192,
      "þ": 193,
      "ÿ": 194,
      "Ā": 195,
      "ā": 196,
      "Ă": 197,
      "ă": 198,
      "Ą": 199,
      "ą": 200,
      "Ć": 201,
      "ć": 202,
      "Ĉ": 203,
      "ĉ": 204,
      "Ċ": 205,
      "ċ": 206,
      "Č": 207,
      "č": 208,
      "Ď": 209,
      "ď": 210,
      "Đ": 211,
      "đ": 212,
      "Ē": 213,
      "ē": 214,
      "Ĕ": 215,
      "ĕ": 216,
      "Ė": 217,
      "ė": 218,
      "Ę": 219,
      "ę": 220,
      "Ě": 221,
      "ě": 222,
      "Ĝ": 223,
      "ĝ": 224,
      "Ğ": 225,
      "ğ": 226,
      "Ġ": 227,
      "ġ": 228,
      "Ģ": 229,
      "ģ": 230,
      "Ĥ": 231,
      "ĥ": 232,
      "Ħ": 233,
      "ħ": 234,
      "Ĩ": 235,
      "ĩ": 236,
      "Ī": 237,
      "ī": 238,
      "Ĭ": 239,
      "ĭ": 240,
      "Į": 241,
      "į": 242,
      "İ": 243,
      "ı": 244,
      "Ĳ": 245,
      "ĳ": 246,
      "Ĵ": 247,
      "ĵ": 248,
      "Ķ": 249,
      "ķ": 250,
      "ĸ": 251,
      "Ĺ": 252,
      "ĺ": 253,
      "Ļ": 254,
      "ļ": 255,
      "Ľ": 256,
      "ľ": 257,
      "Ŀ": 258,
      "ŀ": 259,
      "Ł": 260,
      "ł": 261,
      "Ń": 262,
      "ń": 263,
      "ō": 264,
      "ő": 265,
      "Œ": 266,
      "œ": 267,
      "ř": 268,
      "Ş": 269,
      "Š": 270,
      "š": 271,
      "ů": 272,
      "ű": 273,
      "Ÿ": 274,
      "Ž": 275,
      "ž": 276,
      "ƃ": 277,
      "Ǝ": 278,
      "Ɛ": 279,
      "ƒ": 280,
      "Ɩ": 281,
      "ǔ": 282,
      "ǝ": 283,
      "ș": 284,
      "ɐ": 285,
      "ɔ": 286,
      "ɟ": 287,
      "ɥ": 288,
      "ɯ": 289,
      "ɹ": 290,
      "ɾ": 291,
      "ʇ": 292,
      "ʌ": 293,
      "ʍ": 294,
      "ʎ": 295,
      "ʞ": 296,
      "ˆ": 297,
      "˥": 298,
      "́": 299,
      "̃": 300,
      "̄": 301,
      "̅": 302,
      "̇": 303,
      "̈": 304,
      "̊": 305,
      "̧": 306,
      "͓": 307,
      "Δ": 308,
      "Θ": 309,
      "Λ": 310,
      "Ω": 311,
      "α": 312,
      "β": 313,
      "γ": 314,
      "δ": 315,
      "ε": 316,
      "θ": 317,
      "λ": 318,
      "μ": 319,
      "π": 320,
      "φ": 321,
      "ϛ": 322,
      "Ͻ": 323,
      "А": 324,
      "Б": 325,
      "В": 326,
      "Г": 327,
      "Д": 328,
      "Е": 329,
      "Ж": 330,
      "З": 331,
      "И": 332,
      "К": 333,
      "Л": 334,
      "М": 335,
      "Н": 336,
      "О": 337,
      "П": 338,
      "Р": 339,
      "С": 340,
      "Т": 341,
      "У": 342,
      "Ф": 343,
      "Х": 344,
      "Ц": 345,
      "Ч": 346,
      "Ш": 347,
      "Э": 348,
      "Я": 349,
      "а": 350,
      "б": 351,
      "в": 352,
      "г": 353,
      "д": 354,
      "е": 355,
      "ж": 356,
      "з": 357,
      "и": 358,
      "й": 359,
      "к": 360,
      "л": 361,
      "м": 362,
      "н": 363,
      "о": 364,
      "п": 365,
      "р": 366,
      "с": 367,
      "т": 368,
      "у": 369,
      "ф": 370,
      "х": 371,
      "ц": 372,
      "ч": 373,
      "ш": 374,
      "щ": 375,
      "ъ": 376,
      "ы": 377,
      "ь": 378,
      "э": 379,
      "ю": 380,
      "я": 381,
      "ё": 382,
      "Ԁ": 383,
      "א": 384,
      "ב": 385,
      "ג": 386,
      "ל": 387,
      "ר": 388,
      "؛": 389,
      "ء": 390,
      "آ": 391,
      "أ": 392,
      "ا": 393,
      "ب": 394,
      "ر": 395,
      "س": 396,
      "م": 397,
      "ن": 398,
      "ه": 399,
      "و": 400,
      "ی": 401,
      "ࠒ": 402,
      "ᄅ": 403,
      "ᗡ": 404,
      "ᴚ": 405,
      "ᶚ": 406,
      "Ḏ": 407,
      "ộ": 408,
      "ỹ": 409,
      "Ὁ": 410,
      "​": 411,
      "‌": 412,
      "‐": 413,
      "–": 414,
      "—": 415,
      "―": 416,
      "‘": 417,
      "’": 418,
      "‚": 419,
      "“": 420,
      "”": 421,
      "„": 422,
      "†": 423,
      "‡": 424,
      "•": 425,
      "‰": 426,
      "′": 427,
      "‹": 428,
      "›": 429,
      "⁄": 430,
      "₥": 431,
      "€": 432,
      "⃦": 433,
      "Ⅎ": 434,
      "→": 435,
      "↓": 436,
      "⇒": 437,
      "∀": 438,
      "∆": 439,
      "∏": 440,
      "∑": 441,
      "−": 442,
      "√": 443,
      "∞": 444,
      "∩": 445,
      "≤": 446,
      "≥": 447,
      "⊥": 448,
      "⌌": 449,
      "⌍": 450,
      "─": 451,
      "━": 452,
      "│": 453,
      "┃": 454,
      "┌": 455,
      "┏": 456,
      "┐": 457,
      "┓": 458,
      "└": 459,
      "┗": 460,
      "┘": 461,
      "┛": 462,
      "├": 463,
      "┣": 464,
      "┤": 465,
      "┫": 466,
      "┬": 467,
      "┳": 468,
      "┴": 469,
      "┻": 470,
      "┼": 471,
      "╋": 472,
      "★": 473,
      "☐": 474,
      "☑": 475,
      "☜": 476,
      "☝": 477,
      "☠": 478,
      "☺": 479,
      "☻": 480,
      "♠": 481,
      "♣": 482,
      "♥": 483,
      "♦": 484,
      "♪": 485,
      "♫": 486,
      "⚐": 487,
      "✋": 488,
      "✓": 489,
      "❄": 490,
      "❤": 491,
      "、": 492,
      "。": 493,
      "《": 494,
      "「": 495,
      "」": 496,
      "【": 497,
      "】": 498,
      "あ": 499,
      "い": 500,
      "う": 501,
      "え": 502,
      "お": 503,
      "か": 504,
      "が": 505,
      "き": 506,
      "く": 507,
      "け": 508,
      "げ": 509,
      "こ": 510,
      "ご": 511,
      "さ": 512,
      "し": 513,
      "じ": 514,
      "す": 515,
      "ず": 516,
      "せ": 517,
      "そ": 518,
      "た": 519,
      "だ": 520,
      "ち": 521,
      "っ": 522,
      "つ": 523,
      "て": 524,
      "で": 525,
      "と": 526,
      "ど": 527,
      "な": 528,
      "に": 529,
      "の": 530,
      "は": 531,
      "ば": 532,
      "ぱ": 533,
      "び": 534,
      "へ": 535,
      "べ": 536,
      "ほ": 537,
      "ま": 538,
      "み": 539,
      "む": 540,
      "め": 541,
      "も": 542,
      "や": 543,
      "よ": 544,
      "ら": 545,
      "り": 546,
      "る": 547,
      "れ": 548,
      "ろ": 549,
      "わ": 550,
      "を": 551,
      "ん": 552,
      "゙": 553,
      "゚": 554,
      "ァ": 555,
      "ア": 556,
      "ィ": 557,
      "イ": 558,
      "ゥ": 559,
      "ウ": 560,
      "ェ": 561,
      "エ": 562,
      "ォ": 563,
      "オ": 564,
      "カ": 565,
      "ガ": 566,
      "キ": 567,
      "ギ": 568,
      "ク": 569,
      "グ": 570,
      "ケ": 571,
      "ゲ": 572,
      "コ": 573,
      "ゴ": 574,
      "サ": 575,
      "ザ": 576,
      "シ": 577,
      "ジ": 578,
      "ス": 579,
      "ズ": 580,
      "セ": 581,
      "ゼ": 582,
      "ソ": 583,
      "ゾ": 584,
      "タ": 585,
      "ダ": 586,
      "チ": 587,
      "ヂ": 588,
      "ッ": 589,
      "ツ": 590,
      "ヅ": 591,
      "テ": 592,
      "デ": 593,
      "ト": 594,
      "ド": 595,
      "ナ": 596,
      "ニ": 597,
      "ヌ": 598,
      "ネ": 599,
      "ノ": 600,
      "ハ": 601,
      "バ": 602,
      "パ": 603,
      "ヒ": 604,
      "ビ": 605,
      "ピ": 606,
      "フ": 607,
      "ブ": 608,
      "プ": 609,
      "ヘ": 610,
      "ベ": 611,
      "ペ": 612,
      "ホ": 613,
      "ボ": 614,
      "ポ": 615,
      "マ": 616,
      "ミ": 617,
      "ム": 618,
      "メ": 619,
      "モ": 620,
      "ャ": 621,
      "ヤ": 622,
      "ュ": 623,
      "ユ": 624,
      "ョ": 625,
      "ヨ": 626,
      "ラ": 627,
      "リ": 628,
      "ル": 629,
      "レ": 630,
      "ロ": 631,
      "ワ": 632,
      "ヲ": 633,
      "ン": 634,
      "ヴ": 635,
      "ヷ": 636,
      "ヺ": 637,
      "・": 638,
      "ー": 639,
      "ㄣ": 640,
      "ㄥ": 641,
      "䰀": 642,
      "一": 643,
      "丁": 644,
      "三": 645,
      "上": 646,
      "下": 647,
      "不": 648,
      "与": 649,
      "丑": 650,
      "且": 651,
      "丙": 652,
      "业": 653,
      "両": 654,
      "两": 655,
      "个": 656,
      "中": 657,
      "串": 658,
      "临": 659,
      "丸": 660,
      "为": 661,
      "主": 662,
      "么": 663,
      "之": 664,
      "乐": 665,
      "乙": 666,
      "也": 667,
      "习": 668,
      "书": 669,
      "了": 670,
      "予": 671,
      "事": 672,
      "二": 673,
      "于": 674,
      "云": 675,
      "五": 676,
      "交": 677,
      "亥": 678,
      "产": 679,
      "享": 680,
      "京": 681,
      "人": 682,
      "什": 683,
      "今": 684,
      "仍": 685,
      "从": 686,
      "仔": 687,
      "他": 688,
      "付": 689,
      "代": 690,
      "令": 691,
      "以": 692,
      "仮": 693,
      "件": 694,
      "任": 695,
      "份": 696,
      "优": 697,
      "会": 698,
      "传": 699,
      "估": 700,
      "似": 701,
      "但": 702,
      "位": 703,
      "体": 704,
      "何": 705,
      "余": 706,
      "佛": 707,
      "作": 708,
      "你": 709,
      "併": 710,
      "使": 711,
      "例": 712,
      "供": 713,
      "係": 714,
      "保": 715,
      "信": 716,
      "修": 717,
      "候": 718,
      "値": 719,
      "值": 720,
      "假": 721,
      "偏": 722,
      "做": 723,
      "停": 724,
      "側": 725,
      "備": 726,
      "储": 727,
      "像": 728,
      "儿": 729,
      "允": 730,
      "元": 731,
      "先": 732,
      "光": 733,
      "克": 734,
      "免": 735,
      "兔": 736,
      "入": 737,
      "全": 738,
      "八": 739,
      "公": 740,
      "共": 741,
      "关": 742,
      "兵": 743,
      "其": 744,
      "具": 745,
      "典": 746,
      "内": 747,
      "册": 748,
      "再": 749,
      "写": 750,
      "决": 751,
      "况": 752,
      "冻": 753,
      "减": 754,
      "几": 755,
      "処": 756,
      "凹": 757,
      "出": 758,
      "函": 759,
      "分": 760,
      "切": 761,
      "划": 762,
      "列": 763,
      "则": 764,
      "创": 765,
      "初": 766,
      "删": 767,
      "判": 768,
      "別": 769,
      "利": 770,
      "到": 771,
      "制": 772,
      "刷": 773,
      "削": 774,
      "前": 775,
      "剑": 776,
      "剤": 777,
      "剥": 778,
      "剩": 779,
      "割": 780,
      "劃": 781,
      "力": 782,
      "功": 783,
      "加": 784,
      "务": 785,
      "动": 786,
      "動": 787,
      "務": 788,
      "包": 789,
      "化": 790,
      "北": 791,
      "匹": 792,
      "区": 793,
      "十": 794,
      "千": 795,
      "升": 796,
      "午": 797,
      "半": 798,
      "华": 799,
      "协": 800,
      "单": 801,
      "卖": 802,
      "単": 803,
      "卯": 804,
      "印": 805,
      "危": 806,
      "却": 807,
      "历": 808,
      "压": 809,
      "去": 810,
      "参": 811,
      "又": 812,
      "及": 813,
      "双": 814,
      "反": 815,
      "发": 816,
      "取": 817,
      "受": 818,
      "变": 819,
      "叠": 820,
      "口": 821,
      "只": 822,
      "可": 823,
      "右": 824,
      "叶": 825,
      "号": 826,
      "司": 827,
      "各": 828,
      "合": 829,
      "同": 830,
      "名": 831,
      "后": 832,
      "向": 833,
      "君": 834,
      "否": 835,
      "含": 836,
      "听": 837,
      "启": 838,
      "告": 839,
      "员": 840,
      "呼": 841,
      "命": 842,
      "和": 843,
      "品": 844,
      "响": 845,
      "哲": 846,
      "商": 847,
      "問": 848,
      "喜": 849,
      "嗯": 850,
      "器": 851,
      "四": 852,
      "回": 853,
      "因": 854,
      "团": 855,
      "囲": 856,
      "围": 857,
      "国": 858,
      "图": 859,
      "圆": 860,
      "國": 861,
      "土": 862,
      "在": 863,
      "地": 864,
      "址": 865,
      "坐": 866,
      "块": 867,
      "型": 868,
      "城": 869,
      "域": 870,
      "基": 871,
      "堆": 872,
      "報": 873,
      "場": 874,
      "塑": 875,
      "塞": 876,
      "境": 877,
      "墙": 878,
      "增": 879,
      "壁": 880,
      "壬": 881,
      "处": 882,
      "备": 883,
      "変": 884,
      "复": 885,
      "外": 886,
      "多": 887,
      "够": 888,
      "大": 889,
      "天": 890,
      "太": 891,
      "失": 892,
      "头": 893,
      "好": 894,
      "如": 895,
      "妈": 896,
      "妥": 897,
      "始": 898,
      "委": 899,
      "子": 900,
      "字": 901,
      "存": 902,
      "学": 903,
      "孫": 904,
      "學": 905,
      "它": 906,
      "安": 907,
      "完": 908,
      "定": 909,
      "实": 910,
      "実": 911,
      "客": 912,
      "宣": 913,
      "害": 914,
      "家": 915,
      "容": 916,
      "宽": 917,
      "宿": 918,
      "寂": 919,
      "寅": 920,
      "密": 921,
      "寸": 922,
      "对": 923,
      "寻": 924,
      "导": 925,
      "対": 926,
      "封": 927,
      "専": 928,
      "射": 929,
      "将": 930,
      "導": 931,
      "小": 932,
      "少": 933,
      "尝": 934,
      "就": 935,
      "尺": 936,
      "尽": 937,
      "尾": 938,
      "局": 939,
      "层": 940,
      "屋": 941,
      "展": 942,
      "属": 943,
      "山": 944,
      "峰": 945,
      "嵌": 946,
      "川": 947,
      "工": 948,
      "左": 949,
      "差": 950,
      "己": 951,
      "已": 952,
      "巳": 953,
      "市": 954,
      "布": 955,
      "希": 956,
      "带": 957,
      "帮": 958,
      "常": 959,
      "干": 960,
      "平": 961,
      "年": 962,
      "并": 963,
      "庆": 964,
      "序": 965,
      "库": 966,
      "应": 967,
      "庚": 968,
      "度": 969,
      "庫": 970,
      "建": 971,
      "开": 972,
      "异": 973,
      "式": 974,
      "引": 975,
      "归": 976,
      "当": 977,
      "录": 978,
      "形": 979,
      "影": 980,
      "往": 981,
      "径": 982,
      "待": 983,
      "很": 984,
      "後": 985,
      "得": 986,
      "循": 987,
      "微": 988,
      "心": 989,
      "必": 990,
      "応": 991,
      "念": 992,
      "忽": 993,
      "态": 994,
      "思": 995,
      "性": 996,
      "总": 997,
      "恢": 998,
      "息": 999,
      "情": 1000,
      "想": 1001,
      "意": 1002,
      "愛": 1003,
      "態": 1004,
      "慢": 1005,
      "慮": 1006,
      "戊": 1007,
      "戌": 1008,
      "成": 1009,
      "我": 1010,
      "或": 1011,
      "戦": 1012,
      "截": 1013,
      "戳": 1014,
      "户": 1015,
      "戻": 1016,
      "所": 1017,
      "手": 1018,
      "打": 1019,
      "扣": 1020,
      "执": 1021,
      "扩": 1022,
      "扫": 1023,
      "批": 1024,
      "找": 1025,
      "技": 1026,
      "投": 1027,
      "抛": 1028,
      "护": 1029,
      "报": 1030,
      "抵": 1031,
      "抽": 1032,
      "拆": 1033,
      "拉": 1034,
      "拟": 1035,
      "择": 1036,
      "括": 1037,
      "拼": 1038,
      "拿": 1039,
      "持": 1040,
      "挂": 1041,
      "指": 1042,
      "按": 1043,
      "挙": 1044,
      "换": 1045,
      "据": 1046,
      "授": 1047,
      "掉": 1048,
      "排": 1049,
      "接": 1050,
      "控": 1051,
      "推": 1052,
      "描": 1053,
      "提": 1054,
      "插": 1055,
      "換": 1056,
      "揭": 1057,
      "搜": 1058,
      "搭": 1059,
      "摘": 1060,
      "操": 1061,
      "擬": 1062,
      "支": 1063,
      "改": 1064,
      "攻": 1065,
      "放": 1066,
      "效": 1067,
      "敗": 1068,
      "散": 1069,
      "数": 1070,
      "整": 1071,
      "文": 1072,
      "料": 1073,
      "断": 1074,
      "新": 1075,
      "方": 1076,
      "施": 1077,
      "旁": 1078,
      "族": 1079,
      "无": 1080,
      "日": 1081,
      "时": 1082,
      "昇": 1083,
      "明": 1084,
      "春": 1085,
      "是": 1086,
      "显": 1087,
      "時": 1088,
      "晓": 1089,
      "普": 1090,
      "暂": 1091,
      "更": 1092,
      "書": 1093,
      "替": 1094,
      "最": 1095,
      "月": 1096,
      "有": 1097,
      "服": 1098,
      "望": 1099,
      "期": 1100,
      "木": 1101,
      "未": 1102,
      "末": 1103,
      "本": 1104,
      "术": 1105,
      "机": 1106,
      "权": 1107,
      "李": 1108,
      "村": 1109,
      "杜": 1110,
      "束": 1111,
      "条": 1112,
      "来": 1113,
      "杨": 1114,
      "東": 1115,
      "松": 1116,
      "板": 1117,
      "极": 1118,
      "构": 1119,
      "析": 1120,
      "林": 1121,
      "果": 1122,
      "枠": 1123,
      "架": 1124,
      "柏": 1125,
      "某": 1126,
      "柔": 1127,
      "柘": 1128,
      "查": 1129,
      "柳": 1130,
      "査": 1131,
      "标": 1132,
      "树": 1133,
      "校": 1134,
      "样": 1135,
      "根": 1136,
      "格": 1137,
      "框": 1138,
      "桑": 1139,
      "档": 1140,
      "桶": 1141,
      "检": 1142,
      "棄": 1143,
      "棉": 1144,
      "棒": 1145,
      "棕": 1146,
      "棱": 1147,
      "検": 1148,
      "業": 1149,
      "概": 1150,
      "榈": 1151,
      "榴": 1152,
      "槽": 1153,
      "標": 1154,
      "模": 1155,
      "機": 1156,
      "橡": 1157,
      "次": 1158,
      "欢": 1159,
      "止": 1160,
      "正": 1161,
      "此": 1162,
      "步": 1163,
      "殊": 1164,
      "残": 1165,
      "段": 1166,
      "母": 1167,
      "毎": 1168,
      "每": 1169,
      "比": 1170,
      "毫": 1171,
      "民": 1172,
      "水": 1173,
      "永": 1174,
      "求": 1175,
      "汉": 1176,
      "池": 1177,
      "決": 1178,
      "沙": 1179,
      "没": 1180,
      "沥": 1181,
      "沪": 1182,
      "河": 1183,
      "油": 1184,
      "況": 1185,
      "泉": 1186,
      "泊": 1187,
      "法": 1188,
      "注": 1189,
      "派": 1190,
      "流": 1191,
      "测": 1192,
      "海": 1193,
      "消": 1194,
      "涧": 1195,
      "液": 1196,
      "淆": 1197,
      "混": 1198,
      "添": 1199,
      "清": 1200,
      "済": 1201,
      "減": 1202,
      "渡": 1203,
      "測": 1204,
      "湯": 1205,
      "源": 1206,
      "準": 1207,
      "溢": 1208,
      "溪": 1209,
      "满": 1210,
      "漢": 1211,
      "火": 1212,
      "灯": 1213,
      "炉": 1214,
      "点": 1215,
      "為": 1216,
      "热": 1217,
      "無": 1218,
      "焦": 1219,
      "然": 1220,
      "煤": 1221,
      "照": 1222,
      "熱": 1223,
      "父": 1224,
      "片": 1225,
      "版": 1226,
      "牌": 1227,
      "牛": 1228,
      "特": 1229,
      "状": 1230,
      "狗": 1231,
      "独": 1232,
      "猪": 1233,
      "猴": 1234,
      "率": 1235,
      "玉": 1236,
      "环": 1237,
      "现": 1238,
      "玻": 1239,
      "現": 1240,
      "理": 1241,
      "璃": 1242,
      "環": 1243,
      "生": 1244,
      "用": 1245,
      "田": 1246,
      "由": 1247,
      "甲": 1248,
      "申": 1249,
      "电": 1250,
      "画": 1251,
      "略": 1252,
      "番": 1253,
      "異": 1254,
      "癸": 1255,
      "発": 1256,
      "登": 1257,
      "白": 1258,
      "百": 1259,
      "的": 1260,
      "监": 1261,
      "盖": 1262,
      "目": 1263,
      "直": 1264,
      "相": 1265,
      "看": 1266,
      "県": 1267,
      "真": 1268,
      "着": 1269,
      "知": 1270,
      "短": 1271,
      "石": 1272,
      "矿": 1273,
      "码": 1274,
      "砂": 1275,
      "破": 1276,
      "硬": 1277,
      "确": 1278,
      "確": 1279,
      "碼": 1280,
      "示": 1281,
      "祖": 1282,
      "离": 1283,
      "私": 1284,
      "种": 1285,
      "秒": 1286,
      "积": 1287,
      "称": 1288,
      "移": 1289,
      "程": 1290,
      "積": 1291,
      "空": 1292,
      "穿": 1293,
      "立": 1294,
      "端": 1295,
      "符": 1296,
      "第": 1297,
      "等": 1298,
      "策": 1299,
      "签": 1300,
      "箇": 1301,
      "箔": 1302,
      "算": 1303,
      "管": 1304,
      "範": 1305,
      "篡": 1306,
      "米": 1307,
      "类": 1308,
      "粕": 1309,
      "糊": 1310,
      "糖": 1311,
      "系": 1312,
      "約": 1313,
      "納": 1314,
      "素": 1315,
      "索": 1316,
      "終": 1317,
      "組": 1318,
      "経": 1319,
      "結": 1320,
      "継": 1321,
      "続": 1322,
      "総": 1323,
      "編": 1324,
      "縁": 1325,
      "繰": 1326,
      "约": 1327,
      "级": 1328,
      "纹": 1329,
      "线": 1330,
      "组": 1331,
      "终": 1332,
      "经": 1333,
      "结": 1334,
      "绕": 1335,
      "绘": 1336,
      "给": 1337,
      "络": 1338,
      "统": 1339,
      "继": 1340,
      "续": 1341,
      "维": 1342,
      "缀": 1343,
      "缓": 1344,
      "编": 1345,
      "缩": 1346,
      "缺": 1347,
      "网": 1348,
      "置": 1349,
      "羊": 1350,
      "群": 1351,
      "義": 1352,
      "老": 1353,
      "考": 1354,
      "者": 1355,
      "而": 1356,
      "耗": 1357,
      "胶": 1358,
      "能": 1359,
      "自": 1360,
      "致": 1361,
      "色": 1362,
      "节": 1363,
      "芳": 1364,
      "若": 1365,
      "英": 1366,
      "苹": 1367,
      "范": 1368,
      "荐": 1369,
      "荘": 1370,
      "获": 1371,
      "萍": 1372,
      "萬": 1373,
      "落": 1374,
      "葉": 1375,
      "藏": 1376,
      "蘇": 1377,
      "虎": 1378,
      "虚": 1379,
      "蛇": 1380,
      "蛋": 1381,
      "蜡": 1382,
      "螺": 1383,
      "行": 1384,
      "表": 1385,
      "被": 1386,
      "装": 1387,
      "補": 1388,
      "要": 1389,
      "覆": 1390,
      "見": 1391,
      "規": 1392,
      "視": 1393,
      "親": 1394,
      "规": 1395,
      "角": 1396,
      "解": 1397,
      "言": 1398,
      "計": 1399,
      "記": 1400,
      "設": 1401,
      "許": 1402,
      "証": 1403,
      "試": 1404,
      "詰": 1405,
      "詳": 1406,
      "認": 1407,
      "語": 1408,
      "誤": 1409,
      "読": 1410,
      "誰": 1411,
      "調": 1412,
      "警": 1413,
      "譲": 1414,
      "计": 1415,
      "认": 1416,
      "让": 1417,
      "记": 1418,
      "许": 1419,
      "设": 1420,
      "访": 1421,
      "证": 1422,
      "评": 1423,
      "词": 1424,
      "译": 1425,
      "试": 1426,
      "询": 1427,
      "该": 1428,
      "详": 1429,
      "语": 1430,
      "误": 1431,
      "说": 1432,
      "请": 1433,
      "读": 1434,
      "谀": 1435,
      "调": 1436,
      "谢": 1437,
      "豆": 1438,
      "象": 1439,
      "質": 1440,
      "负": 1441,
      "责": 1442,
      "败": 1443,
      "账": 1444,
      "质": 1445,
      "贴": 1446,
      "费": 1447,
      "资": 1448,
      "赋": 1449,
      "赤": 1450,
      "走": 1451,
      "起": 1452,
      "超": 1453,
      "足": 1454,
      "距": 1455,
      "跟": 1456,
      "跨": 1457,
      "路": 1458,
      "踪": 1459,
      "軟": 1460,
      "較": 1461,
      "转": 1462,
      "轮": 1463,
      "软": 1464,
      "载": 1465,
      "较": 1466,
      "输": 1467,
      "辛": 1468,
      "辞": 1469,
      "辟": 1470,
      "辰": 1471,
      "边": 1472,
      "込": 1473,
      "达": 1474,
      "过": 1475,
      "运": 1476,
      "近": 1477,
      "返": 1478,
      "还": 1479,
      "这": 1480,
      "进": 1481,
      "远": 1482,
      "连": 1483,
      "述": 1484,
      "追": 1485,
      "退": 1486,
      "送": 1487,
      "逆": 1488,
      "选": 1489,
      "透": 1490,
      "递": 1491,
      "通": 1492,
      "速": 1493,
      "遍": 1494,
      "過": 1495,
      "道": 1496,
      "違": 1497,
      "適": 1498,
      "遷": 1499,
      "避": 1500,
      "那": 1501,
      "郎": 1502,
      "郑": 1503,
      "部": 1504,
      "都": 1505,
      "酉": 1506,
      "配": 1507,
      "醇": 1508,
      "里": 1509,
      "重": 1510,
      "野": 1511,
      "量": 1512,
      "金": 1513,
      "鈴": 1514,
      "针": 1515,
      "钏": 1516,
      "钗": 1517,
      "钟": 1518,
      "钥": 1519,
      "铁": 1520,
      "铜": 1521,
      "铝": 1522,
      "银": 1523,
      "链": 1524,
      "锁": 1525,
      "锌": 1526,
      "错": 1527,
      "键": 1528,
      "镍": 1529,
      "镜": 1530,
      "長": 1531,
      "长": 1532,
      "開": 1533,
      "間": 1534,
      "関": 1535,
      "闭": 1536,
      "问": 1537,
      "闰": 1538,
      "间": 1539,
      "队": 1540,
      "阪": 1541,
      "阮": 1542,
      "防": 1543,
      "阳": 1544,
      "阴": 1545,
      "阶": 1546,
      "阻": 1547,
      "阿": 1548,
      "际": 1549,
      "陆": 1550,
      "陈": 1551,
      "降": 1552,
      "限": 1553,
      "除": 1554,
      "险": 1555,
      "陷": 1556,
      "随": 1557,
      "隐": 1558,
      "隔": 1559,
      "隙": 1560,
      "際": 1561,
      "隧": 1562,
      "集": 1563,
      "雳": 1564,
      "電": 1565,
      "需": 1566,
      "霹": 1567,
      "青": 1568,
      "静": 1569,
      "非": 1570,
      "面": 1571,
      "音": 1572,
      "項": 1573,
      "順": 1574,
      "須": 1575,
      "領": 1576,
      "頭": 1577,
      "頻": 1578,
      "題": 1579,
      "願": 1580,
      "類": 1581,
      "页": 1582,
      "顶": 1583,
      "项": 1584,
      "顺": 1585,
      "预": 1586,
      "领": 1587,
      "频": 1588,
      "题": 1589,
      "额": 1590,
      "风": 1591,
      "飛": 1592,
      "首": 1593,
      "験": 1594,
      "马": 1595,
      "驴": 1596,
      "驿": 1597,
      "验": 1598,
      "骤": 1599,
      "高": 1600,
      "鸡": 1601,
      "黄": 1602,
      "默": 1603,
      "鼠": 1604,
      "齐": 1605,
      "龙": 1606,
      "ꝏ": 1607,
      "가": 1608,
      "값": 1609,
      "개": 1610,
      "경": 1611,
      "계": 1612,
      "구": 1613,
      "국": 1614,
      "그": 1615,
      "금": 1616,
      "년": 1617,
      "녕": 1618,
      "는": 1619,
      "니": 1620,
      "다": 1621,
      "된": 1622,
      "드": 1623,
      "딩": 1624,
      "랜": 1625,
      "러": 1626,
      "로": 1627,
      "를": 1628,
      "름": 1629,
      "리": 1630,
      "마": 1631,
      "맞": 1632,
      "매": 1633,
      "문": 1634,
      "미": 1635,
      "바": 1636,
      "박": 1637,
      "반": 1638,
      "발": 1639,
      "병": 1640,
      "보": 1641,
      "빌": 1642,
      "사": 1643,
      "상": 1644,
      "생": 1645,
      "성": 1646,
      "세": 1647,
      "션": 1648,
      "수": 1649,
      "스": 1650,
      "습": 1651,
      "시": 1652,
      "식": 1653,
      "안": 1654,
      "않": 1655,
      "애": 1656,
      "액": 1657,
      "없": 1658,
      "에": 1659,
      "엔": 1660,
      "여": 1661,
      "열": 1662,
      "온": 1663,
      "요": 1664,
      "용": 1665,
      "우": 1666,
      "원": 1667,
      "월": 1668,
      "은": 1669,
      "을": 1670,
      "의": 1671,
      "이": 1672,
      "인": 1673,
      "입": 1674,
      "자": 1675,
      "장": 1676,
      "잭": 1677,
      "저": 1678,
      "전": 1679,
      "정": 1680,
      "제": 1681,
      "져": 1682,
      "조": 1683,
      "주": 1684,
      "지": 1685,
      "직": 1686,
      "출": 1687,
      "쿼": 1688,
      "키": 1689,
      "통": 1690,
      "트": 1691,
      "티": 1692,
      "품": 1693,
      "플": 1694,
      "하": 1695,
      "한": 1696,
      "합": 1697,
      "해": 1698,
      "형": 1699,
      "호": 1700,
      "확": 1701,
      "환": 1702,
      "회": 1703,
      "�": 1704,
      "👍": 1705,
      "👎": 1706,
      "💧": 1707,
      "🕈": 1708,
      "😀": 1709,
      "😃": 1710,
      "😉": 1711,
      "🤔": 1712,
      "𠜎": 1713,
      "𠜱": 1714,
      "𠝹": 1715,
      "𠱓": 1716,
      "𠱸": 1717,
      "𠲖": 1718,
      "𠳏": 1719,
      "𠳕": 1720,
      "𠴕": 1721,
      "𠵼": 1722,
      "𠵿": 1723,
      "𠸎": 1724,
      "𠸏": 1725,
      "𠹷": 1726,
      "𠺝": 1727,
      "𠺢": 1728,
      "𠻗": 1729,
      "𠻹": 1730,
      "𠻺": 1731,
      "𠼭": 1732,
      "𠼮": 1733,
      "𠽌": 1734,
      "𠾴": 1735,
      "𠾼": 1736,
      "𠿪": 1737,
      "𡁜": 1738,
      "𡁯": 1739,
      "𡁵": 1740,
      "𡁶": 1741,
      "𡁻": 1742,
      "𡃁": 1743,
      "𡃉": 1744,
      "𡇙": 1745,
      "𢃇": 1746,
      "𢞵": 1747,
      "𢫕": 1748,
      "𢭃": 1749,
      "𢯊": 1750,
      "𢱑": 1751,
      "𢱕": 1752,
      "𢳂": 1753,
      "𢴈": 1754,
      "𢵌": 1755,
      "𢵧": 1756,
      "𢺳": 1757,
      "𣲷": 1758,
      "𤓓": 1759,
      "𤶸": 1760,
      "𤷪": 1761,
      "𥄫": 1762,
      "𦉘": 1763,
      "𦟌": 1764,
      "𦧲": 1765,
      "𦧺": 1766,
      "𧨾": 1767,
      "𨅝": 1768,
      "𨈇": 1769,
      "𨋢": 1770,
      "𨳊": 1771,
      "𨳍": 1772,
      "𨳒": 1773,
      "𩶘": 1774,
      "##O": 1775,
      "##M": 1776,
      "##P": 1777,
      "##A": 1778,
      "##R": 1779,
      "##I": 1780,
      "##S": 1781,
      "##N": 1782,
      "##G": 1783,
      "##E": 1784,
      "##T": 1785,
      "##_": 1786,
      "##L": 1787,
      "##B": 1788,
      "##D": 1789,
      "##C": 1790,
      "##Y": 1791,
      "##u": 1792,
      "##t": 1793,
      "##o": 1794,
      "##F": 1795,
      "##a": 1796,
      "##i": 1797,
      "##l": 1798,
      "##c": 1799,
      "##k": 1800,
      "##y": 1801,
      "##e": 1802,
      "##f": 1803,
      "##s": 1804,
      "##n": 1805,
      "##r": 1806,
      "##p": 1807,
      "##g": 1808,
      "##m": 1809,
      "##b": 1810,
      "##d": 1811,
      "##v": 1812,
      "##h": 1813,
      "##H": 1814,
      "##J": 1815,
      "##Q": 1816,
      "##w": 1817,
      "##V": 1818,
      "##x": 1819,
      "##j": 1820,
      "##2": 1821,
      "##q": 1822,
      "##U": 1823,
      "##5": 1824,
      "##4": 1825,
      "##9": 1826,
      "##1": 1827,
      "##7": 1828,
      "##6": 1829,
      "##3": 1830,
      "##8": 1831,
      "##0": 1832,
      "##K": 1833,
      "##}": 1834,
      "##\"": 1835,
      "##,": 1836,
      "##X": 1837,
      "##Z": 1838,
      "##z": 1839,
      "##W": 1840,
      "##*": 1841,
      "##é": 1842,
      "##=": 1843,
      "##’": 1844,
      "##:": 1845,
      "##)": 1846,
      "##[": 1847,
      "##/": 1848,
      "##パ": 1849,
      "##ラ": 1850,
      "##メ": 1851,
      "##ー": 1852,
      "##タ": 1853,
      "##宣": 1854,
      "##言": 1855,
      "##し": 1856,
      "##て": 1857,
      "##い": 1858,
      "##る": 1859,
      "##ク": 1860,
      "##ス": 1861,
      "##の": 1862,
      "##リ": 1863,
      "##ト": 1864,
      "##{": 1865,
      "##ロ": 1866,
      "##ダ": 1867,
      "##を": 1868,
      "##利": 1869,
      "##用": 1870,
      "##な": 1871,
      "##け": 1872,
      "##れ": 1873,
      "##ば": 1874,
      "##ら": 1875,
      "##た": 1876,
      "##め": 1877,
      "##両": 1878,
      "##方": 1879,
      "##併": 1880,
      "##す": 1881,
      "##(": 1882,
      "##.": 1883,
      "##|": 1884,
      "##о": 1885,
      "##з": 1886,
      "##г": 1887,
      "##р": 1888,
      "##е": 1889,
      "##л": 1890,
      "##с": 1891,
      "##я": 1892,
      "##\\": 1893,
      "##?": 1894,
      "##<": 1895,
      "###": 1896,
      "##ズ": 1897,
      "##時": 1898,
      "##に": 1899,
      "##発": 1900,
      "##生": 1901,
      "##は": 1902,
      "##ハ": 1903,
      "##ン": 1904,
      "##ド": 1905,
      "##グ": 1906,
      "##;": 1907,
      "##-": 1908,
      "##'": 1909,
      "##什": 1910,
      "##么": 1911,
      "##需": 1912,
      "##要": 1913,
      "##我": 1914,
      "##帮": 1915,
      "##你": 1916,
      "##的": 1917,
      "##历": 1918,
      "##и": 1919,
      "##п": 1920,
      "##т": 1921,
      "##н": 1922,
      "##а": 1923,
      "##д": 1924,
      "##ц": 1925,
      "##]": 1926,
      "##$": 1927,
      "##月": 1928,
      "##~": 1929,
      "##>": 1930,
      "##运": 1931,
      "##行": 1932,
      "##时": 1933,
      "##环": 1934,
      "##境": 1935,
      "##规": 1936,
      "##范": 1937,
      "##供": 1938,
      "##应": 1939,
      "##商": 1940,
      "##結": 1941,
      "##果": 1942,
      "##確": 1943,
      "##認": 1944,
      "##泊": 1945,
      "##日": 1946,
      "##点": 1947,
      "##终": 1948,
      "##在": 1949,
      "##同": 1950,
      "##一": 1951,
      "##个": 1952,
      "##多": 1953,
      "##边": 1954,
      "##形": 1955,
      "##中": 1956,
      "##^": 1957,
      "##в": 1958,
      "##+": 1959,
      "##!": 1960,
      "##æ": 1961,
      "##ã": 1962,
      "##%": 1963,
      "##х": 1964,
      "##к": 1965,
      "##素": 1966,
      "##数": 1967,
      "##と": 1968,
      "##过": 1969,
      "##引": 1970,
      "##结": 1971,
      "##合": 1972,
      "##于": 1973,
      "##此": 1974,
      "##@": 1975,
      "##й": 1976,
      "##у": 1977,
      "##&": 1978,
      "##イ": 1979,
      "##フ": 1980,
      "##ェ": 1981,
      "##内": 1982,
      "##ш": 1983,
      "##ь": 1984,
      "##ソ": 1985,
      "##ッ": 1986,
      "##コ": 1987,
      "##部": 1988,
      "##で": 1989,
      "##実": 1990,
      "##さ": 1991,
      "##б": 1992,
      "##ы": 1993,
      "##м": 1994,
      "##ヲ": 1995,
      "##查": 1996,
      "##是": 1997,
      "##否": 1998,
      "##当": 1999,
      "##前": 2000,
      "##下": 2001,
      "##节": 2002,
      "##有": 2003,
      "##序": 2004,
      "##£": 2005,
      "##ヺ": 2006,
      "##ж": 2007,
      "##あ": 2008,
      "##こ": 2009,
      "##ю": 2010,
      "##注": 2011,
      "##解": 2012,
      "##ヷ": 2013,
      "##が": 2014,
      "##ま": 2015,
      "##せ": 2016,
      "##ん": 2017,
      "##–": 2018,
      "##«": 2019,
      "##»": 2020,
      "##„": 2021,
      "##“": 2022,
      "##”": 2023,
      "##‘": 2024,
      "##`": 2025,
      "##塞": 2026,
      "##到": 2027,
      "##毫": 2028,
      "##秒": 2029,
      "##è": 2030,
      "##丸": 2031,
      "##ч": 2032,
      "##щ": 2033,
      "##新": 2034,
      "##开": 2035,
      "##始": 2036,
      "##年": 2037,
      "##对": 2038,
      "##象": 2039,
      "##转": 2040,
      "##换": 2041,
      "##为": 2042,
      "##字": 2043,
      "##符": 2044,
      "##串": 2045,
      "##输": 2046,
      "##出": 2047,
      "##糊": 2048,
      "##匹": 2049,
      "##配": 2050,
      "##使": 2051,
      "##法": 2052,
      "##库": 2053,
      "##候": 2054,
      "##表": 2055,
      "##示": 2056,
      "##间": 2057,
      "##做": 2058,
      "##随": 2059,
      "##机": 2060,
      "##复": 2061,
      "##预": 2062,
      "##约": 2063,
      "##金": 2064,
      "##理": 2065,
      "##主": 2066,
      "##務": 2067,
      "##共": 2068,
      "##通": 2069,
      "##テ": 2070,
      "##ナ": 2071,
      "##取": 2072,
      "##分": 2073,
      "##值": 2074,
      "##降": 2075,
      "##Ž": 2076,
      "##設": 2077,
      "##定": 2078,
      "##提": 2079,
      "##条": 2080,
      "##件": 2081,
      "##力": 2082,
      "##ベ": 2083,
      "##ル": 2084,
      "##場": 2085,
      "##デ": 2086,
      "##ォ": 2087,
      "##国": 2088,
      "##検": 2089,
      "##索": 2090,
      "##ュ": 2091,
      "##終": 2092,
      "##了": 2093,
      "##知": 2094,
      "##後": 2095,
      "##準": 2096,
      "##済": 2097,
      "##み": 2098,
      "##差": 2099,
      "##画": 2100,
      "##像": 2101,
      "##调": 2102,
      "##优": 2103,
      "##á": 2104,
      "##¢": 2105,
      "##掉": 2106,
      "##号": 2107,
      "##位": 2108,
      "##モ": 2109,
      "##化": 2110,
      "##対": 2111,
      "##外": 2112,
      "##箇": 2113,
      "##所": 2114,
      "##挙": 2115,
      "##動": 2116,
      "##変": 2117,
      "##わ": 2118,
      "##り": 2119,
      "##施": 2120,
      "##不": 2121,
      "##可": 2122,
      "##文": 2123,
      "##档": 2124,
      "##类": 2125,
      "##型": 2126,
      "##都": 2127,
      "##事": 2128,
      "##务": 2129,
      "##ä": 2130,
      "##ü": 2131,
      "##容": 2132,
      "##呼": 2133,
      "##び": 2134,
      "##允": 2135,
      "##许": 2136,
      "##以": 2137,
      "##判": 2138,
      "##发": 2139,
      "##团": 2140,
      "##队": 2141,
      "##达": 2142,
      "##成": 2143,
      "##致": 2144,
      "##├": 2145,
      "##─": 2146,
      "##┼": 2147,
      "##┘": 2148,
      "##題": 2149,
      "##자": 2150,
      "##열": 2151,
      "##로": 2152,
      "##직": 2153,
      "##전": 2154,
      "##월": 2155,
      "##을": 2156,
      "##구": 2157,
      "##한": 2158,
      "##다": 2159,
      "##ě": 2160,
      "##后": 2161,
      "##比": 2162,
      "##较": 2163,
      "##各": 2164,
      "##向": 2165,
      "##续": 2166,
      "##œ": 2167,
      "##铝": 2168,
      "##元": 2169,
      "##芳": 2170,
      "##┤": 2171,
      "##牌": 2172,
      "##者": 2173,
      "##儿": 2174,
      "##八": 2175,
      "##经": 2176,
      "##测": 2177,
      "##试": 2178,
      "##品": 2179,
      "##⃦": 2180,
      "##ö": 2181,
      "##オ": 2182,
      "##バ": 2183,
      "##き": 2184,
      "##作": 2185,
      "##列": 2186,
      "##か": 2187,
      "##空": 2188,
      "##返": 2189,
      "##却": 2190,
      "##ń": 2191,
      "##得": 2192,
      "##態": 2193,
      "##询": 2194,
      "##户": 2195,
      "##名": 2196,
      "##尝": 2197,
      "##创": 2198,
      "##建": 2199,
      "##指": 2200,
      "##组": 2201,
      "##摘": 2202,
      "##进": 2203,
      "##最": 2204,
      "##更": 2205,
      "##ř": 2206,
      "##セ": 2207,
      "##ジ": 2208,
      "##庆": 2209,
      "##将": 2210,
      "##存": 2211,
      "##删": 2212,
      "##換": 2213,
      "##₥": 2214,
      "##¤": 2215,
      "##上": 2216,
      "##传": 2217,
      "##本": 2218,
      "##地": 2219,
      "##搜": 2220,
      "##ё": 2221,
      "##体": 2222,
      "##回": 2223,
      "##繰": 2224,
      "##Đ": 2225,
      "##マ": 2226,
      "##只": 2227,
      "##안": 2228,
      "##녕": 2229,
      "##하": 2230,
      "##세": 2231,
      "##요": 2232,
      "##来": 2233,
      "##计": 2234,
      "##算": 2235,
      "##并": 2236,
      "##区": 2237,
      "##切": 2238,
      "##目": 2239,
      "##母": 2240,
      "##和": 2241,
      "##ф": 2242,
      "##値": 2243,
      "##妈": 2244,
      "##小": 2245,
      "##公": 2246,
      "##仔": 2247,
      "##ィ": 2248,
      "##初": 2249,
      "##期": 2250,
      "##格": 2251,
      "##納": 2252,
      "##環": 2253,
      "##称": 2254,
      "##移": 2255,
      "##错": 2256,
      "##プ": 2257,
      "##ァ": 2258,
      "##読": 2259,
      "##む": 2260,
      "##원": 2261,
      "##度": 2262,
      "##だ": 2263,
      "##つ": 2264,
      "##┏": 2265,
      "##━": 2266,
      "##┳": 2267,
      "##┓": 2268,
      "##込": 2269,
      "##自": 2270,
      "##煤": 2271,
      "##无": 2272,
      "##゚": 2273,
      "##顶": 2274,
      "##穿": 2275,
      "##插": 2276,
      "##其": 2277,
      "##他": 2278,
      "##网": 2279,
      "##络": 2280,
      "##操": 2281,
      "##启": 2282,
      "##端": 2283,
      "##口": 2284,
      "##入": 2285,
      "##据": 2286,
      "##搭": 2287,
      "##í": 2288,
      "##描": 2289,
      "##チ": 2290,
      "##例": 2291,
      "##思": 2292,
      "##‰": 2293,
      "##無": 2294,
      "##页": 2295,
      "##信": 2296,
      "##息": 2297,
      "##单": 2298,
      "##词": 2299,
      "##首": 2300,
      "##系": 2301,
      "##统": 2302,
      "##版": 2303,
      "##控": 2304,
      "##制": 2305,
      "##隔": 2306,
      "##置": 2307,
      "##全": 2308,
      "##局": 2309,
      "##资": 2310,
      "##源": 2311,
      "##池": 2312,
      "##春": 2313,
      "##↓": 2314,
      "##備": 2315,
      "##ç": 2316,
      "##う": 2317,
      "##除": 2318,
      "##待": 2319,
      "##ョ": 2320,
      "##ブ": 2321,
      "##シ": 2322,
      "##ケ": 2323,
      "##误": 2324,
      "##頭": 2325,
      "##آ": 2326,
      "##أ": 2327,
      "##还": 2328,
      "##次": 2329,
      "##重": 2330,
      "##会": 2331,
      "##工": 2332,
      "##录": 2333,
      "##起": 2334,
      "##编": 2335,
      "##译": 2336,
      "##异": 2337,
      "##常": 2338,
      "##ù": 2339,
      "##标": 2340,
      "##集": 2341,
      "##群": 2342,
      "##步": 2343,
      "##实": 2344,
      "##假": 2345,
      "##如": 2346,
      "##效": 2347,
      "##那": 2348,
      "##权": 2349,
      "##限": 2350,
      "##、": 2351,
      "##储": 2352,
      "##处": 2353,
      "##ø": 2354,
      "##語": 2355,
      "##義": 2356,
      "##路": 2357,
      "##径": 2358,
      "##短": 2359,
      "##正": 2360,
      "##确": 2361,
      "##且": 2362,
      "##请": 2363,
      "##求": 2364,
      "##该": 2365,
      "##功": 2366,
      "##围": 2367,
      "##程": 2368,
      "##质": 2369,
      "##量": 2370,
      "##及": 2371,
      "##风": 2372,
      "##险": 2373,
      "##估": 2374,
      "##找": 2375,
      "##受": 2376,
      "##影": 2377,
      "##响": 2378,
      "##三": 2379,
      "##角": 2380,
      "##戳": 2381,
      "##避": 2382,
      "##免": 2383,
      "##读": 2384,
      "##问": 2385,
      "##题": 2386,
      "##直": 2387,
      "##接": 2388,
      "##链": 2389,
      "##っ": 2390,
      "##Ÿ": 2391,
      "##码": 2392,
      "##証": 2393,
      "##排": 2394,
      "##キ": 2395,
      "##ャ": 2396,
      "##ō": 2397,
      "##類": 2398,
      "##似": 2399,
      "##計": 2400,
      "##连": 2401,
      "##状": 2402,
      "##态": 2403,
      "##修": 2404,
      "##改": 2405,
      "##人": 2406,
      "##获": 2407,
      "##篡": 2408,
      "##「": 2409,
      "##隧": 2410,
      "##道": 2411,
      "##؛": 2412,
      "##š": 2413,
      "##二": 2414,
      "##级": 2415,
      "##残": 2416,
      "##お": 2417,
      "##く": 2418,
      "##¥": 2419,
      "##レ": 2420,
      "##好": 2421,
      "##追": 2422,
      "##加": 2423,
      "##割": 2424,
      "##┴": 2425,
      "##印": 2426,
      "##十": 2427,
      "##Ḏ": 2428,
      "##任": 2429,
      "##何": 2430,
      "##ƒ": 2431,
      "##先": 2432,
      "##选": 2433,
      "##择": 2434,
      "##总": 2435,
      "##载": 2436,
      "##证": 2437,
      "##☐": 2438,
      "##键": 2439,
      "##特": 2440,
      "##殊": 2441,
      "##走": 2442,
      "##└": 2443,
      "##等": 2444,
      "##処": 2445,
      "##能": 2446,
      "##记": 2447,
      "##灯": 2448,
      "##由": 2449,
      "##光": 2450,
      "##极": 2451,
      "##管": 2452,
      "##消": 2453,
      "##费": 2454,
      "##続": 2455,
      "##米": 2456,
      "##Š": 2457,
      "##┌": 2458,
      "##┬": 2459,
      "##┐": 2460,
      "##郎": 2461,
      "##忽": 2462,
      "##略": 2463,
      "##缀": 2464,
      "##头": 2465,
      "##ú": 2466,
      "##未": 2467,
      "##设": 2468,
      "##エ": 2469,
      "##再": 2470,
      "##保": 2471,
      "##葉": 2472,
      "##県": 2473,
      "##千": 2474,
      "##代": 2475,
      "##市": 2476,
      "##高": 2477,
      "##野": 2478,
      "##π": 2479,
      "##ɔ": 2480,
      "##ǝ": 2481,
      "##ɟ": 2482,
      "##ɥ": 2483,
      "##ı": 2484,
      "##ɾ": 2485,
      "##ʞ": 2486,
      "##ɯ": 2487,
      "##ɹ": 2488,
      "##ʇ": 2489,
      "##ʌ": 2490,
      "##ʍ": 2491,
      "##ʎ": 2492,
      "##見": 2493,
      "##番": 2494,
      "##断": 2495,
      "##ぱ": 2496,
      "##ち": 2497,
      "##止": 2498,
      "##へ": 2499,
      "##サ": 2500,
      "##基": 2501,
      "##情": 2502,
      "##報": 2503,
      "##も": 2504,
      "##ß": 2505,
      "##Ê": 2506,
      "##規": 2507,
      "##峰": 2508,
      "##密": 2509,
      "##报": 2510,
      "##京": 2511,
      "##变": 2512,
      "##虚": 2513,
      "##拟": 2514,
      "##ъ": 2515,
      "##経": 2516,
      "##ミ": 2517,
      "##ム": 2518,
      "##ヤ": 2519,
      "##ユ": 2520,
      "##ヨ": 2521,
      "##遍": 2522,
      "##够": 2523,
      "##冻": 2524,
      "##剩": 2525,
      "##余": 2526,
      "##锌": 2527,
      "##ב": 2528,
      "##ג": 2529,
      "##耗": 2530,
      "##−": 2531,
      "##‐": 2532,
      "##カ": 2533,
      "##ゴ": 2534,
      "##較": 2535,
      "##式": 2536,
      "##지": 2537,
      "##矿": 2538,
      "##远": 2539,
      "##维": 2540,
      "##写": 2541,
      "##開": 2542,
      "##放": 2543,
      "##里": 2544,
      "##質": 2545,
      "##装": 2546,
      "##ず": 2547,
      "##適": 2548,
      "##柔": 2549,
      "##軟": 2550,
      "##縁": 2551,
      "##抵": 2552,
      "##扣": 2553,
      "##关": 2554,
      "##闭": 2555,
      "##å": 2556,
      "##│": 2557,
      "##ア": 2558,
      "##执": 2559,
      "##尽": 2560,
      "##油": 2561,
      "##际": 2562,
      "##申": 2563,
      "##à": 2564,
      "##明": 2565,
      "##戻": 2566,
      "##失": 2567,
      "##敗": 2568,
      "##村": 2569,
      "##戦": 2570,
      "##よ": 2571,
      "##ザ": 2572,
      "##別": 2573,
      "##係": 2574,
      "##導": 2575,
      "##尾": 2576,
      "##À": 2577,
      "##块": 2578,
      "##没": 2579,
      "##ピ": 2580,
      "##就": 2581,
      "##树": 2582,
      "##의": 2583,
      "##粕": 2584,
      "##两": 2585,
      "##╋": 2586,
      "##┫": 2587,
      "##©": 2588,
      "##立": 2589,
      "##圆": 2590,
      "##心": 2591,
      "##距": 2592,
      "##离": 2593,
      "##阶": 2594,
      "##况": 2595,
      "##截": 2596,
      "##č": 2597,
      "##片": 2598,
      "##属": 2599,
      "##性": 2600,
      "##左": 2601,
      "##右": 2602,
      "##整": 2603,
      "##构": 2604,
      "##長": 2605,
      "##包": 2606,
      "##含": 2607,
      "##゙": 2608,
      "##镍": 2609,
      "##动": 2610,
      "##業": 2611,
      "##听": 2612,
      "##模": 2613,
      "##钥": 2614,
      "##랜": 2615,
      "##잭": 2616,
      "##션": 2617,
      "##없": 2618,
      "##는": 2619,
      "##경": 2620,
      "##우": 2621,
      "##束": 2622,
      "##永": 2623,
      "##真": 2624,
      "##。": 2625,
      "##�": 2626,
      "##坐": 2627,
      "##え": 2628,
      "##五": 2629,
      "##陷": 2630,
      "##跟": 2631,
      "##踪": 2632,
      "##安": 2633,
      "##ࠒ": 2634,
      "##ウ": 2635,
      "##之": 2636,
      "##备": 2637,
      "##份": 2638,
      "##册": 2639,
      "##Ԁ": 2640,
      "##Ὁ": 2641,
      "##ᴚ": 2642,
      "##拆": 2643,
      "##削": 2644,
      "##料": 2645,
      "##ر": 2646,
      "##ن": 2647,
      "##ا": 2648,
      "##م": 2649,
      "##ه": 2650,
      "##或": 2651,
      "##扩": 2652,
      "##展": 2653,
      "##布": 2654,
      "##支": 2655,
      "##递": 2656,
      "##参": 2657,
      "##П": 2658,
      "##司": 2659,
      "##项": 2660,
      "##希": 2661,
      "##望": 2662,
      "##被": 2663,
      "##大": 2664,
      "##函": 2665,
      "##则": 2666,
      "##順": 2667,
      "##照": 2668,
      "##ð": 2669,
      "##址": 2670,
      "##糖": 2671,
      "##图": 2672,
      "##胶": 2673,
      "##側": 2674,
      "##四": 2675,
      "##範": 2676,
      "##囲": 2677,
      "##超": 2678,
      "##层": 2679,
      "##叠": 2680,
      "##锁": 2681,
      "##员": 2682,
      "##给": 2683,
      "##予": 2684,
      "##完": 2685,
      "##第": 2686,
      "##‌": 2687,
      "##じ": 2688,
      "##流": 2689,
      "##板": 2690,
      "##括": 2691,
      "##•": 2692,
      "##μ": 2693,
      "##領": 2694,
      "##域": 2695,
      "##英": 2696,
      "##異": 2697,
      "##带": 2698,
      "##父": 2699,
      "##必": 2700,
      "##针": 2701,
      "##非": 2702,
      "##满": 2703,
      "##足": 2704,
      "##ï": 2705,
      "##添": 2706,
      "##柏": 2707,
      "##辟": 2708,
      "##補": 2709,
      "##桶": 2710,
      "##家": 2711,
      "##暂": 2712,
      "##产": 2713,
      "##述": 2714,
      "##組": 2715,
      "##线": 2716,
      "##拿": 2717,
      "##隐": 2718,
      "##藏": 2719,
      "##循": 2720,
      "##克": 2721,
      "##応": 2722,
      "##验": 2723,
      "##签": 2724,
      "##架": 2725,
      "##機": 2726,
      "##ê": 2727,
      "##書": 2728,
      "##┗": 2729,
      "##┛": 2730,
      "##海": 2731,
      "##∞": 2732,
      "##ペ": 2733,
      "##ポ": 2734,
      "##语": 2735,
      "##М": 2736,
      "##持": 2737,
      "##老": 2738,
      "##寂": 2739,
      "##湯": 2740,
      "##宿": 2741,
      "##谢": 2742,
      "##箔": 2743,
      "##派": 2744,
      "##认": 2745,
      "##付": 2746,
      "##与": 2747,
      "##ノ": 2748,
      "##記": 2749,
      "##独": 2750,
      "##渡": 2751,
      "##堆": 2752,
      "##ñ": 2753,
      "##¶": 2754,
      "##交": 2755,
      "##그": 2756,
      "##인": 2757,
      "##사": 2758,
      "##용": 2759,
      "##주": 2760,
      "##문": 2761,
      "##상": 2762,
      "##품": 2763,
      "##금": 2764,
      "##액": 2765,
      "##합": 2766,
      "##계": 2767,
      "##가": 2768,
      "##반": 2769,
      "##환": 2770,
      "##된": 2771,
      "##面": 2772,
      "##微": 2773,
      "##棱": 2774,
      "##镜": 2775,
      "##导": 2776,
      "##散": 2777,
      "##热": 2778,
      "##框": 2779,
      "##隙": 2780,
      "##而": 2781,
      "##槽": 2782,
      "##破": 2783,
      "##棄": 2784,
      "##親": 2785,
      "##頻": 2786,
      "##《": 2787,
      "##决": 2788,
      "##策": 2789,
      "##阴": 2790,
      "##详": 2791,
      "##恢": 2792,
      "##因": 2793,
      "##客": 2794,
      "##意": 2795,
      "##은": 2796,
      "##빌": 2797,
      "##딩": 2798,
      "##长": 2799,
      "##ゥ": 2800,
      "##ニ": 2801,
      "##ヌ": 2802,
      "##ネ": 2803,
      "##析": 2804,
      "##协": 2805,
      "##落": 2806,
      "##柳": 2807,
      "##天": 2808,
      "##棉": 2809,
      "##检": 2810,
      "##登": 2811,
      "##蛋": 2812,
      "##令": 2813,
      "##Ó": 2814,
      "##Ñ": 2815,
      "##Ô": 2816,
      "##Ù": 2817,
      "##Ø": 2818,
      "##—": 2819,
      "##―": 2820,
      "##′": 2821,
      "##須": 2822,
      "##項": 2823,
      "##λ": 2824,
      "##绕": 2825,
      "##从": 2826,
      "##往": 2827,
      "##子": 2828,
      "##普": 2829,
      "##試": 2830,
      "##命": 2831,
      "##拉": 2832,
      "##장": 2833,
      "##Ö": 2834,
      "##Ä": 2835,
      "##Ü": 2836,
      "##样": 2837,
      "##ž": 2838,
      "##末": 2839,
      "##积": 2840,
      "##𠜱": 2841,
      "##𠝹": 2842,
      "##𠱓": 2843,
      "##𠱸": 2844,
      "##𠲖": 2845,
      "##𠳏": 2846,
      "##𠳕": 2847,
      "##𠴕": 2848,
      "##𠵼": 2849,
      "##𠵿": 2850,
      "##𠸎": 2851,
      "##𠸏": 2852,
      "##𠹷": 2853,
      "##𠺝": 2854,
      "##𠺢": 2855,
      "##𠻗": 2856,
      "##𠻹": 2857,
      "##𠻺": 2858,
      "##𠼭": 2859,
      "##𠼮": 2860,
      "##𠽌": 2861,
      "##𠾴": 2862,
      "##𠾼": 2863,
      "##𠿪": 2864,
      "##𡁜": 2865,
      "##𡁯": 2866,
      "##𡁵": 2867,
      "##𡁶": 2868,
      "##𡁻": 2869,
      "##𡃁": 2870,
      "##𡃉": 2871,
      "##𡇙": 2872,
      "##𢃇": 2873,
      "##𢞵": 2874,
      "##𢫕": 2875,
      "##𢭃": 2876,
      "##𢯊": 2877,
      "##𢱑": 2878,
      "##𢱕": 2879,
      "##𢳂": 2880,
      "##𢴈": 2881,
      "##𢵌": 2882,
      "##𢵧": 2883,
      "##𢺳": 2884,
      "##𣲷": 2885,
      "##𤓓": 2886,
      "##𤶸": 2887,
      "##𤷪": 2888,
      "##𥄫": 2889,
      "##𦉘": 2890,
      "##𦟌": 2891,
      "##𦧲": 2892,
      "##𦧺": 2893,
      "##𧨾": 2894,
      "##𨅝": 2895,
      "##𨈇": 2896,
      "##𨋢": 2897,
      "##𨳊": 2898,
      "##𨳍": 2899,
      "##𨳒": 2900,
      "##𩶘": 2901,
      "##𠜎": 2902,
      "##田": 2903,
      "##È": 2904,
      "##ᶚ": 2905,
      "##͓": 2906,
      "##北": 2907,
      "##ˆ": 2908,
      "##抛": 2909,
      "##去": 2910,
      "##看": 2911,
      "##년": 2912,
      "##🕈": 2913,
      "##✋": 2914,
      "##☠": 2915,
      "##☝": 2916,
      "##👎": 2917,
      "##👍": 2918,
      "##⚐": 2919,
      "##☜": 2920,
      "##❄": 2921,
      "##💧": 2922,
      "##私": 2923,
      "##통": 2924,
      "##해": 2925,
      "##를": 2926,
      "##생": 2927,
      "##성": 2928,
      "##개": 2929,
      "##服": 2930,
      "##器": 2931,
      "##败": 2932,
      "##정": 2933,
      "##õ": 2934,
      "##✓": 2935,
      "##ツ": 2936,
      "##ヒ": 2937,
      "##ヘ": 2938,
      "##ホ": 2939,
      "##査": 2940,
      "##缩": 2941,
      "##宽": 2942,
      "##柘": 2943,
      "##ご": 2944,
      "##玉": 2945,
      "##萍": 2946,
      "##频": 2947,
      "##率": 2948,
      "##트": 2949,
      "##纹": 2950,
      "##継": 2951,
      "##覆": 2952,
      "##盖": 2953,
      "##半": 2954,
      "##溢": 2955,
      "##ă": 2956,
      "##â": 2957,
      "##î": 2958,
      "##ș": 2959,
      "##」": 2960,
      "##ヴ": 2961,
      "##況": 2962,
      "##停": 2963,
      "##林": 2964,
      "##β": 2965,
      "##γ": 2966,
      "##間": 2967,
      "##測": 2968,
      "##♥": 2969,
      "##旁": 2970,
      "##ÿ": 2971,
      "##総": 2972,
      "##보": 2973,
      "##드": 2974,
      "##骤": 2975,
      "##§": 2976,
      "##音": 2977,
      "##😀": 2978,
      "##Ͻ": 2979,
      "##ᗡ": 2980,
      "##Ǝ": 2981,
      "##Ⅎ": 2982,
      "##ƃ": 2983,
      "##划": 2984,
      "##際": 2985,
      "##・": 2986,
      "##ל": 2987,
      "##这": 2988,
      "##害": 2989,
      "##ワ": 2990,
      "##访": 2991,
      "##☑": 2992,
      "##É": 2993,
      "##遷": 2994,
      "##混": 2995,
      "##淆": 2996,
      "##阻": 2997,
      "##妥": 2998,
      "##校": 2999,
      "##溪": 3000,
      "##毎": 3001,
      "##齐": 3002,
      "##ű": 3003,
      "##ő": 3004,
      "##ó": 3005,
      "##阪": 3006,
      "##华": 3007,
      "##民": 3008,
      "##族": 3009,
      "##危": 3010,
      "##段": 3011,
      "##ý": 3012,
      "##蜡": 3013,
      "##种": 3014,
      "##反": 3015,
      "##そ": 3016,
      "##û": 3017,
      "##晓": 3018,
      "##木": 3019,
      "##双": 3020,
      "##喜": 3021,
      "##ů": 3022,
      "##ゲ": 3023,
      "##減": 3024,
      "##여": 3025,
      "##러": 3026,
      "##져": 3027,
      "##온": 3028,
      "##色": 3029,
      "##荘": 3030,
      "##相": 3031,
      "##や": 3032,
      "##青": 3033,
      "##願": 3034,
      "##钟": 3035,
      "##退": 3036,
      "##専": 3037,
      "##約": 3038,
      "##每": 3039,
      "##決": 3040,
      "##Œ": 3041,
      "##铜": 3042,
      "##概": 3043,
      "##拼": 3044,
      "##∩": 3045,
      "##逆": 3046,
      "##ë": 3047,
      "##榴": 3048,
      "##缓": 3049,
      "##❤": 3050,
      "##授": 3051,
      "##愛": 3052,
      "##э": 3053,
      "##∑": 3054,
      "##験": 3055,
      "##委": 3056,
      "##譲": 3057,
      "##詰": 3058,
      "##谀": 3059,
      "##䰀": 3060,
      "##標": 3061,
      "##萬": 3062,
      "##國": 3063,
      "##碼": 3064,
      "##驿": 3065,
      "##增": 3066,
      "##想": 3067,
      "##百": 3068,
      "##书": 3069,
      "##习": 3070,
      "##ろ": 3071,
      "##某": 3072,
      "##归": 3073,
      "##에": 3074,
      "##已": 3075,
      "##榈": 3076,
      "##昇": 3077,
      "##Ɩ": 3078,
      "##ᄅ": 3079,
      "##Ɛ": 3080,
      "##ㄣ": 3081,
      "##ϛ": 3082,
      "##ㄥ": 3083,
      "##典": 3084,
      "##川": 3085,
      "##枠": 3086,
      "##Ã": 3087,
      "##식": 3088,
      "##封": 3089,
      "##河": 3090,
      "##刷": 3091,
      "##회": 3092,
      "##飛": 3093,
      "##雳": 3094,
      "##璃": 3095,
      "##ǔ": 3096,
      "##扫": 3097,
      "##☺": 3098,
      "##☻": 3099,
      "##♪": 3100,
      "##♫": 3101,
      "##现": 3102,
      "##編": 3103,
      "##【": 3104,
      "##┃": 3105,
      "##庫": 3106,
      "##€": 3107,
      "##수": 3108,
      "##값": 3109,
      "##剥": 3110,
      "##临": 3111,
      "##几": 3112,
      "##然": 3113,
      "##寻": 3114,
      "##単": 3115,
      "##漢": 3116,
      "##병": 3117,
      "##호": 3118,
      "##입": 3119,
      "##니": 3120,
      "##ど": 3121,
      "##赋": 3122,
      "##送": 3123,
      "##誤": 3124,
      "##許": 3125,
      "##و": 3126,
      "##ی": 3127,
      "##س": 3128,
      "##습": 3129,
      "##领": 3130,
      "##技": 3131,
      "##术": 3132,
      "##攻": 3133,
      "##干": 3134,
      "##顺": 3135,
      "##≥": 3136,
      "##额": 3137,
      "##¡": 3138,
      "##∀": 3139,
      "##偏": 3140,
      "##具": 3141,
      "##ギ": 3142,
      "##ゼ": 3143,
      "##ゾ": 3144,
      "##ヂ": 3145,
      "##ヅ": 3146,
      "##ビ": 3147,
      "##ボ": 3148,
      "##티": 3149,
      "##매": 3150,
      "##저": 3151,
      "##확": 3152,
      "##조": 3153,
      "##시": 3154,
      "##쿼": 3155,
      "##리": 3156,
      "##발": 3157,
      "##欢": 3158,
      "##乐": 3159,
      "##·": 3160,
      "##¿": 3161,
      "##银": 3162,
      "##享": 3163,
      "##近": 3164,
      "##ほ": 3165,
      "##違": 3166,
      "##視": 3167,
      "##尺": 3168,
      "##寸": 3169,
      "##関": 3170,
      "##름": 3171,
      "##哲": 3172,
      "##學": 3173,
      "##電": 3174,
      "##劃": 3175,
      "##국": 3176,
      "##Ç": 3177,
      "##為": 3178,
      "##ô": 3179,
      "##责": 3180,
      "##继": 3181,
      "##積": 3182,
      "##∆": 3183,
      "##推": 3184,
      "##荐": 3185,
      "##┣": 3186,
      "##스": 3187,
      "##云": 3188,
      "##Á": 3189,
      "##★": 3190,
      "##陆": 3191,
      "##兵": 3192,
      "##投": 3193,
      "##げ": 3194,
      "##嵌": 3195,
      "##君": 3196,
      "##Ì": 3197,
      "##°": 3198,
      "##墙": 3199,
      "##城": 3200,
      "##也": 3201,
      "##按": 3202,
      "##考": 3203,
      "##慮": 3204,
      "##挂": 3205,
      "##护": 3206,
      "##慢": 3207,
      "##速": 3208,
      "##醇": 3209,
      "##過": 3210,
      "##账": 3211,
      "##液": 3212,
      "##着": 3213,
      "##剤": 3214,
      "##調": 3215,
      "##べ": 3216,
      "##钏": 3217,
      "##ộ": 3218,
      "##플": 3219,
      "##→": 3220,
      "##┻": 3221,
      "##很": 3222,
      "##棒": 3223,
      "##ę": 3224,
      "##平": 3225,
      "##告": 3226,
      "##叶": 3227,
      "##又": 3228,
      "##射": 3229,
      "##手": 3230,
      "##监": 3231,
      "##OL": 3232,
      "EOL": 3233,
      "##er": 3234,
      "##at": 3235,
      "##ri": 3236,
      "##on": 3237,
      "##ic": 3238,
      "##et": 3239,
      "##es": 3240,
      "##al": 3241,
      "##ng": 3242,
      "##bl": 3243,
      "##nt": 3244,
      "##ion": 3245,
      "##ate": 3246,
      "##ubl": 3247,
      "##in": 3248,
      "##tri": 3249,
      "##ublic": 3250,
      "public": 3251,
      "##tring": 3252,
      "##or": 3253,
      "()": 3254,
      "String": 3255,
      "##ct": 3256,
      "##le": 3257,
      "##st": 3258,
      "##de": 3259,
      "##an": 3260,
      "##ro": 3261,
      "fin": 3262,
      "pri": 3263,
      "##vate": 3264,
      "private": 3265,
      "final": 3266,
      "##te": 3267,
      "get": 3268,
      "st": 3269,
      "##me": 3270,
      "##ar": 3271,
      "##ed": 3272,
      "##it": 3273,
      "stat": 3274,
      "##id": 3275,
      "static": 3276,
      "##ce": 3277,
      "##re": 3278,
      "##ver": 3279,
      "##ss": 3280,
      "##ck": 3281,
      "##est": 3282,
      "##ur": 3283,
      "##ul": 3284,
      "##ut": 3285,
      "##ation": 3286,
      "##en": 3287,
      ");": 3288,
      "##ap": 3289,
      "##se": 3290,
      "##il": 3291,
      "##ist": 3292,
      "##oid": 3293,
      "##ew": 3294,
      "void": 3295,
      "##ert": 3296,
      "##verri": 3297,
      "##erv": 3298,
      "##verride": 3299,
      "##);": 3300,
      "Override": 3301,
      "##qu": 3302,
      "##pt": 3303,
      "##pe": 3304,
      "##ag": 3305,
      "##ol": 3306,
      "(\"": 3307,
      "##ame": 3308,
      "##Con": 3309,
      "##am": 3310,
      "##ue": 3311,
      "##ch": 3312,
      "##la": 3313,
      "##ad": 3314,
      "##om": 3315,
      "##ice": 3316,
      "new": 3317,
      "##ock": 3318,
      "##ess": 3319,
      "##Re": 3320,
      "##ent": 3321,
      "##ction": 3322,
      "##ig": 3323,
      "##ing": 3324,
      "re": 3325,
      "##ervice": 3326,
      "##oo": 3327,
      "##ption": 3328,
      "##St": 3329,
      "int": 3330,
      "##ype": 3331,
      "##In": 3332,
      "##el": 3333,
      "##up": 3334,
      "##ble": 3335,
      "##ect": 3336,
      "##ode": 3337,
      "th": 3338,
      "##ter": 3339,
      "##ser": 3340,
      "##Id": 3341,
      "con": 3342,
      "##ment": 3343,
      "##ile": 3344,
      "##ject": 3345,
      "##Service": 3346,
      "##Ex": 3347,
      "\",": 3348,
      "##pl": 3349,
      "##lean": 3350,
      "##ey": 3351,
      "##un": 3352,
      "##og": 3353,
      "##oolean": 3354,
      "##alue": 3355,
      "##Name": 3356,
      "##ong": 3357,
      "##lass": 3358,
      "##pon": 3359,
      "##quest": 3360,
      "##as": 3361,
      "##age": 3362,
      "in": 3363,
      "##ssert": 3364,
      "##xt": 3365,
      "pro": 3366,
      "##Pro": 3367,
      "##ra": 3368,
      "##ull": 3369,
      "[]": 3370,
      "##able": 3371,
      "();": 3372,
      "##Res": 3373,
      "##is": 3374,
      "##yte": 3375,
      "##ow": 3376,
      "##ity": 3377,
      "boolean": 3378,
      "##fig": 3379,
      "##bject": 3380,
      "\")": 3381,
      "##Type": 3382,
      "##ger": 3383,
      "##ec": 3384,
      "is": 3385,
      "##ata": 3386,
      "##our": 3387,
      "to": 3388,
      "##ath": 3389,
      "ex": 3390,
      "##ers": 3391,
      "set": 3392,
      "##ception": 3393,
      "##ult": 3394,
      "##and": 3395,
      "##ER": 3396,
      "##ot": 3397,
      "assert": 3398,
      "##oc": 3399,
      "##ponse": 3400,
      "##der": 3401,
      "##ON": 3402,
      "##um": 3403,
      "##cted": 3404,
      "##urn": 3405,
      "##eturn": 3406,
      "res": 3407,
      "##if": 3408,
      "##em": 3409,
      "List": 3410,
      "##ntity": 3411,
      "##ource": 3412,
      "##ory": 3413,
      "byte": 3414,
      "##ir": 3415,
      "##od": 3416,
      "##Par": 3417,
      "##Map": 3418,
      "##act": 3419,
      "##dd": 3420,
      "##pert": 3421,
      "##per": 3422,
      "##To": 3423,
      "##ve": 3424,
      "##iz": 3425,
      "##List": 3426,
      "##ry": 3427,
      "\";": 3428,
      "##nd": 3429,
      "if": 3430,
      "Mock": 3431,
      "##text": 3432,
      "##ang": 3433,
      "##00": 3434,
      "long": 3435,
      "Con": 3436,
      "##ef": 3437,
      "##qual": 3438,
      "##ime": 3439,
      "##roup": 3440,
      "##Exception": 3441,
      "##im": 3442,
      "##us": 3443,
      "##E_": 3444,
      "##orm": 3445,
      "return": 3446,
      "##uil": 3447,
      "##Entity": 3448,
      "ap": 3449,
      "null": 3450,
      "key": 3451,
      "Map": 3452,
      "##ator": 3453,
      "##ication": 3454,
      "());": 3455,
      "value": 3456,
      "//": 3457,
      "##tt": 3458,
      "##row": 3459,
      "Object": 3460,
      "##quals": 3461,
      "##tected": 3462,
      "##ort": 3463,
      "protected": 3464,
      "##T_": 3465,
      "class": 3466,
      "##ain": 3467,
      "##reate": 3468,
      "##put": 3469,
      "##ran": 3470,
      "##ance": 3471,
      "##os": 3472,
      "##ress": 3473,
      "##Param": 3474,
      "##rans": 3475,
      "##Request": 3476,
      "##uration": 3477,
      "##ream": 3478,
      "##unction": 3479,
      "##String": 3480,
      "##fo": 3481,
      "##ou": 3482,
      "##vent": 3483,
      "##AT": 3484,
      "##ttp": 3485,
      "##ust": 3486,
      "##ff": 3487,
      "##ler": 3488,
      "##Value": 3489,
      "Test": 3490,
      "())": 3491,
      "add": 3492,
      "##cc": 3493,
      "##Config": 3494,
      "##ogger": 3495,
      "().": 3496,
      "##ore": 3497,
      "##ies": 3498,
      "par": 3499,
      "##Key": 3500,
      "##ack": 3501,
      "\");": 3502,
      "##essage": 3503,
      "##ES": 3504,
      "create": 3505,
      "##til": 3506,
      "##son": 3507,
      "##perty": 3508,
      "\\\"": 3509,
      "##ount": 3510,
      "##Group": 3511,
      "##atch": 3512,
      "throw": 3513,
      "com": 3514,
      "Int": 3515,
      "##ord": 3516,
      "##ork": 3517,
      "ch": 3518,
      "##rg": 3519,
      "test": 3520,
      "##ient": 3521,
      "##ader": 3522,
      "##Com": 3523,
      "##Met": 3524,
      "##nc": 3525,
      "Ex": 3526,
      "##anag": 3527,
      "##Util": 3528,
      "##IN": 3529,
      "##Fact": 3530,
      "##iew": 3531,
      "##Data": 3532,
      "##Equals": 3533,
      "##low": 3534,
      "##ost": 3535,
      "Res": 3536,
      "##oubl": 3537,
      "##ition": 3538,
      "##ouble": 3539,
      "##cri": 3540,
      "##Info": 3541,
      "##Response": 3542,
      "mock": 3543,
      "##anager": 3544,
      "##Context": 3545,
      "##Ch": 3546,
      "##ail": 3547,
      "name": 3548,
      "Path": 3549,
      "T1": 3550,
      "##uilder": 3551,
      "##Set": 3552,
      "##th": 3553,
      "##olic": 3554,
      "##File": 3555,
      "##lo": 3556,
      "assertEquals": 3557,
      "##ID": 3558,
      "##alid": 3559,
      "##ure": 3560,
      "##eger": 3561,
      "##uth": 3562,
      "##ize": 3563,
      "##tain": 3564,
      "##stance": 3565,
      "Re": 3566,
      "Function": 3567,
      "##User": 3568,
      "##ken": 3569,
      "##eld": 3570,
      "##ase": 3571,
      "request": 3572,
      "##ield": 3573,
      "the": 3574,
      "##eck": 3575,
      "##pd": 3576,
      "##By": 3577,
      "user": 3578,
      "##Cl": 3579,
      "##Manager": 3580,
      "In": 3581,
      "##Stream": 3582,
      "));": 3583,
      ">>": 3584,
      "##plication": 3585,
      "##ray": 3586,
      "##dex": 3587,
      "##uer": 3588,
      "##ith": 3589,
      "##rray": 3590,
      "##tem": 3591,
      "##ION": 3592,
      "##Factory": 3593,
      "<?": 3594,
      "##EN": 3595,
      "##ersion": 3596,
      "##ari": 3597,
      ").": 3598,
      "Pro": 3599,
      "##Int": 3600,
      "##uery": 3601,
      "##rue": 3602,
      "##\\\"": 3603,
      "##Se": 3604,
      "Http": 3605,
      "##art": 3606,
      "##ener": 3607,
      "Set": 3608,
      "Long": 3609,
      "##und": 3610,
      "Integer": 3611,
      "##olicy": 3612,
      "##ns": 3613,
      "##Th": 3614,
      "(),": 3615,
      "##rr": 3616,
      "##ument": 3617,
      "##ext": 3618,
      "##ant": 3619,
      "##rom": 3620,
      "##ial": 3621,
      "##DB": 3622,
      "##ault": 3623,
      "##get": 3624,
      "##hod": 3625,
      "##let": 3626,
      "##OR": 3627,
      "##ces": 3628,
      "##Def": 3629,
      "##ive": 3630,
      "##ilter": 3631,
      "))": 3632,
      "##ash": 3633,
      "##erm": 3634,
      "##AM": 3635,
      "##ine": 3636,
      "File": 3637,
      "##ub": 3638,
      "##press": 3639,
      "##andler": 3640,
      "##pen": 3641,
      "##rror": 3642,
      "##AL": 3643,
      "##int": 3644,
      "##Im": 3645,
      "##Time": 3646,
      "##lement": 3647,
      "##ob": 3648,
      "##olum": 3649,
      "##ST": 3650,
      "##RE": 3651,
      "##Property": 3652,
      "##Of": 3653,
      "St": 3654,
      "##port": 3655,
      "##pdate": 3656,
      "Class": 3657,
      "##Stat": 3658,
      "##ach": 3659,
      "met": 3660,
      "##olle": 3661,
      "double": 3662,
      "##figuration": 3663,
      "for": 3664,
      "##escri": 3665,
      "id": 3666,
      "##ll": 3667,
      "##odel": 3668,
      "##ask": 3669,
      "##ange": 3670,
      "##View": 3671,
      "##ule": 3672,
      "##ign": 3673,
      "##Path": 3674,
      "##ings": 3675,
      "##ml": 3676,
      "##action": 3677,
      "cl": 3678,
      "##Acc": 3679,
      "##ocal": 3680,
      "##ormat": 3681,
      "##ne": 3682,
      "##Object": 3683,
      "##perties": 3684,
      "##Builder": 3685,
      "##amp": 3686,
      "##\")": 3687,
      "##Ap": 3688,
      "##ence": 3689,
      "##uff": 3690,
      "##olumn": 3691,
      "throws": 3692,
      "type": 3693,
      "##ia": 3694,
      "##ty": 3695,
      "##alse": 3696,
      "##Node": 3697,
      "##vid": 3698,
      "##Ad": 3699,
      "##Event": 3700,
      "un": 3701,
      "##uster": 3702,
      "##Handler": 3703,
      "##ax": 3704,
      "##ransaction": 3705,
      "##ted": 3706,
      "##Message": 3707,
      "##_P": 3708,
      "##op": 3709,
      "##pos": 3710,
      "##..": 3711,
      "##Resource": 3712,
      "##mand": 3713,
      "wh": 3714,
      "##ay": 3715,
      "##DBEntity": 3716,
      "##ori": 3717,
      "##Serv": 3718,
      "##ntry": 3719,
      "Th": 3720,
      "##ET": 3721,
      "##ire": 3722,
      "##Auth": 3723,
      "##Status": 3724,
      "of": 3725,
      "##For": 3726,
      "##ole": 3727,
      "response": 3728,
      "##ary": 3729,
      "##mo": 3730,
      "##ute": 3731,
      "##tern": 3732,
      "##tainer": 3733,
      "##IC": 3734,
      "##He": 3735,
      "##arn": 3736,
      "##Class": 3737,
      "##ifi": 3738,
      "##Null": 3739,
      "##ecut": 3740,
      "##vider": 3741,
      "##Version": 3742,
      "getL": 3743,
      "##rap": 3744,
      "##ab": 3745,
      "Ap": 3746,
      "##flow": 3747,
      "##anger": 3748,
      "##icate": 3749,
      "##riter": 3750,
      "##UR": 3751,
      "##AR": 3752,
      "sh": 3753,
      "##Client": 3754,
      "##ber": 3755,
      "Ch": 3756,
      "##uffer": 3757,
      "##oint": 3758,
      "##Y_": 3759,
      "Logger": 3760,
      "read": 3761,
      "not": 3762,
      "##IT": 3763,
      "##orkflow": 3764,
      "##eng": 3765,
      "##adata": 3766,
      "put": 3767,
      "##State": 3768,
      "##ollection": 3769,
      "##ength": 3770,
      "##nv": 3771,
      "##alu": 3772,
      "##S_": 3773,
      "##ponent": 3774,
      "##Code": 3775,
      "Configuration": 3776,
      "##Field": 3777,
      "##trib": 3778,
      "Com": 3779,
      "true": 3780,
      "##ric": 3781,
      "se": 3782,
      "##urre": 3783,
      "##Instance": 3784,
      "##all": 3785,
      "##uild": 3786,
      "##ast": 3787,
      "##lock": 3788,
      "==": 3789,
      "##ract": 3790,
      "##\",": 3791,
      "(@": 3792,
      "##Servlet": 3793,
      "##ION_": 3794,
      "service": 3795,
      "Assert": 3796,
      "##Utils": 3797,
      "##bs": 3798,
      "this": 3799,
      "##tent": 3800,
      "result": 3801,
      "file": 3802,
      "##out": 3803,
      "application": 3804,
      "false": 3805,
      "##pected": 3806,
      "##Element": 3807,
      "##arch": 3808,
      "##iss": 3809,
      "##SON": 3810,
      "de": 3811,
      "##ann": 3812,
      "##D_": 3813,
      "an": 3814,
      "##At": 3815,
      "##edia": 3816,
      "##iv": 3817,
      "),": 3818,
      "##Const": 3819,
      "##cess": 3820,
      "##yst": 3821,
      "##ip": 3822,
      "##ystem": 3823,
      "##With": 3824,
      "##urrent": 3825,
      "map": 3826,
      "##utput": 3827,
      "Par": 3828,
      "##Provider": 3829,
      "##lable": 3830,
      "##du": 3831,
      "Request": 3832,
      "##ER_": 3833,
      "##cord": 3834,
      "##eter": 3835,
      "##res": 3836,
      "##elet": 3837,
      "##ache": 3838,
      "##par": 3839,
      "##attern": 3840,
      "##escription": 3841,
      "##ge": 3842,
      "##ired": 3843,
      "##RO": 3844,
      "##arget": 3845,
      "json": 3846,
      "Response": 3847,
      "Exception": 3848,
      "##AN": 3849,
      "##ify": 3850,
      "exte": 3851,
      "##Test": 3852,
      "##ak": 3853,
      "##to": 3854,
      "##peration": 3855,
      "##UL": 3856,
      "##Add": 3857,
      "Non": 3858,
      "##efault": 3859,
      "##ded": 3860,
      "##FI": 3861,
      "##etail": 3862,
      "##form": 3863,
      "HttpServlet": 3864,
      "##lse": 3865,
      "path": 3866,
      "##Index": 3867,
      "##AP": 3868,
      "##Result": 3869,
      "##ix": 3870,
      "##Sc": 3871,
      "##Impl": 3872,
      "sup": 3873,
      "##cl": 3874,
      "update": 3875,
      "config": 3876,
      "##nection": 3877,
      "##OG": 3878,
      "##ocument": 3879,
      "##AC": 3880,
      "##De": 3881,
      "##set": 3882,
      "Sup": 3883,
      "build": 3884,
      "##Item": 3885,
      "##Not": 3886,
      "##ated": 3887,
      "##own": 3888,
      "##Array": 3889,
      "##ink": 3890,
      "on": 3891,
      "data": 3892,
      "start": 3893,
      "##dent": 3894,
      "token": 3895,
      "##rite": 3896,
      "else": 3897,
      "##PL": 3898,
      "##Method": 3899,
      "##Configuration": 3900,
      "##fer": 3901,
      "getS": 3902,
      "##Mock": 3903,
      "##();": 3904,
      "##posit": 3905,
      "##ace": 3906,
      "##chem": 3907,
      "##ched": 3908,
      "toString": 3909,
      "Type": 3910,
      "##Token": 3911,
      "event": 3912,
      "remo": 3913,
      "##Role": 3914,
      "##bserv": 3915,
      "##Policy": 3916,
      "as": 3917,
      "##Detail": 3918,
      "<>": 3919,
      "##gin": 3920,
      "##elete": 3921,
      "##Return": 3922,
      "log": 3923,
      "##ly": 3924,
      "##nds": 3925,
      "##mpt": 3926,
      "##Model": 3927,
      "list": 3928,
      "##gist": 3929,
      "parse": 3930,
      "##nsion": 3931,
      "##name": 3932,
      "al": 3933,
      "##ud": 3934,
      "##ound": 3935,
      "##ames": 3936,
      "##mpty": 3937,
      "##Option": 3938,
      "##ac": 3939,
      "check": 3940,
      "##AS": 3941,
      "##etry": 3942,
      "##ission": 3943,
      "##red": 3944,
      "assertTh": 3945,
      "Collection": 3946,
      "##rol": 3947,
      "##EC": 3948,
      "from": 3949,
      "be": 3950,
      "##Or": 3951,
      "##chema": 3952,
      "##Un": 3953,
      "extends": 3954,
      "##Warn": 3955,
      "User": 3956,
      "when": 3957,
      "##All": 3958,
      "##trol": 3959,
      "<?>": 3960,
      "has": 3961,
      "##NAM": 3962,
      "##erver": 3963,
      "context": 3964,
      "length": 3965,
      "##tes": 3966,
      "Log": 3967,
      "param": 3968,
      "##Host": 3969,
      "Ranger": 3970,
      "##alues": 3971,
      "max": 3972,
      "size": 3973,
      "##pository": 3974,
      "assertThat": 3975,
      "group": 3976,
      "##Count": 3977,
      "##ML": 3978,
      "LOG": 3979,
      "Resource": 3980,
      "##EF": 3981,
      "##oad": 3982,
      "##Details": 3983,
      "##uri": 3984,
      "AP": 3985,
      "##rl": 3986,
      "##word": 3987,
      "##ullable": 3988,
      "##ocation": 3989,
      "##annel": 3990,
      "Met": 3991,
      "##On": 3992,
      "instance": 3993,
      "Byte": 3994,
      "##Dec": 3995,
      "##Warnings": 3996,
      "##ustom": 3997,
      "message": 3998,
      "##ill": 3999,
      "##Filter": 4000,
      "arg": 4001,
      "##Properties": 4002,
      "try": 4003,
      "##From": 4004,
      "##abl": 4005,
      "!=": 4006,
      "##\");": 4007,
      "##sh": 4008,
      "##Log": 4009,
      "index": 4010,
      "##EL": 4011,
      "equals": 4012,
      "Suppress": 4013,
      "##Pre": 4014,
      "##Valid": 4015,
      "##pression": 4016,
      "##ping": 4017,
      "##0000": 4018,
      "})": 4019,
      "##Sh": 4020,
      "->": 4021,
      "##UT": 4022,
      "##iron": 4023,
      "##ironment": 4024,
      "##nvironment": 4025,
      "##end": 4026,
      "##igh": 4027,
      "input": 4028,
      "##bservable": 4029,
      "Array": 4030,
      "##AD": 4031,
      "with": 4032,
      "SuppressWarnings": 4033,
      "##Store": 4034,
      "##Constant": 4035,
      "super": 4036,
      "##Command": 4037,
      "##ible": 4038,
      "valid": 4039,
      "expected": 4040,
      "##Format": 4041,
      "##pr": 4042,
      "##duces": 4043,
      "##uple": 4044,
      "remove": 4045,
      "Media": 4046,
      "app": 4047,
      "##Sec": 4048,
      "##ctor": 4049,
      "##af": 4050,
      "Query": 4051,
      "##And": 4052,
      "##ifier": 4053,
      "0x": 4054,
      "##ermission": 4055,
      "##Column": 4056,
      "##Table": 4057,
      "##leg": 4058,
      "##loat": 4059,
      "##ED": 4060,
      "resource": 4061,
      "##tribute": 4062,
      "##pend": 4063,
      "##erify": 4064,
      "##Error": 4065,
      "##ru": 4066,
      "(\"/": 4067,
      "IN": 4068,
      "##erial": 4069,
      "##ard": 4070,
      "()).": 4071,
      "Node": 4072,
      "##Access": 4073,
      "Json": 4074,
      "##undle": 4075,
      "##av": 4076,
      "conver": 4077,
      "##As": 4078,
      "\\\":": 4079,
      "find": 4080,
      "description": 4081,
      "##RI": 4082,
      "error": 4083,
      "xml": 4084,
      "##urity": 4085,
      "##Size": 4086,
      "##inition": 4087,
      "##one": 4088,
      "##ING": 4089,
      "Observable": 4090,
      "Un": 4091,
      "##ATION_": 4092,
      "##null": 4093,
      "##Input": 4094,
      "##abel": 4095,
      "##Listener": 4096,
      "##ind": 4097,
      "Option": 4098,
      "##Inter": 4099,
      "conf": 4100,
      "##Address": 4101,
      "##ized": 4102,
      "##read": 4103,
      "Nonnull": 4104,
      "##Entry": 4105,
      "##ass": 4106,
      "##Record": 4107,
      "##uture": 4108,
      "##ueue": 4109,
      "##oul": 4110,
      "##ould": 4111,
      "##not": 4112,
      "##oriz": 4113,
      "##_S": 4114,
      "then": 4115,
      "##Al": 4116,
      "##True": 4117,
      "##pec": 4118,
      "##irect": 4119,
      "##Arg": 4120,
      "##pla": 4121,
      "##AG": 4122,
      "Hash": 4123,
      "##troller": 4124,
      "##nal": 4125,
      "##\\\\": 4126,
      "##ecutor": 4127,
      "##ync": 4128,
      "##Buffer": 4129,
      "verify": 4130,
      "\"));": 4131,
      "##plet": 4132,
      "sec": 4133,
      "cluster": 4134,
      "##ccess": 4135,
      "##_C": 4136,
      "De": 4137,
      "##En": 4138,
      "##eters": 4139,
      "target": 4140,
      "catch": 4141,
      "Nullable": 4142,
      "Boolean": 4143,
      "node": 4144,
      "##older": 4145,
      "VX": 4146,
      "##imit": 4147,
      "and": 4148,
      "To": 4149,
      "do": 4150,
      "##ViewService": 4151,
      "##OM": 4152,
      "##por": 4153,
      "write": 4154,
      "##ple": 4155,
      "time": 4156,
      "Cl": 4157,
      "host": 4158,
      "##ession": 4159,
      "string": 4160,
      "##yp": 4161,
      "##mb": 4162,
      "##Action": 4163,
      "##Definition": 4164,
      "Date": 4165,
      "default": 4166,
      "##Container": 4167,
      "delete": 4168,
      "pre": 4169,
      "Char": 4170,
      "char": 4171,
      "getT": 4172,
      "##ffset": 4173,
      "getC": 4174,
      "field": 4175,
      "append": 4176,
      "##ptor": 4177,
      "##EFA": 4178,
      "##eo": 4179,
      "##App": 4180,
      "m1": 4181,
      "##empl": 4182,
      "##Hel": 4183,
      "HttpServletRequest": 4184,
      "contain": 4185,
      "##ron": 4186,
      "source": 4187,
      "format": 4188,
      "##EFAUL": 4189,
      "##Metadata": 4190,
      "##Date": 4191,
      "##NAME": 4192,
      "##Range": 4193,
      "assertTrue": 4194,
      "##JSON": 4195,
      "##ual": 4196,
      "##bst": 4197,
      "Api": 4198,
      "##resent": 4199,
      "##\";": 4200,
      "he": 4201,
      "##Mapping": 4202,
      "##bstract": 4203,
      "##Mod": 4204,
      "##Account": 4205,
      "##yn": 4206,
      "##ave": 4207,
      "convert": 4208,
      "##Parameter": 4209,
      "##IL": 4210,
      "getLogger": 4211,
      "##EX": 4212,
      "T2": 4213,
      "##Query": 4214,
      "##RES": 4215,
      "##Reader": 4216,
      "##oot": 4217,
      "##ug": 4218,
      "##ict": 4219,
      "##irst": 4220,
      "##Json": 4221,
      "##TY": 4222,
      "policy": 4223,
      "current": 4224,
      "##umber": 4225,
      "sub": 4226,
      "##ecked": 4227,
      "Produces": 4228,
      "isE": 4229,
      "##Block": 4230,
      "Parser": 4231,
      "Service": 4232,
      "Context": 4233,
      "MediaType": 4234,
      "##IM": 4235,
      "##Header": 4236,
      "Pattern": 4237,
      "Optional": 4238,
      "##Source": 4239,
      "##ree": 4240,
      "##01": 4241,
      "##Component": 4242,
      "##redicate": 4243,
      "end": 4244,
      "getP": 4245,
      "##Repository": 4246,
      "##Hash": 4247,
      "##ateg": 4248,
      "GET": 4249,
      "##ight": 4250,
      "##ision": 4251,
      "##emplate": 4252,
      "##Trans": 4253,
      "##terator": 4254,
      "##Mapper": 4255,
      "ad": 4256,
      "##ao": 4257,
      "##Operation": 4258,
      "method": 4259,
      "##mit": 4260,
      "##back": 4261,
      "##chedul": 4262,
      "##sum": 4263,
      "##ification": 4264,
      "({": 4265,
      "##Job": 4266,
      "##PLIC": 4267,
      "##apt": 4268,
      "##ply": 4269,
      "next": 4270,
      "##pace": 4271,
      "##Content": 4272,
      "##quence": 4273,
      "http": 4274,
      "##ypes": 4275,
      "##UN": 4276,
      "##checked": 4277,
      "##--": 4278,
      "##Output": 4279,
      "##ond": 4280,
      "org": 4281,
      "##Fe": 4282,
      "contains": 4283,
      "##notation": 4284,
      "##Work": 4285,
      "Transaction": 4286,
      "...": 4287,
      "##Bu": 4288,
      "unchecked": 4289,
      "Inject": 4290,
      "logger": 4291,
      "##Connection": 4292,
      "##OD": 4293,
      "##imple": 4294,
      "##Dto": 4295,
      "filter": 4296,
      "##raph": 4297,
      "QueryParam": 4298,
      "##Helper": 4299,
      "##Str": 4300,
      "##Tra": 4301,
      "##eb": 4302,
      "e1": 4303,
      "##Bytes": 4304,
      "##Process": 4305,
      "##ark": 4306,
      "any": 4307,
      "##ector": 4308,
      "##Form": 4309,
      "getName": 4310,
      "query": 4311,
      "##ustomer": 4312,
      "thenReturn": 4313,
      "##System": 4314,
      "##ild": 4315,
      "##Update": 4316,
      "##PER": 4317,
      "##line": 4318,
      "##itor": 4319,
      "##PLICATION_": 4320,
      "min": 4321,
      "##fix": 4322,
      "##eom": 4323,
      "getD": 4324,
      "Data": 4325,
      "##EM": 4326,
      "##Controller": 4327,
      "10": 4328,
      "Rest": 4329,
      "##tings": 4330,
      "APPLICATION_": 4331,
      "The": 4332,
      "##vice": 4333,
      "IO": 4334,
      "##afe": 4335,
      "##Permission": 4336,
      "##Pri": 4337,
      "##Task": 4338,
      "##VAL": 4339,
      "##LO": 4340,
      "##lose": 4341,
      "##ito": 4342,
      "##Argument": 4343,
      "##abled": 4344,
      "##ool": 4345,
      "getM": 4346,
      "PathParam": 4347,
      "init": 4348,
      "case": 4349,
      "##AB": 4350,
      "##Local": 4351,
      "##ampa": 4352,
      "or": 4353,
      "##Authoriz": 4354,
      "count": 4355,
      "##Conver": 4356,
      "##ario": 4357,
      "requ": 4358,
      "##ampaign": 4359,
      "##ENT": 4360,
      "##cript": 4361,
      "##ertif": 4362,
      "Aut": 4363,
      "DEFAUL": 4364,
      "##Be": 4365,
      "builder": 4366,
      "##load": 4367,
      "##Point": 4368,
      "##rics": 4369,
      "version": 4370,
      "##irectory": 4371,
      "act": 4372,
      "Se": 4373,
      "##ook": 4374,
      "&&": 4375,
      "##orage": 4376,
      "property": 4377,
      "##ps": 4378,
      "##Parser": 4379,
      "##Dir": 4380,
      "##ite": 4381,
      "JSON": 4382,
      "##air": 4383,
      "((": 4384,
      "##ecution": 4385,
      "all": 4386,
      "##min": 4387,
      "object": 4388,
      "##Future": 4389,
      "##reak": 4390,
      "##Document": 4391,
      "##Regist": 4392,
      "Tuple": 4393,
      "##Sele": 4394,
      "##perator": 4395,
      "##UID": 4396,
      "[]>": 4397,
      "##Resol": 4398,
      "##API": 4399,
      "##eometry": 4400,
      "auth": 4401,
      "##rc": 4402,
      "##Cache": 4403,
      "At": 4404,
      "##rapper": 4405,
      "Pre": 4406,
      "workflow": 4407,
      "Time": 4408,
      "##Ass": 4409,
      "##Get": 4410,
      "##An": 4411,
      "##Writer": 4412,
      "##ev": 4413,
      "at": 4414,
      "##ody": 4415,
      "should": 4416,
      "Fact": 4417,
      "##Pl": 4418,
      "##idget": 4419,
      "##_M": 4420,
      "##Names": 4421,
      "trans": 4422,
      "##cheduler": 4423,
      "##her": 4424,
      "<>();": 4425,
      "##escriptor": 4426,
      "##Function": 4427,
      "entity": 4428,
      "ArrayList": 4429,
      "##Long": 4430,
      "local": 4431,
      "Autow": 4432,
      "Autowired": 4433,
      "##URL": 4434,
      "##ertificate": 4435,
      "##Dis": 4436,
      "float": 4437,
      "##ices": 4438,
      "\"),": 4439,
      "##Dao": 4440,
      "##ynch": 4441,
      "HashMap": 4442,
      "job": 4443,
      "column": 4444,
      "##Byte": 4445,
      "##iction": 4446,
      "##dentifier": 4447,
      "##Call": 4448,
      "\"))": 4449,
      "##ference": 4450,
      "##Cluster": 4451,
      "##ynchron": 4452,
      "=\\\"": 4453,
      "##UE": 4454,
      "##ackage": 4455,
      "DEFAULT_": 4456,
      "IOException": 4457,
      "##ictionary": 4458,
      "##TR": 4459,
      "##Types": 4460,
      "##Application": 4461,
      "##56": 4462,
      "##ner": 4463,
      "##IS": 4464,
      "##ample": 4465,
      "##aders": 4466,
      "task": 4467,
      "##ier": 4468,
      "##parator": 4469,
      "##Url": 4470,
      "##LE": 4471,
      "validate": 4472,
      "##Tag": 4473,
      "ResponseEntity": 4474,
      "##Char": 4475,
      "}\")": 4476,
      "##CH": 4477,
      "info": 4478,
      "##Ed": 4479,
      "##Default": 4480,
      "\").": 4481,
      "##ources": 4482,
      "##unc": 4483,
      "##Wrapper": 4484,
      "action": 4485,
      "comp": 4486,
      "##Constants": 4487,
      "out": 4488,
      "##Label": 4489,
      "##ature": 4490,
      "sc": 4491,
      "T3": 4492,
      "##opy": 4493,
      "##osition": 4494,
      "Mockito": 4495,
      "##tension": 4496,
      "last": 4497,
      "##andom": 4498,
      "LoggerFactory": 4499,
      "##Start": 4500,
      "},": 4501,
      "##Page": 4502,
      "##atcher": 4503,
      "##Image": 4504,
      "##rigin": 4505,
      "##erializ": 4506,
      "Key": 4507,
      "Unit": 4508,
      "##Parameters": 4509,
      "by": 4510,
      "##io": 4511,
      "##fs": 4512,
      "Local": 4513,
      "##23": 4514,
      "##bj": 4515,
      "<>(": 4516,
      "##cen": 4517,
      "##Check": 4518,
      "view": 4519,
      "stream": 4520,
      "##Text": 4521,
      "break": 4522,
      "T0": 4523,
      "##DA": 4524,
      "##Options": 4525,
      "##Values": 4526,
      "Al": 4527,
      "##cenario": 4528,
      "##rid": 4529,
      "##Sequence": 4530,
      "transaction": 4531,
      "process": 4532,
      "##oin": 4533,
      "##oader": 4534,
      "(!": 4535,
      "##Sup": 4536,
      "##ulation": 4537,
      "##tempt": 4538,
      "##KE": 4539,
      "command": 4540,
      "##assword": 4541,
      "##SER": 4542,
      "##End": 4543,
      "##Sub": 4544,
      "##ope": 4545,
      "Property": 4546,
      "##ys": 4547,
      "##formation": 4548,
      "im": 4549,
      "##legal": 4550,
      "state": 4551,
      "##evel": 4552,
      "##P_": 4553,
      "##llegal": 4554,
      "##valid": 4555,
      "first": 4556,
      "##Order": 4557,
      "T4": 4558,
      "##ell": 4559,
      "##shot": 4560,
      "synchron": 4561,
      "##Link": 4562,
      "##Expression": 4563,
      "option": 4564,
      "##imest": 4565,
      "values": 4566,
      "()))": 4567,
      "HttpServletResponse": 4568,
      "##OST": 4569,
      "##Report": 4570,
      "##Spec": 4571,
      "buffer": 4572,
      "##pre": 4573,
      "status": 4574,
      "ConfigurationProperty": 4575,
      "/{": 4576,
      "##TER": 4577,
      "##X_": 4578,
      "tag": 4579,
      "##Ids": 4580,
      "##ROPER": 4581,
      "metadata": 4582,
      "Default": 4583,
      "##Resolver": 4584,
      "Workflow": 4585,
      "properties": 4586,
      "tra": 4587,
      ")).": 4588,
      "##nap": 4589,
      "};": 4590,
      "##bug": 4591,
      "##ome": 4592,
      "##isible": 4593,
      "##ates": 4594,
      "##ude": 4595,
      "##sg": 4596,
      "##Aud": 4597,
      "##apter": 4598,
      "##11": 4599,
      "##rame": 4600,
      "##...": 4601,
      "##Search": 4602,
      "##tribut": 4603,
      "##Row": 4604,
      "\"}": 4605,
      "##pect": 4606,
      "synchronized": 4607,
      "##Score": 4608,
      "##Buf": 4609,
      "##ake": 4610,
      "content": 4611,
      "##Campaign": 4612,
      "##Proto": 4613,
      "item": 4614,
      "##Line": 4615,
      "##Vari": 4616,
      "client": 4617,
      "##EST_": 4618,
      "##rig": 4619,
      "Illegal": 4620,
      "##mbari": 4621,
      "##Read": 4622,
      "##cket": 4623,
      "T5": 4624,
      "Double": 4625,
      "##Unit": 4626,
      "##dition": 4627,
      "fact": 4628,
      "##ee": 4629,
      ">();": 4630,
      "##edication": 4631,
      "##000": 4632,
      "run": 4633,
      "resol": 4634,
      "##//": 4635,
      "##prec": 4636,
      "##Schema": 4637,
      "record": 4638,
      "##Attribute": 4639,
      "##Processor": 4640,
      "##Us": 4641,
      "##Enc": 4642,
      "##ide": 4643,
      "APPLICATION_JSON": 4644,
      "##Transaction": 4645,
      "##OfWork": 4646,
      "##ava": 4647,
      "##Inst": 4648,
      "##Queue": 4649,
      "##ified": 4650,
      "##andle": 4651,
      "##ember": 4652,
      "##imestamp": 4653,
      "##down": 4654,
      "##pare": 4655,
      "##atient": 4656,
      "UnitOfWork": 4657,
      "##pende": 4658,
      "##sumer": 4659,
      "##ick": 4660,
      "##utable": 4661,
      "configuration": 4662,
      "##pendenc": 4663,
      "##AdGroup": 4664,
      "##DM": 4665,
      "##Meta": 4666,
      "##ENT_": 4667,
      "##file": 4668,
      "output": 4669,
      "##ender": 4670,
      "##edis": 4671,
      "Job": 4672,
      "##PT": 4673,
      "enc": 4674,
      "##Location": 4675,
      "##napshot": 4676,
      "##be": 4677,
      "##Sim": 4678,
      "component": 4679,
      "##TYP": 4680,
      "()));": 4681,
      "##resenter": 4682,
      "##QU": 4683,
      "##CE": 4684,
      "container": 4685,
      "en": 4686,
      "gener": 4687,
      "##base": 4688,
      "##odes": 4689,
      "Input": 4690,
      "##Descriptor": 4691,
      "Sh": 4692,
      "##Criter": 4693,
      "Message": 4694,
      "dis": 4695,
      "##olicies": 4696,
      "##point": 4697,
      "T6": 4698,
      "offset": 4699,
      "##eer": 4700,
      "B2": 4701,
      "getValue": 4702,
      "fl": 4703,
      "model": 4704,
      "##erval": 4705,
      "dec": 4706,
      "entry": 4707,
      "##TH": 4708,
      "##of": 4709,
      "##Part": 4710,
      "Trans": 4711,
      "##aDBEntity": 4712,
      "code": 4713,
      "System": 4714,
      "##Server": 4715,
      "##ret": 4716,
      "##po": 4717,
      "exec": 4718,
      "##LE_": 4719,
      "src": 4720,
      "##Port": 4721,
      "Event": 4722,
      "str": 4723,
      "##Loader": 4724,
      "##ForTest": 4725,
      "##iles": 4726,
      "Im": 4727,
      "args": 4728,
      "##pg": 4729,
      "##Per": 4730,
      "##ities": 4731,
      "##Identifier": 4732,
      "##rigger": 4733,
      "search": 4734,
      "##ocket": 4735,
      "##ative": 4736,
      "##Http": 4737,
      "##Information": 4738,
      "##Converter": 4739,
      "server": 4740,
      "##Executor": 4741,
      "##work": 4742,
      "##ages": 4743,
      "text": 4744,
      "Get": 4745,
      "##FIX": 4746,
      "ranger": 4747,
      "Pri": 4748,
      "</": 4749,
      "Simple": 4750,
      "##Cal": 4751,
      "##Template": 4752,
      "##UM": 4753,
      "##Act": 4754,
      "##Workflow": 4755,
      "ByteBuf": 4756,
      "##rade": 4757,
      "##DAO": 4758,
      "##ater": 4759,
      "##F_": 4760,
      "##place": 4761,
      "close": 4762,
      "RE": 4763,
      "##Mode": 4764,
      "\".": 4765,
      "T7": 4766,
      "##Security": 4767,
      "URI": 4768,
      "operation": 4769,
      "##valu": 4770,
      "isEmpty": 4771,
      "uri": 4772,
      "line": 4773,
      "dest": 4774,
      "##ported": 4775,
      "##ination": 4776,
      "##Operator": 4777,
      "##ote": 4778,
      "##ization": 4779,
      "##lace": 4780,
      "##plit": 4781,
      "##chedule": 4782,
      "##precated": 4783,
      "##ided": 4784,
      "##rowable": 4785,
      "url": 4786,
      "Application": 4787,
      "Action": 4788,
      "##Enabled": 4789,
      "||": 4790,
      "\"/": 4791,
      "##face": 4792,
      "Abstract": 4793,
      "##ED_": 4794,
      "##plier": 4795,
      "://": 4796,
      "exception": 4797,
      "##gn": 4798,
      "Value": 4799,
      "##Gener": 4800,
      "##iled": 4801,
      "exist": 4802,
      "##olog": 4803,
      "##Authorize": 4804,
      "##pan": 4805,
      "[]...": 4806,
      "Stream": 4807,
      "##24": 4808,
      "hash": 4809,
      "##con": 4810,
      "PreAuthorize": 4811,
      "##Directory": 4812,
      "##ulti": 4813,
      "##sent": 4814,
      "##resh": 4815,
      "##over": 4816,
      "##Params": 4817,
      "Big": 4818,
      "##DI": 4819,
      "##16": 4820,
      "{\"": 4821,
      "##Length": 4822,
      "getR": 4823,
      "cal": 4824,
      "##)\")": 4825,
      "##ForTesting": 4826,
      "names": 4827,
      "Throwable": 4828,
      "getB": 4829,
      "##ise": 4830,
      "##Adapter": 4831,
      "##FF": 4832,
      "##ical": 4833,
      "\"\\\"": 4834,
      "##pgrade": 4835,
      "##Match": 4836,
      "Rule": 4837,
      "##Extension": 4838,
      "Task": 4839,
      "getN": 4840,
      "load": 4841,
      "##Channel": 4842,
      "##ugin": 4843,
      "getF": 4844,
      "T8": 4845,
      "Visible": 4846,
      "##ArgumentException": 4847,
      "##E_S": 4848,
      "##REFIX": 4849,
      "##XML": 4850,
      "##Db": 4851,
      "##ategy": 4852,
      "VisibleForTesting": 4853,
      "##Registry": 4854,
      "Deprecated": 4855,
      "##NotNull": 4856,
      "##xy": 4857,
      "##Dat": 4858,
      "RM": 4859,
      "##isionTable": 4860,
      "##Settings": 4861,
      "##Keys": 4862,
      "##imension": 4863,
      ".\")": 4864,
      "found": 4865,
      "##ERS": 4866,
      "##Attempt": 4867,
      "##Annotation": 4868,
      "View": 4869,
      "##BB": 4870,
      "##ology": 4871,
      "fail": 4872,
      "##entication": 4873,
      "Inter": 4874,
      "##ivity": 4875,
      "##cer": 4876,
      "##ere": 4877,
      "##ments": 4878,
      "LogMessage": 4879,
      "##enu": 4880,
      "##Double": 4881,
      "##ish": 4882,
      "Host": 4883,
      "regist": 4884,
      "Complet": 4885,
      "connection": 4886,
      "##SL": 4887,
      "userDetails": 4888,
      "##URI": 4889,
      "##tributes": 4890,
      "##tract": 4891,
      "##Module": 4892,
      "##istory": 4893,
      "root": 4894,
      "##omain": 4895,
      "environment": 4896,
      "##imes": 4897,
      "##Only": 4898,
      ">(": 4899,
      "Container": 4900,
      "ass": 4901,
      "##pc": 4902,
      "##ailed": 4903,
      "empty": 4904,
      "##qualTo": 4905,
      "XML": 4906,
      "##Validator": 4907,
      "##Integer": 4908,
      "##WS": 4909,
      "##Top": 4910,
      "NonNull": 4911,
      "##Simulation": 4912,
      "Not": 4913,
      "##Session": 4914,
      "apply": 4915,
      "##ush": 4916,
      "##C_": 4917,
      "##ONT": 4918,
      "##Term": 4919,
      "##IZ": 4920,
      "debug": 4921,
      "##rt": 4922,
      "InputStream": 4923,
      "match": 4924,
      "##play": 4925,
      "=\"": 4926,
      "##ESS": 4927,
      "##oder": 4928,
      "Func": 4929,
      "##mon": 4930,
      "##Pool": 4931,
      "##Rule": 4932,
      "##09": 4933,
      "31": 4934,
      "##dential": 4935,
      "Geo": 4936,
      "##54": 4937,
      "##Keyword": 4938,
      "##stant": 4939,
      "##Bean": 4940,
      "keys": 4941,
      "##52": 4942,
      "##74": 4943,
      "##db": 4944,
      "Entry": 4945,
      "##False": 4946,
      "expr": 4947,
      "##TO": 4948,
      "params": 4949,
      "##redential": 4950,
      "64": 4951,
      "UT": 4952,
      "++": 4953,
      "##Conf": 4954,
      "##Feed": 4955,
      "that": 4956,
      "##ther": 4957,
      "##ROPERT": 4958,
      "##Requ": 4959,
      "date": 4960,
      "##66": 4961,
      "Metric": 4962,
      "Filter": 4963,
      "##tx": 4964,
      "##etri": 4965,
      "##ared": 4966,
      "handle": 4967,
      "are": 4968,
      "Tra": 4969,
      "##au": 4970,
      "##Des": 4971,
      "##ority": 4972,
      "ext": 4973,
      "##GER": 4974,
      "##ubject": 4975,
      "it": 4976,
      "##EST": 4977,
      "T9": 4978,
      "us": 4979,
      "##md": 4980,
      "##${": 4981,
      "customer": 4982,
      "Gu": 4983,
      "##OUN": 4984,
      "parent": 4985,
      "##atal": 4986,
      "##If": 4987,
      "save": 4988,
      "##Upd": 4989,
      "##gre": 4990,
      "##VALUE": 4991,
      "##Reference": 4992,
      "##Dictionary": 4993,
      "inter": 4994,
      "##Package": 4995,
      "api": 4996,
      "##eg": 4997,
      "\\\",": 4998,
      "##Widget": 4999,
      "CharSequence": 5000,
      "##Remo": 5001,
      ">\\": 5002,
      "##Headers": 5003,
      "##oop": 5004,
      "stack": 5005,
      "element": 5006,
      "##US": 5007,
      "table": 5008,
      "##NO": 5009,
      "##lay": 5010,
      "getProperty": 5011,
      "}/": 5012,
      "alert": 5013,
      "POST": 5014,
      "39": 5015,
      "ed": 5016,
      "Void": 5017,
      "##table": 5018,
      "##Run": 5019,
      "db": 5020,
      "##ape": 5021,
      "><": 5022,
      "expect": 5023,
      "##ysis": 5024,
      "##rag": 5025,
      "##Api": 5026,
      "##ms": 5027,
      "Range": 5028,
      "##06": 5029,
      "##anage": 5030,
      "IllegalArgumentException": 5031,
      "initial": 5032,
      "second": 5033,
      "Param": 5034,
      "##ERV": 5035,
      "we": 5036,
      "Cluster": 5037,
      "##Strategy": 5038,
      "State": 5039,
      "##Target": 5040,
      "##gent": 5041,
      "##A_": 5042,
      "Model": 5043,
      "##pendency": 5044,
      "##Create": 5045,
      "##KEY": 5046,
      "##ld": 5047,
      "##etwork": 5048,
      "##vc": 5049,
      "Channel": 5050,
      "##XGroup": 5051,
      "role": 5052,
      "num": 5053,
      "##ql": 5054,
      "##sert": 5055,
      "##aw": 5056,
      "('": 5057,
      "execute": 5058,
      "print": 5059,
      "##64": 5060,
      "{}": 5061,
      "##cept": 5062,
      "call": 5063,
      "##ableFuture": 5064,
      "Cal": 5065,
      "##Case": 5066,
      "##Plan": 5067,
      "req": 5068,
      "##K_": 5069,
      "Properties": 5070,
      "##ruct": 5071,
      "##hen": 5072,
      "##sor": 5073,
      "##Async": 5074,
      "##ene": 5075,
      "##Admin": 5076,
      "copy": 5077,
      "##AL_": 5078,
      "##uid": 5079,
      "origin": 5080,
      "getId": 5081,
      "##aptor": 5082,
      "##Timeout": 5083,
      "listener": 5084,
      "base": 5085,
      "##12": 5086,
      "##erializer": 5087,
      "bundle": 5088,
      "##E_P": 5089,
      "T10": 5090,
      "val": 5091,
      "pl": 5092,
      "##gnore": 5093,
      "resolve": 5094,
      "replace": 5095,
      "##Uri": 5096,
      "AM": 5097,
      "##14": 5098,
      "bu": 5099,
      "##ingle": 5100,
      "##ET_": 5101,
      "##Stack": 5102,
      "##enc": 5103,
      "Expected": 5104,
      "UserDetails": 5105,
      "##OUR": 5106,
      "Policy": 5107,
      "Rec": 5108,
      "##oll": 5109,
      "Vector": 5110,
      "##UP": 5111,
      "##Flow": 5112,
      "##32": 5113,
      "##mary": 5114,
      "##Storage": 5115,
      "##ie": 5116,
      "Block": 5117,
      "##ECT": 5118,
      "##Pattern": 5119,
      "##Exist": 5120,
      "##TIM": 5121,
      "##omic": 5122,
      "##endar": 5123,
      "customerId": 5124,
      "##atalog": 5125,
      "##DecisionTable": 5126,
      "##ROPERTY_": 5127,
      "##lation": 5128,
      "mod": 5129,
      "##atus": 5130,
      "JBB": 5131,
      "JBBP": 5132,
      "##Logger": 5133,
      "##Lock": 5134,
      "dd": 5135,
      "actual": 5136,
      "assertFalse": 5137,
      "##Qu": 5138,
      "Environment": 5139,
      "##gr": 5140,
      "getA": 5141,
      "block": 5142,
      "##anagement": 5143,
      "##78": 5144,
      "bytes": 5145,
      "##Position": 5146,
      "EN": 5147,
      "##ulate": 5148,
      "##pri": 5149,
      "##clude": 5150,
      "ss": 5151,
      "##ting": 5152,
      "Auth": 5153,
      "header": 5154,
      "##ib": 5155,
      "sele": 5156,
      "##Callback": 5157,
      "metrics": 5158,
      "::": 5159,
      "access": 5160,
      "##ersist": 5161,
      "Column": 5162,
      "UUID": 5163,
      "limit": 5164,
      "##its": 5165,
      "mapper": 5166,
      "##dentity": 5167,
      "##ATH": 5168,
      "Read": 5169,
      "##Is": 5170,
      "ref": 5171,
      "##Fields": 5172,
      "row": 5173,
      "Thread": 5174,
      "Builder": 5175,
      "other": 5176,
      "##ume": 5177,
      "foo": 5178,
      "\"},": 5179,
      "abstract": 5180,
      "T11": 5181,
      "##kip": 5182,
      "##Col": 5183,
      "ST": 5184,
      "obj": 5185,
      "ctx": 5186,
      "##Required": 5187,
      "##ocol": 5188,
      "##ragment": 5189,
      "##tocol": 5190,
      "##ero": 5191,
      "document": 5192,
      "part": 5193,
      "##mail": 5194,
      "##OS": 5195,
      "##greg": 5196,
      "##illis": 5197,
      "##Track": 5198,
      "channel": 5199,
      "##Change": 5200,
      "Field": 5201,
      "##34": 5202,
      "##ower": 5203,
      "##imal": 5204,
      "getClass": 5205,
      "##AD_": 5206,
      "##ayload": 5207,
      "##DMForm": 5208,
      "##mutable": 5209,
      "##DbEntity": 5210,
      "##Groups": 5211,
      "ID": 5212,
      "reader": 5213,
      "##ccount": 5214,
      "Bundle": 5215,
      "##ggreg": 5216,
      "##atri": 5217,
      "##RL": 5218,
      "##Level": 5219,
      "##cr": 5220,
      "store": 5221,
      "##ASS": 5222,
      "Ambari": 5223,
      "Redis": 5224,
      "getO": 5225,
      "##02": 5226,
      "##Fl": 5227,
      "##Zone": 5228,
      "##atrix": 5229,
      "##ped": 5230,
      "one": 5231,
      "##Ent": 5232,
      "##Ref": 5233,
      "RestParameter": 5234,
      "##uccess": 5235,
      "##15": 5236,
      "##FS": 5237,
      "##bo": 5238,
      "##Prefix": 5239,
      "make": 5240,
      "An": 5241,
      "##ruction": 5242,
      "##Execution": 5243,
      "##Complet": 5244,
      "array": 5245,
      "schema": 5246,
      "RequestMapping": 5247,
      "##ollector": 5248,
      "##ables": 5249,
      "##vail": 5250,
      "StringBuilder": 5251,
      "##Child": 5252,
      "##Pair": 5253,
      "require": 5254,
      "##ved": 5255,
      "##04": 5256,
      "getMessage": 5257,
      "Name": 5258,
      "##terable": 5259,
      "##ATE_": 5260,
      "short": 5261,
      "##Environment": 5262,
      "##Presenter": 5263,
      "queue": 5264,
      "##ategory": 5265,
      "##New": 5266,
      "##unt": 5267,
      "label": 5268,
      "msg": 5269,
      "fs": 5270,
      "rec": 5271,
      "##lob": 5272,
      "Mark": 5273,
      "sb": 5274,
      ".\",": 5275,
      "##Certificate": 5276,
      "instanceof": 5277,
      "##wit": 5278,
      "##igned": 5279,
      "range": 5280,
      "',": 5281,
      "##Rec": 5282,
      "##Folder": 5283,
      "##IV": 5284,
      "Result": 5285,
      "Arrays": 5286,
      "Ref": 5287,
      "##Criterion": 5288,
      "##ByScore": 5289,
      "Valid": 5290,
      "##Menu": 5291,
      "Iterator": 5292,
      "rest": 5293,
      "Guided": 5294,
      "##vo": 5295,
      "##anged": 5296,
      "##lowed": 5297,
      "##TT": 5298,
      "can": 5299,
      "##Holder": 5300,
      "T12": 5301,
      "##ait": 5302,
      "timeout": 5303,
      "RequestMethod": 5304,
      "top": 5305,
      "##13": 5306,
      "##sc": 5307,
      "security": 5308,
      "Schema": 5309,
      "##Description": 5310,
      "##Out": 5311,
      "##Number": 5312,
      "##rs": 5313,
      "##STAN": 5314,
      "##untime": 5315,
      "compare": 5316,
      "del": 5317,
      "##sion": 5318,
      "options": 5319,
      "##rim": 5320,
      "##acter": 5321,
      "##_PREFIX": 5322,
      "##ByName": 5323,
      "##fter": 5324,
      "Attribute": 5325,
      "##ration": 5326,
      "##legate": 5327,
      "Document": 5328,
      "##rgan": 5329,
      "##gment": 5330,
      "Geometry": 5331,
      "##Base": 5332,
      "asList": 5333,
      "open": 5334,
      "##OC": 5335,
      "##Empty": 5336,
      "random": 5337,
      "##Accessible": 5338,
      "##Audit": 5339,
      "MA": 5340,
      "##adi": 5341,
      "Scenario": 5342,
      "send": 5343,
      "##server": 5344,
      "generate": 5345,
      "def": 5346,
      "Method": 5347,
      "Link": 5348,
      "##Fail": 5349,
      "port": 5350,
      "##ariant": 5351,
      "##witch": 5352,
      "##Socket": 5353,
      "##Thread": 5354,
      "##old": 5355,
      "##ics": 5356,
      "Immutable": 5357,
      "Entity": 5358,
      "##\\\"\"": 5359,
      "##No": 5360,
      "TEST_": 5361,
      "##lear": 5362,
      "##ATION": 5363,
      "##pload": 5364,
      "##InputStream": 5365,
      "##Frame": 5366,
      "Stack": 5367,
      "##rtif": 5368,
      "flow": 5369,
      "##HA": 5370,
      "##Graph": 5371,
      "##**": 5372,
      "##Non": 5373,
      "##current": 5374,
      "address": 5375,
      "ExpectedException": 5376,
      "valueOf": 5377,
      "##led": 5378,
      "##que": 5379,
      "##Grid": 5380,
      "##zz": 5381,
      "##Metrics": 5382,
      "LOGGER": 5383,
      "parser": 5384,
      "work": 5385,
      "##ility": 5386,
      "##rtifact": 5387,
      "##RS": 5388,
      "pattern": 5389,
      "Component": 5390,
      "assertNotNull": 5391,
      "Ed": 5392,
      "split": 5393,
      "Run": 5394,
      "##Body": 5395,
      "##Customer": 5396,
      "register": 5397,
      "device": 5398,
      "Search": 5399,
      "##Init": 5400,
      "##oDBEntity": 5401,
      "##Write": 5402,
      "inst": 5403,
      "##oord": 5404,
      "Ad": 5405,
      "spec": 5406,
      "##ke": 5407,
      "Bi": 5408,
      "API": 5409,
      "##Generator": 5410,
      "##Snapshot": 5411,
      "##----": 5412,
      "writer": 5413,
      "##ownload": 5414,
      "Dat": 5415,
      "Predicate": 5416,
      "body": 5417,
      "handler": 5418,
      "##Millis": 5419,
      "subs": 5420,
      "Collections": 5421,
      "12": 5422,
      "no": 5423,
      "(\"@": 5424,
      "##issing": 5425,
      "##Editor": 5426,
      "##erap": 5427,
      "##Collection": 5428,
      "##Limit": 5429,
      "page": 5430,
      "##_F": 5431,
      "##ConstantService": 5432,
      "##empor": 5433,
      "});": 5434,
      "##Variable": 5435,
      "env": 5436,
      "cache": 5437,
      "##angu": 5438,
      "Config": 5439,
      "extract": 5440,
      "##ures": 5441,
      "Sc": 5442,
      "##bles": 5443,
      "##Support": 5444,
      "##_D": 5445,
      "Atomic": 5446,
      "compile": 5447,
      "##redentials": 5448,
      "T13": 5449,
      "vis": 5450,
      "apache": 5451,
      "java": 5452,
      "##ternal": 5453,
      "prefix": 5454,
      "##eed": 5455,
      "##Resources": 5456,
      "En": 5457,
      "session": 5458,
      "Markdown": 5459,
      "##ause": 5460,
      "##adius": 5461,
      "##rn": 5462,
      "##apac": 5463,
      "##CL": 5464,
      "##Next": 5465,
      "##vailable": 5466,
      "##mt": 5467,
      "parameters": 5468,
      "##Delete": 5469,
      "##Bundle": 5470,
      "##idth": 5471,
      "##ores": 5472,
      "No": 5473,
      "##essages": 5474,
      "Sec": 5475,
      "metric": 5476,
      "##TYPE": 5477,
      "##peri": 5478,
      "cla": 5479,
      "App": 5480,
      "##lables": 5481,
      "##nown": 5482,
      "predicate": 5483,
      "##Selector": 5484,
      "##nect": 5485,
      "##edu": 5486,
      "##Parent": 5487,
      "##ayout": 5488,
      "##apacity": 5489,
      "exp": 5490,
      "100": 5491,
      "getType": 5492,
      "##dap": 5493,
      "##are": 5494,
      "GuidedDecisionTable": 5495,
      "##AuthSecurity": 5496,
      "##PreAuthSecurity": 5497,
      "rangerPreAuthSecurity": 5498,
      "rangerPreAuthSecurityHandler": 5499,
      "##Nul": 5500,
      "ByteBuffer": 5501,
      "##Nullables": 5502,
      "isEqualTo": 5503,
      "##rch": 5504,
      "ddm": 5505,
      "isAPI": 5506,
      "CompletableFuture": 5507,
      "##Mon": 5508,
      "##10": 5509,
      "##ations": 5510,
      "##tml": 5511,
      "Table": 5512,
      "##Alert": 5513,
      "cmd": 5514,
      "##itle": 5515,
      "password": 5516,
      "##erge": 5517,
      "##Offset": 5518,
      "##CE_": 5519,
      "##Iterator": 5520,
      "##MIN": 5521,
      "function": 5522,
      "Act": 5523,
      "ac": 5524,
      "##gle": 5525,
      "##TERN": 5526,
      "Token": 5527,
      "\\\":\\\"": 5528,
      "##Chain": 5529,
      "##ating": 5530,
      "];": 5531,
      "Access": 5532,
      "##94": 5533,
      "##Services": 5534,
      "(\\\"\"": 5535,
      "##ested": 5536,
      "RangerAPI": 5537,
      "serviceName": 5538,
      "\"\\\")\")": 5539,
      "isAPIAccessible": 5540,
      "RangerAPIList": 5541,
      "##Tuple": 5542,
      "##oles": 5543,
      "##ATE": 5544,
      "##mp": 5545,
      "script": 5546,
      "##ias": 5547,
      "Medication": 5548,
      "child": 5549,
      "Web": 5550,
      "##Throw": 5551,
      "##inary": 5552,
      "##Tree": 5553,
      "Tag": 5554,
      "##Asset": 5555,
      "##leton": 5556,
      "##Perm": 5557,
      "##ingleton": 5558,
      "##iter": 5559,
      "##AIL": 5560,
      "##bserver": 5561,
      "patient": 5562,
      "VXGroup": 5563,
      "##Max": 5564,
      "##anode": 5565,
      "Alert": 5566,
      "##IG": 5567,
      "Sub": 5568,
      "##Place": 5569,
      "users": 5570,
      "member": 5571,
      "##Condition": 5572,
      "He": 5573,
      "##cle": 5574,
      "Metadata": 5575,
      ">()": 5576,
      "##XUser": 5577,
      "##00000000": 5578,
      "des": 5579,
      "##99": 5580,
      "##Attributes": 5581,
      "while": 5582,
      "RangerPolicy": 5583,
      "HashSet": 5584,
      "use": 5585,
      "##herit": 5586,
      "##{\\\"": 5587,
      "UTF_": 5588,
      "##acion": 5589,
      "##erber": 5590,
      "##Evalu": 5591,
      "Error": 5592,
      "m_": 5593,
      "##erberos": 5594,
      "##EAD": 5595,
      "serial": 5596,
      "##oding": 5597,
      "times": 5598,
      "TypeInformation": 5599,
      "##iteral": 5600,
      "##Web": 5601,
      "##Scheduler": 5602,
      "original": 5603,
      "getService": 5604,
      "getKey": 5605,
      "##Boolean": 5606,
      "T14": 5607,
      "##ncip": 5608,
      "clear": 5609,
      "##ONFI": 5610,
      "##nalysis": 5611,
      ")));": 5612,
      "##ncipal": 5613,
      "##ervation": 5614,
      "##anguage": 5615,
      "##Back": 5616,
      "Invalid": 5617,
      "##Del": 5618,
      "0X": 5619,
      "getCurrent": 5620,
      "##Doc": 5621,
      "##O_": 5622,
      "hashCode": 5623,
      "##asic": 5624,
      "Command": 5625,
      "##ONFIG": 5626,
      "Record": 5627,
      "##former": 5628,
      "##Expr": 5629,
      "expression": 5630,
      "##oordin": 5631,
      "##ROR": 5632,
      "##OutputStream": 5633,
      "##posal": 5634,
      "DEL": 5635,
      "##OT": 5636,
      "Status": 5637,
      "dir": 5638,
      "##ngine": 5639,
      "##77": 5640,
      "##lobal": 5641,
      "encode": 5642,
      "##ipe": 5643,
      "##Env": 5644,
      "number": 5645,
      "##Internal": 5646,
      "old": 5647,
      "project": 5648,
      "\\\\": 5649,
      "200": 5650,
      "##eft": 5651,
      "##wo": 5652,
      "##LOC": 5653,
      "##IZE": 5654,
      "testGet": 5655,
      "##iven": 5656,
      "rel": 5657,
      "UTF_8": 5658,
      "getResource": 5659,
      "##Produ": 5660,
      "reset": 5661,
      "clazz": 5662,
      "per": 5663,
      "##ich": 5664,
      "hel": 5665,
      "##ex": 5666,
      "##MetaData": 5667,
      "media": 5668,
      "##allet": 5669,
      "##emory": 5670,
      "##80": 5671,
      "##erapy": 5672,
      "##CC": 5673,
      "getUser": 5674,
      "##az": 5675,
      "##emp": 5676,
      "##heritance": 5677,
      "\\\">": 5678,
      "URL": 5679,
      "##EventListener": 5680,
      "back": 5681,
      "required": 5682,
      "Iterable": 5683,
      "##ORM": 5684,
      "##ries": 5685,
      "##Fin": 5686,
      "Add": 5687,
      "Element": 5688,
      "##OMM": 5689,
      "##efore": 5690,
      "##sWith": 5691,
      "##oogle": 5692,
      "##HashMap": 5693,
      "##Obj": 5694,
      "Locale": 5695,
      "##ructor": 5696,
      "##Predicate": 5697,
      "##Cell": 5698,
      "Executor": 5699,
      "##oy": 5700,
      "##print": 5701,
      "\"<": 5702,
      "EX": 5703,
      "123": 5704,
      "##Nodes": 5705,
      "##GRO": 5706,
      "##vile": 5707,
      "E_": 5708,
      "##Captor": 5709,
      "##Decl": 5710,
      "getLog": 5711,
      "##Pop": 5712,
      "##Mgr": 5713,
      "##Short": 5714,
      "aw": 5715,
      "trim": 5716,
      "##RangeByScore": 5717,
      "getAll": 5718,
      "Linked": 5719,
      "##indow": 5720,
      "##CT": 5721,
      "##Cre": 5722,
      "##Secret": 5723,
      "username": 5724,
      "geo": 5725,
      "##AIN": 5726,
      "##etrie": 5727,
      "##Contain": 5728,
      "##ged": 5729,
      "##ymb": 5730,
      "##raint": 5731,
      "##22": 5732,
      "##icator": 5733,
      "##izer": 5734,
      "##ESSAG": 5735,
      "##Files": 5736,
      "##03": 5737,
      "STR": 5738,
      "tx": 5739,
      "##STR": 5740,
      "##ored": 5741,
      "##periment": 5742,
      "##Login": 5743,
      "##ags": 5744,
      "##wner": 5745,
      "Inet": 5746,
      "++)": 5747,
      "##ICE_": 5748,
      "SC_": 5749,
      "{\"/": 5750,
      "##les": 5751,
      "##istance": 5752,
      ".\");": 5753,
      "##Results": 5754,
      "##Val": 5755,
      "##ARAM": 5756,
      "urn": 5757,
      "##ove": 5758,
      "##aster": 5759,
      "##LOW": 5760,
      "parameter": 5761,
      "##Export": 5762,
      "##Bound": 5763,
      "Parameter": 5764,
      "scheduler": 5765,
      "skip": 5766,
      "##Acl": 5767,
      "##Management": 5768,
      "##Scope": 5769,
      "Output": 5770,
      "##_name": 5771,
      "##Datas": 5772,
      "Expr": 5773,
      "##etty": 5774,
      "##Sign": 5775,
      "##84": 5776,
      "T15": 5777,
      "##Plugin": 5778,
      "##Enum": 5779,
      "produces": 5780,
      "##Topology": 5781,
      "##ale": 5782,
      "##orted": 5783,
      "##ING_": 5784,
      "##iff": 5785,
      "eq": 5786,
      "##Ignore": 5787,
      "##Rev": 5788,
      "rm": 5789,
      "AL": 5790,
      "##tep": 5791,
      "##[]": 5792,
      "cert": 5793,
      "##_1": 5794,
      "will": 5795,
      "##Decimal": 5796,
      "##Interval": 5797,
      "##Interface": 5798,
      "##_d": 5799,
      "serv": 5800,
      "##ased": 5801,
      "##dfs": 5802,
      "Enum": 5803,
      "##ank": 5804,
      "##ampl": 5805,
      "var": 5806,
      "##inding": 5807,
      "##Timestamp": 5808,
      "FileSystem": 5809,
      "responseCode": 5810,
      "col": 5811,
      "##OfNullables": 5812,
      "##Password": 5813,
      "RangerService": 5814,
      "##Profile": 5815,
      "##Root": 5816,
      "pop": 5817,
      "image": 5818,
      "Mon": 5819,
      "permission": 5820,
      "HttpStatus": 5821,
      "extension": 5822,
      "##tin": 5823,
      "safe": 5824,
      "##Consumer": 5825,
      "##ences": 5826,
      "##lue": 5827,
      "##ymbol": 5828,
      "##Op": 5829,
      "##_id": 5830,
      "01": 5831,
      "##Media": 5832,
      "##17": 5833,
      "##Att": 5834,
      "##Geometry": 5835,
      "iterator": 5836,
      "On": 5837,
      "none": 5838,
      "##ORT": 5839,
      "Id": 5840,
      "##ITER": 5841,
      "bucket": 5842,
      "sign": 5843,
      "##Cons": 5844,
      "XX": 5845,
      "##REST": 5846,
      "##REQU": 5847,
      "have": 5848,
      "##olumns": 5849,
      "##Feature": 5850,
      "userId": 5851,
      "eventId": 5852,
      "##VERS": 5853,
      "Client": 5854,
      "##Vis": 5855,
      "##ploy": 5856,
      "executor": 5857,
      "Supplier": 5858,
      "prev": 5859,
      "##WOR": 5860,
      "RestResponse": 5861,
      "##gress": 5862,
      "##Updater": 5863,
      "getInstance": 5864,
      ">>>": 5865,
      "##usters": 5866,
      "Point": 5867,
      "const": 5868,
      "##yle": 5869,
      "retry": 5870,
      ".<": 5871,
      "DateTime": 5872,
      "##Bucket": 5873,
      "ret": 5874,
      "##MS": 5875,
      "Number": 5876,
      "defaultValue": 5877,
      "##Stage": 5878,
      "##rganization": 5879,
      "userName": 5880,
      "##emporary": 5881,
      "##otype": 5882,
      "comment": 5883,
      "##ITY": 5884,
      "##Var": 5885,
      "##55": 5886,
      "##Proxy": 5887,
      "Expression": 5888,
      "##ermin": 5889,
      "ns": 5890,
      "##_VALUE": 5891,
      "##ules": 5892,
      "##ATOR": 5893,
      "Content": 5894,
      "NON": 5895,
      "ent": 5896,
      "##_B": 5897,
      "Rem": 5898,
      "##Script": 5899,
      "##Commands": 5900,
      "##Rest": 5901,
      "##IP": 5902,
      "stop": 5903,
      "##Policies": 5904,
      "tc": 5905,
      "dat": 5906,
      "JSONObject": 5907,
      "certificate": 5908,
      "##IST": 5909,
      "Arg": 5910,
      "##etch": 5911,
      "##ceptor": 5912,
      "##Device": 5913,
      "##nable": 5914,
      "settings": 5915,
      "am": 5916,
      "##Comp": 5917,
      "##onds": 5918,
      "##ox": 5919,
      "##acml": 5920,
      "\":": 5921,
      "##Callable": 5922,
      "StringUtils": 5923,
      "Check": 5924,
      "notes": 5925,
      "##_t": 5926,
      "##etrieve": 5927,
      "##Ver": 5928,
      "##UB": 5929,
      "##Safe": 5930,
      "##utdown": 5931,
      "##TIME": 5932,
      "USER": 5933,
      "##Metric": 5934,
      "##osed": 5935,
      "ab": 5936,
      "ROL": 5937,
      "m2": 5938,
      "##EP": 5939,
      "FS": 5940,
      "Concurrent": 5941,
      "##imum": 5942,
      "BigInteger": 5943,
      "DDMForm": 5944,
      "##Member": 5945,
      "##ka": 5946,
      "##ultip": 5947,
      "##Retry": 5948,
      "##iod": 5949,
      "##Sum": 5950,
      "##cheduled": 5951,
      "aud": 5952,
      "qu": 5953,
      "Call": 5954,
      "decode": 5955,
      "\"${": 5956,
      "report": 5957,
      "##KeywordPlan": 5958,
      "##ses": 5959,
      "##ocker": 5960,
      "position": 5961,
      "headers": 5962,
      "unit": 5963,
      "warn": 5964,
      "##ormal": 5965,
      "##Changed": 5966,
      "order": 5967,
      "##DS": 5968,
      "##AX": 5969,
      "##Category": 5970,
      "}\",": 5971,
      "T16": 5972,
      "##19": 5973,
      "##Last": 5974,
      "Character": 5975,
      "account": 5976,
      "Cache": 5977,
      "Buffer": 5978,
      "anal": 5979,
      "my": 5980,
      "*/": 5981,
      "##ason": 5982,
      "##OB": 5983,
      "##85": 5984,
      "mockCampaign": 5985,
      "system": 5986,
      "ddmForm": 5987,
      "16": 5988,
      "##Xml": 5989,
      "mockAdGroup": 5990,
      "raw": 5991,
      "##plic": 5992,
      "##E_C": 5993,
      ")))": 5994,
      "##Transition": 5995,
      "##Engine": 5996,
      "##Display": 5997,
      "##ning": 5998,
      "##Float": 5999,
      "##Found": 6000,
      "Jetty": 6001,
      "##ACK": 6002,
      "does": 6003,
      "##Active": 6004,
      "Dec": 6005,
      "sort": 6006,
      "##ding": 6007,
      "MockCampaign": 6008,
      "MockAdGroup": 6009,
      "1000": 6010,
      "Random": 6011,
      "##Dest": 6012,
      "may": 6013,
      "##ton": 6014,
      "##UST": 6015,
      "isRequired": 6016,
      "DELET": 6017,
      "##adoop": 6018,
      "201": 6019,
      "lat": 6020,
      "Version": 6021,
      "Instance": 6022,
      "Timeline": 6023,
      "##host": 6024,
      "Index": 6025,
      "Calendar": 6026,
      "##pa": 6027,
      "##Assign": 6028,
      "created": 6029,
      "ssl": 6030,
      "##elf": 6031,
      "##YP": 6032,
      "##ABLE": 6033,
      "##ffect": 6034,
      "XMLStream": 6035,
      "##elope": 6036,
      "##sTo": 6037,
      "##OP": 6038,
      "##LabelService": 6039,
      "##Remove": 6040,
      "subject": 6041,
      "##space": 6042,
      "TimeUnit": 6043,
      "Http2": 6044,
      "timestamp": 6045,
      "##scri": 6046,
      "##ACT": 6047,
      "att": 6048,
      "andReturn": 6049,
      "##ances": 6050,
      "Datanode": 6051,
      "MAX_": 6052,
      "VXUser": 6053,
      "visit": 6054,
      "##Dimension": 6055,
      "JettyUtils": 6056,
      "##lueprint": 6057,
      "fields": 6058,
      "##Failure": 6059,
      "##gion": 6060,
      "getStatus": 6061,
      "##ADMIN": 6062,
      "Edge": 6063,
      "##Criteria": 6064,
      "##iver": 6065,
      "Base": 6066,
      "given": 6067,
      "##ursor": 6068,
      "##Notification": 6069,
      "Return": 6070,
      "post": 6071,
      "##Up": 6072,
      "##ulator": 6073,
      "track": 6074,
      "Safe": 6075,
      "##86": 6076,
      "Security": 6077,
      "vault": 6078,
      "was": 6079,
      "location": 6080,
      "##Num": 6081,
      "Ass": 6082,
      "STRING": 6083,
      "rule": 6084,
      "##26": 6085,
      "admin": 6086,
      "join": 6087,
      "##ced": 6088,
      "##unk": 6089,
      "##Initial": 6090,
      "##arsh": 6091,
      "vol": 6092,
      "calc": 6093,
      "attribute": 6094,
      "##Uns": 6095,
      "709": 6096,
      "##_IN": 6097,
      "so": 6098,
      "##outer": 6099,
      "web": 6100,
      "ThreadLocal": 6101,
      "domain": 6102,
      "##Day": 6103,
      "##ById": 6104,
      "##Items": 6105,
      "##ious": 6106,
      "##DIR": 6107,
      "annotation": 6108,
      "Comparator": 6109,
      "##Labels": 6110,
      "policies": 6111,
      "ApiOperation": 6112,
      "mon": 6113,
      "##Segment": 6114,
      "00": 6115,
      "resources": 6116,
      "locale": 6117,
      "getRe": 6118,
      "destination": 6119,
      "##Upload": 6120,
      "##{}": 6121,
      "##Tool": 6122,
      "point": 6123,
      "##store": 6124,
      "failed": 6125,
      "##gex": 6126,
      "##med": 6127,
      "##df": 6128,
      "##HEAD": 6129,
      "##ookup": 6130,
      "##untimeException": 6131,
      "##ponses": 6132,
      "ObjectMapper": 6133,
      "##Formatter": 6134,
      "##ution": 6135,
      "##nge": 6136,
      "##Pos": 6137,
      "##A4": 6138,
      "NotNull": 6139,
      "##eature": 6140,
      "##T_F": 6141,
      "Consumer": 6142,
      "merge": 6143,
      "CONT": 6144,
      "Uri": 6145,
      "##ww": 6146,
      "##Control": 6147,
      "##33": 6148,
      "groups": 6149,
      "##ging": 6150,
      "errors": 6151,
      "##Statement": 6152,
      "CL": 6153,
      "##Pack": 6154,
      "select": 6155,
      "##UUID": 6156,
      "##Open": 6157,
      "consent": 6158,
      "##ISS": 6159,
      "##Partition": 6160,
      "trigger": 6161,
      "matcher": 6162,
      "Refer": 6163,
      "##ep": 6164,
      "execution": 6165,
      "##Over": 6166,
      "p2": 6167,
      "##ename": 6168,
      "www": 6169,
      "e2": 6170,
      "meta": 6171,
      "Connection": 6172,
      "Duration": 6173,
      "##ODE_": 6174,
      "propertyName": 6175,
      "template": 6176,
      "serviceAccount": 6177,
      "isValid": 6178,
      "Track": 6179,
      "##rypt": 6180,
      "##SE": 6181,
      "##Literal": 6182,
      "##rant": 6183,
      "Execution": 6184,
      "##ocator": 6185,
      "dst": 6186,
      "##enderer": 6187,
      "##Props": 6188,
      "Operation": 6189,
      "example": 6190,
      "asset": 6191,
      "Mutable": 6192,
      "##py": 6193,
      "##apture": 6194,
      "Storage": 6195,
      "##mission": 6196,
      "##79": 6197,
      "##artbe": 6198,
      "repository": 6199,
      "Pl": 6200,
      "ToDouble": 6201,
      "provider": 6202,
      "##ency": 6203,
      "##artbeat": 6204,
      "##_L": 6205,
      "##lease": 6206,
      "##Inheritance": 6207,
      "##YS_": 6208,
      "##arshal": 6209,
      "##utton": 6210,
      "p1": 6211,
      "NAM": 6212,
      "getBytes": 6213,
      "##ULL": 6214,
      "##AND": 6215,
      "##last": 6216,
      "##Scores": 6217,
      "bit": 6218,
      "Graph": 6219,
      "##Protocol": 6220,
      "delegate": 6221,
      "##IF": 6222,
      "getFile": 6223,
      "future": 6224,
      "##Bid": 6225,
      "##orre": 6226,
      "allow": 6227,
      "INSTAN": 6228,
      "SERV": 6229,
      "QName": 6230,
      "Repository": 6231,
      "SSL": 6232,
      "Gener": 6233,
      "##bers": 6234,
      "##role": 6235,
      "##Nullable": 6236,
      "##SC": 6237,
      "##76": 6238,
      "Device": 6239,
      "##andard": 6240,
      "Yarn": 6241,
      "##andid": 6242,
      "20": 6243,
      "##History": 6244,
      "##Same": 6245,
      "##Tx": 6246,
      "common": 6247,
      "T17": 6248,
      "##Batch": 6249,
      "substring": 6250,
      "##Audi": 6251,
      "##Min": 6252,
      "argument": 6253,
      "##eme": 6254,
      "<?>>": 6255,
      ">,": 6256,
      "##Catalog": 6257,
      "##apab": 6258,
      "##verse": 6259,
      "used": 6260,
      "##One": 6261,
      "##PON": 6262,
      "EM": 6263,
      "core": 6264,
      "Pair": 6265,
      "##Sent": 6266,
      "##mise": 6267,
      "##OK": 6268,
      "Code": 6269,
      "Buffered": 6270,
      "##ROPERTY_ID": 6271,
      "PropertyUpdater": 6272,
      "##sync": 6273,
      "##omme": 6274,
      "Xml": 6275,
      "##Accessor": 6276,
      "Fl": 6277,
      "uow": 6278,
      "existing": 6279,
      "only": 6280,
      "medication": 6281,
      "##Domain": 6282,
      "##oci": 6283,
      "##ynam": 6284,
      "Session": 6285,
      "bar": 6286,
      "##DateTime": 6287,
      "getData": 6288,
      "##18": 6289,
      "Dis": 6290,
      "##Elements": 6291,
      "Peer": 6292,
      "exists": 6293,
      "Argument": 6294,
      "Reference": 6295,
      "##anaged": 6296,
      "ScenarioSimulation": 6297,
      "##ensor": 6298,
      "insert": 6299,
      "##tal": 6300,
      "##ollect": 6301,
      "/*": 6302,
      "##ique": 6303,
      "notification": 6304,
      "##ABLE_": 6305,
      "##Exists": 6306,
      "##Instruction": 6307,
      "')\")": 6308,
      "notify": 6309,
      "hasRole": 6310,
      "collection": 6311,
      "Create": 6312,
      "graph": 6313,
      "lock": 6314,
      "tr": 6315,
      "##ipeline": 6316,
      "##Multi": 6317,
      "##RESOUR": 6318,
      "##LinkService": 6319,
      "WorkflowInstance": 6320,
      "##SocketAddress": 6321,
      "invalid": 6322,
      "##dbc": 6323,
      "Text": 6324,
      "##Counter": 6325,
      "##ived": 6326,
      "##YT": 6327,
      "##utate": 6328,
      "##Bit": 6329,
      "##Selection": 6330,
      "mark": 6331,
      "complet": 6332,
      "Server": 6333,
      "##DP": 6334,
      "##EW": 6335,
      "refresh": 6336,
      "##USER": 6337,
      "remote": 6338,
      "##Messages": 6339,
      "##range": 6340,
      "UN": 6341,
      "##cing": 6342,
      "##voke": 6343,
      "Extension": 6344,
      "##Project": 6345,
      "##bsol": 6346,
      "##ATTERN": 6347,
      "ambari": 6348,
      "xacml": 6349,
      "##yz": 6350,
      "scenario": 6351,
      "##eek": 6352,
      "v2": 6353,
      "Acl": 6354,
      "Float": 6355,
      "Script": 6356,
      "MapStream": 6357,
      "##EXT": 6358,
      "##ied": 6359,
      "##H_": 6360,
      "##imer": 6361,
      "##Rece": 6362,
      "##Vector": 6363,
      "##ynamic": 6364,
      "(\"${": 6365,
      "##nsure": 6366,
      "##oordinate": 6367,
      "##OW": 6368,
      "##T_P": 6369,
      "##ending": 6370,
      "##tex": 6371,
      "getDefault": 6372,
      "OK": 6373,
      "##tl": 6374,
      "contin": 6375,
      "If": 6376,
      "##Pan": 6377,
      "Charset": 6378,
      "OUT": 6379,
      "acl": 6380,
      "##ince": 6381,
      "accept": 6382,
      "##known": 6383,
      "##bsolute": 6384,
      "##Selected": 6385,
      "##upl": 6386,
      "##val": 6387,
      "This": 6388,
      "must": 6389,
      "##reshold": 6390,
      "##QL": 6391,
      "Upgrade": 6392,
      "##lele": 6393,
      "##Dependency": 6394,
      "##Allowed": 6395,
      "]);": 6396,
      "full": 6397,
      "##ear": 6398,
      "fileName": 6399,
      "##Usage": 6400,
      "##overy": 6401,
      "lang": 6402,
      "##ritable": 6403,
      "directory": 6404,
      "##ds": 6405,
      "criter": 6406,
      "pos": 6407,
      "##Span": 6408,
      "##ECON": 6409,
      "##ta": 6410,
      "##lastic": 6411,
      "ROLE_S": 6412,
      "containerId": 6413,
      "##sv": 6414,
      "eb": 6415,
      "##YS_ADMIN": 6416,
      "non": 6417,
      "##Args": 6418,
      "inc": 6419,
      "aws": 6420,
      "getString": 6421,
      "ROLE_SYS_ADMIN": 6422,
      "##Bus": 6423,
      "##ENG": 6424,
      "##_RE": 6425,
      "change": 6426,
      "##ancel": 6427,
      "##Tracker": 6428,
      "multi": 6429,
      "populate": 6430,
      "##Activity": 6431,
      "##Custom": 6432,
      "Col": 6433,
      "RES": 6434,
      "##atile": 6435,
      "KE": 6436,
      "##Geo": 6437,
      "##ariable": 6438,
      "##sed": 6439,
      "##vilege": 6440,
      "op": 6441,
      "##requ": 6442,
      "##oDbEntity": 6443,
      "widget": 6444,
      "APPLICATION_XML": 6445,
      "factory": 6446,
      "Grid": 6447,
      "##angle": 6448,
      "##ITY_": 6449,
      "##ServiceImpl": 6450,
      "##ached": 6451,
      "1L": 6452,
      "##WithScores": 6453,
      "assertNull": 6454,
      "Temporary": 6455,
      "##oly": 6456,
      "vX": 6457,
      "##ByteArray": 6458,
      "##D4": 6459,
      "##AppRole": 6460,
      "##Present": 6461,
      "##ALL": 6462,
      "Wallet": 6463,
      "##ODE": 6464,
      "Analysis": 6465,
      "##_c": 6466,
      "##_s": 6467,
      "##Layout": 6468,
      "##_ID": 6469,
      "DELETE": 6470,
      "newInstance": 6471,
      "two": 6472,
      "##itive": 6473,
      "##IFI": 6474,
      "##idc": 6475,
      "##main": 6476,
      "##upported": 6477,
      "ReadOnly": 6478,
      "##TTP": 6479,
      "##anges": 6480,
      "##Summary": 6481,
      "AWS": 6482,
      "Uns": 6483,
      "storage": 6484,
      "##Insert": 6485,
      "##Exp": 6486,
      "##ERROR": 6487,
      "getPath": 6488,
      "##Setting": 6489,
      "\")).": 6490,
      "Remote": 6491,
      "##Components": 6492,
      "manager": 6493,
      "authentication": 6494,
      "collect": 6495,
      "##ten": 6496,
      "##First": 6497,
      "svc": 6498,
      "##ART": 6499,
      "##TYPE_": 6500,
      "CON": 6501,
      "##irection": 6502,
      "##Gene": 6503,
      "##amil": 6504,
      "InetSocketAddress": 6505,
      "DataType": 6506,
      "##ferences": 6507,
      "##Shared": 6508,
      "volatile": 6509,
      "##node": 6510,
      "##Trace": 6511,
      "tmp": 6512,
      "##sr": 6513,
      "##ACE": 6514,
      "##alUser": 6515,
      "plugin": 6516,
      "##river": 6517,
      "##scape": 6518,
      "Variant": 6519,
      "##cat": 6520,
      "##SERV": 6521,
      "##Encoder": 6522,
      "right": 6523,
      "m0": 6524,
      "Group": 6525,
      "11": 6526,
      "PRO": 6527,
      "##ited": 6528,
      "##vocation": 6529,
      "groupName": 6530,
      "##Validation": 6531,
      "##_PRO": 6532,
      "##porter": 6533,
      "##73": 6534,
      "##arded": 6535,
      "##Import": 6536,
      "##FILE_": 6537,
      "?>": 6538,
      "##Registration": 6539,
      "Basic": 6540,
      "ByteArray": 6541,
      "##ln": 6542,
      "##Agent": 6543,
      "##ATA": 6544,
      "##atter": 6545,
      "some": 6546,
      "##Wh": 6547,
      "##ROPERTY": 6548,
      "##path": 6549,
      "Validation": 6550,
      "##Calc": 6551,
      "##ServiceAccount": 6552,
      "##way": 6553,
      "enabled": 6554,
      "##den": 6555,
      "##Commit": 6556,
      "##AttemptId": 6557,
      "##card": 6558,
      "PUT": 6559,
      "doc": 6560,
      "##Available": 6561,
      "##log": 6562,
      "##Mocks": 6563,
      "\\\",\\\"": 6564,
      "println": 6565,
      "##pose": 6566,
      "peer": 6567,
      "##ILL": 6568,
      "##TML": 6569,
      "##ota": 6570,
      "##Missing": 6571,
      "##Hex": 6572,
      "##PTION": 6573,
      "zero": 6574,
      "geometry": 6575,
      "Header": 6576,
      "##arted": 6577,
      "##ined": 6578,
      "##search": 6579,
      "##fill": 6580,
      "ApiResponse": 6581,
      "now": 6582,
      "Instant": 6583,
      "ensure": 6584,
      "Annotation": 6585,
      "##OLUM": 6586,
      "show": 6587,
      "##Authorization": 6588,
      "sample": 6589,
      "Transactional": 6590,
      "link": 6591,
      "##Transformer": 6592,
      "##arm": 6593,
      "##Serializer": 6594,
      "Scheduler": 6595,
      "##cheme": 6596,
      "MediaPackage": 6597,
      "##Load": 6598,
      "##Stub": 6599,
      "##Authentication": 6600,
      "BigDecimal": 6601,
      "updated": 6602,
      "##posite": 6603,
      "##ggregate": 6604,
      "##ov": 6605,
      "##Section": 6606,
      "bean": 6607,
      "e0": 6608,
      "##iness": 6609,
      "after": 6610,
      "##uffix": 6611,
      "pool": 6612,
      "section": 6613,
      "left": 6614,
      "##igation": 6615,
      "##ren": 6616,
      "##Peer": 6617,
      "##ARG": 6618,
      "LogFactory": 6619,
      "NO": 6620,
      "ne": 6621,
      "></": 6622,
      "TR": 6623,
      "##Le": 6624,
      "##UG": 6625,
      "##ATT": 6626,
      "xmlStream": 6627,
      "total": 6628,
      "15": 6629,
      "##Trigger": 6630,
      "##DF": 6631,
      "##aging": 6632,
      "##_T": 6633,
      "##embers": 6634,
      "##Upgrade": 6635,
      "##Creation": 6636,
      "##ines": 6637,
      "##ultiple": 6638,
      "inner": 6639,
      "files": 6640,
      "##aa": 6641,
      "##PermMap": 6642,
      "T18": 6643,
      "##44": 6644,
      "Parse": 6645,
      "##IES": 6646,
      "##itude": 6647,
      "##GROUP": 6648,
      "clean": 6649,
      "##_NAME": 6650,
      "##pendencies": 6651,
      "##requency": 6652,
      "m3": 6653,
      "##mitive": 6654,
      "hbase": 6655,
      "UserGroup": 6656,
      "##uto": 6657,
      "{}\",": 6658,
      "specified": 6659,
      "RequestHeader": 6660,
      "conn": 6661,
      "##Box": 6662,
      "Enc": 6663,
      "##256": 6664,
      "##ished": 6665,
      "Qu": 6666,
      "##Radius": 6667,
      "706": 6668,
      "##Java": 6669,
      "##Constraint": 6670,
      "3966": 6671,
      "Tree": 6672,
      "wait": 6673,
      "##egative": 6674,
      "ip": 6675,
      "mode": 6676,
      "containsKey": 6677,
      "continue": 6678,
      "##GroupId": 6679,
      "##Audience": 6680,
      "appId": 6681,
      "##_SERV": 6682,
      "##ENGTH": 6683,
      "##EG": 6684,
      "setup": 6685,
      "Network": 6686,
      "##ade": 6687,
      "##05": 6688,
      "main": 6689,
      "services": 6690,
      "##ecutable": 6691,
      "##AuditMap": 6692,
      "Project": 6693,
      "##2D": 6694,
      "##lav": 6695,
      "##ready": 6696,
      "hadoop": 6697,
      "##Comment": 6698,
      "##Redu": 6699,
      "##ayer": 6700,
      "##round": 6701,
      "commit": 6702,
      "oas": 6703,
      "##Endpoint": 6704,
      "singleton": 6705,
      "##atterns": 6706,
      "##LS": 6707,
      "Item": 6708,
      "##reen": 6709,
      "##for": 6710,
      "##CRS": 6711,
      "##Codec": 6712,
      "##OUT": 6713,
      "##Patient": 6714,
      "##OOL": 6715,
      "##list": 6716,
      "condition": 6717,
      "##Configs": 6718,
      "##ulk": 6719,
      "##(\\\\": 6720,
      "##ENC": 6721,
      "throwable": 6722,
      "agent": 6723,
      "##inal": 6724,
      "##ured": 6725,
      "frame": 6726,
      "##83": 6727,
      "Conver": 6728,
      "##annot": 6729,
      "1234": 6730,
      "##Are": 6731,
      "##AV": 6732,
      "Fragment": 6733,
      "##FileName": 6734,
      "history": 6735,
      "payload": 6736,
      "reference": 6737,
      "newBuilder": 6738,
      "getHost": 6739,
      "matches": 6740,
      "RuntimeException": 6741,
      "evalu": 6742,
      "identity": 6743,
      "##Msg": 6744,
      "##EV": 6745,
      "##));": 6746,
      "##uplicate": 6747,
      "\"\\": 6748,
      "##any": 6749,
      "flat": 6750,
      "##Extract": 6751,
      "Color": 6752,
      "##rement": 6753,
      "previous": 6754,
      "##rit": 6755,
      "##Arch": 6756,
      "Matrix": 6757,
      "##andl": 6758,
      "##AY": 6759,
      "proxy": 6760,
      "Public": 6761,
      "##ersistence": 6762,
      "##Ads": 6763,
      "##_p": 6764,
      "()),": 6765,
      "##ram": 6766,
      "##PortalUser": 6767,
      "audit": 6768,
      "inject": 6769,
      "##amily": 6770,
      "oasis": 6771,
      "Math": 6772,
      "##yy": 6773,
      "##Ind": 6774,
      "##imiter": 6775,
      "OutputStream": 6776,
      "over": 6777,
      "##Matcher": 6778,
      "##anner": 6779,
      "##ConfigBuilder": 6780,
      "##aters": 6781,
      "##Panel": 6782,
      "success": 6783,
      "##FIL": 6784,
      "##ModuleDef": 6785,
      "##Ms": 6786,
      "##asy": 6787,
      "endpoint": 6788,
      "setS": 6789,
      "m4": 6790,
      "##Button": 6791,
      "##oap": 6792,
      "##lot": 6793,
      "getMax": 6794,
      "callback": 6795,
      "GeometryWrapper": 6796,
      "InjectMocks": 6797,
      "Completion": 6798,
      "##aint": 6799,
      "##Constructor": 6800,
      "Update": 6801,
      "##lavor": 6802,
      "##Placement": 6803,
      "##Conversion": 6804,
      "Count": 6805,
      "##ClusterNode": 6806,
      "Runnable": 6807,
      "##Times": 6808,
      "e3": 6809,
      "##lect": 6810,
      "##Space": 6811,
      "##OLD": 6812,
      "identifier": 6813,
      "##ESSAGE": 6814,
      "configure": 6815,
      "##Tools": 6816,
      "##patcher": 6817,
      "tags": 6818,
      "thread": 6819,
      "##ArrayList": 6820,
      "forE": 6821,
      "begin": 6822,
      "variant": 6823,
      "edge": 6824,
      "temp": 6825,
      "Vector3": 6826,
      "##sl": 6827,
      "##itional": 6828,
      "##Collector": 6829,
      "##bservation": 6830,
      "##Su": 6831,
      "Trigger": 6832,
      "##Height": 6833,
      "##icro": 6834,
      "include": 6835,
      "##75": 6836,
      "##Descr": 6837,
      "ImmutableMap": 6838,
      "##Updated": 6839,
      "level": 6840,
      "##FLOW": 6841,
      "##udget": 6842,
      "Util": 6843,
      "##Based": 6844,
      "##AMPL": 6845,
      "##vest": 6846,
      "fetch": 6847,
      "getTime": 6848,
      "iter": 6849,
      "##map": 6850,
      "shutdown": 6851,
      "TYP": 6852,
      "custom": 6853,
      "##OLIC": 6854,
      "##enticator": 6855,
      "Common": 6856,
      "Inc": 6857,
      "##Edit": 6858,
      "\"-": 6859,
      "##After": 6860,
      "##Include": 6861,
      "##INT": 6862,
      "thrown": 6863,
      "startsWith": 6864,
      "##DAP": 6865,
      "[][]": 6866,
      "##Entries": 6867,
      "perm": 6868,
      "##Qual": 6869,
      "##alle": 6870,
      "interval": 6871,
      "##my": 6872,
      "##asyMock": 6873,
      "##ibility": 6874,
      "##Containers": 6875,
      "TemporaryFolder": 6876,
      "stub": 6877,
      "##Decoder": 6878,
      "##Single": 6879,
      "##present": 6880,
      "namespace": 6881,
      "AclEntry": 6882,
      "hdfs": 6883,
      "po": 6884,
      "results": 6885,
      "import": 6886,
      "())).": 6887,
      "##Proposal": 6888,
      "##UT_": 6889,
      "REQU": 6890,
      "##Capacity": 6891,
      "##ogen": 6892,
      "##ilities": 6893,
      "Fs": 6894,
      "##Cp": 6895,
      "##Transfer": 6896,
      "##Public": 6897,
      "zRev": 6898,
      "Interval": 6899,
      "##Objects": 6900,
      "artifact": 6901,
      "##Matrix": 6902,
      "##Ext": 6903,
      "##Payload": 6904,
      "##36": 6905,
      "##DescrDBEntity": 6906,
      "snapshot": 6907,
      "##CriterionService": 6908,
      "Collector": 6909,
      "m5": 6910,
      "##Priority": 6911,
      "AS": 6912,
      "JsonProperty": 6913,
      "##Supplier": 6914,
      "SimpleString": 6915,
      "##ifiers": 6916,
      "detail": 6917,
      "##Identity": 6918,
      "##Topic": 6919,
      "##UP_": 6920,
      "##_PATH": 6921,
      "controller": 6922,
      "##sumes": 6923,
      "##RM": 6924,
      "##07": 6925,
      "##Exec": 6926,
      "##Roles": 6927,
      "##Bl": 6928,
      "##Ph": 6929,
      "##net": 6930,
      "1024": 6931,
      "##Budget": 6932,
      "workflowId": 6933,
      "##maining": 6934,
      "finally": 6935,
      "Condition": 6936,
      "##orization": 6937,
      "e4": 6938,
      "##enant": 6939,
      "APPLICATION_JSON_VALUE": 6940,
      "##Operations": 6941,
      "ServiceAccount": 6942,
      "##Variant": 6943,
      "ACT": 6944,
      "##def": 6945,
      "Asset": 6946,
      "Hel": 6947,
      "##ft": 6948,
      "Returns": 6949,
      "##Ser": 6950,
      "##cent": 6951,
      "which": 6952,
      "##OUNT": 6953,
      "##Cla": 6954,
      "buf": 6955,
      "##FeedService": 6956,
      "force": 6957,
      "upd": 6958,
      "##96": 6959,
      "##\"));": 6960,
      "##Current": 6961,
      "##OUND": 6962,
      "upgrade": 6963,
      "##reat": 6964,
      "Binary": 6965,
      "before": 6966,
      "##ESC": 6967,
      "##Width": 6968,
      "##OLUMN": 6969,
      "os": 6970,
      "getCurrentMap": 6971,
      "Address": 6972,
      "analysis": 6973,
      "##ID_": 6974,
      "398": 6975,
      "site": 6976,
      "setName": 6977,
      "getNode": 6978,
      "ThreadLocalContext": 6979,
      "##sp": 6980,
      "##roll": 6981,
      "##atype": 6982,
      "##External": 6983,
      "14": 6984,
      "OID": 6985,
      "batch": 6986,
      "package": 6987,
      "##CHED": 6988,
      "##rup": 6989,
      "##WIT": 6990,
      "##Sample": 6991,
      "Page": 6992,
      "normal": 6993,
      "React": 6994,
      "##NotFound": 6995,
      "##Debug": 6996,
      "##Email": 6997,
      "GET_": 6998,
      "prop": 6999,
      "##gori": 7000,
      "##RESS": 7001,
      "[],": 7002,
      "##oute": 7003,
      "##DC": 7004,
      "wrap": 7005,
      "##eleted": 7006,
      "##Col52": 7007,
      "##OfInheritance": 7008,
      "##Unsigned": 7009,
      "##isher": 7010,
      "##Stats": 7011,
      "inputStream": 7012,
      "##Evaluation": 7013,
      "##Language": 7014,
      "##VERSION": 7015,
      "INSTANCE": 7016,
      "##ogenic": 7017,
      "##Destination": 7018,
      "Match": 7019,
      "##lasticsearch": 7020,
      "##_EX": 7021,
      "##ClassName": 7022,
      "##IT_": 7023,
      "##hs": 7024,
      "[]{": 7025,
      "items": 7026,
      "##by": 7027,
      "createN": 7028,
      "m6": 7029,
      "FIL": 7030,
      "##25": 7031,
      "UserGroupInformation": 7032,
      "getApplication": 7033,
      "##stants": 7034,
      "validator": 7035,
      "equalTo": 7036,
      "##Tasks": 7037,
      ">=": 7038,
      "##</": 7039,
      "##lap": 7040,
      "sql": 7041,
      "##Columns": 7042,
      "clone": 7043,
      "##Down": 7044,
      "VAL": 7045,
      "Queue": 7046,
      "##UI": 7047,
      "##ph": 7048,
      "ChannelHandler": 7049,
      "Activity": 7050,
      "APIURL": 7051,
      "##CHEDUL": 7052,
      "US": 7053,
      "##oan": 7054,
      "COMM": 7055,
      "mockCustomer": 7056,
      "##ueu": 7057,
      "##REQUEST": 7058,
      "##Events": 7059,
      "##eric": 7060,
      "We": 7061,
      "bind": 7062,
      "separator": 7063,
      "##ideo": 7064,
      "##Blocks": 7065,
      "##lection": 7066,
      "##Variables": 7067,
      "].": 7068,
      "##DEFAUL": 7069,
      "##UD": 7070,
      "groupId": 7071,
      "trace": 7072,
      "##alth": 7073,
      "##gon": 7074,
      "##Requests": 7075,
      "LITER": 7076,
      "##IND": 7077,
      "##EntityData": 7078,
      "##Window": 7079,
      "getG": 7080,
      "Mod": 7081,
      "##Visitor": 7082,
      "##tf": 7083,
      "##AsString": 7084,
      "\"{": 7085,
      "##acionDBEntity": 7086,
      "##hr": 7087,
      "##nce": 7088,
      "##utation": 7089,
      "##ommend": 7090,
      "calculate": 7091,
      "##Subscri": 7092,
      "##ENS": 7093,
      "##ocated": 7094,
      "##_m": 7095,
      "##order": 7096,
      "##DD": 7097,
      "##Consts": 7098,
      "email": 7099,
      "##aration": 7100,
      "MockCustomer": 7101,
      "##Actions": 7102,
      "prepare": 7103,
      "##olygon": 7104,
      "##E_B": 7105,
      "Role": 7106,
      "##vision": 7107,
      "##Hosts": 7108,
      "##Interceptor": 7109,
      "##view": 7110,
      "RMWS": 7111,
      "RMWSConsts": 7112,
      "requireNon": 7113,
      "],": 7114,
      "##Period": 7115,
      "len": 7116,
      "ui": 7117,
      "##Core": 7118,
      "e5": 7119,
      "##bligation": 7120,
      "##ific": 7121,
      "##Progress": 7122,
      "Async": 7123,
      "##eners": 7124,
      "##achment": 7125,
      "attributes": 7126,
      "getH": 7127,
      "related": 7128,
      "##urs": 7129,
      "##afka": 7130,
      "##Therapy": 7131,
      "m7": 7132,
      "Dependency": 7133,
      "zRangeByScore": 7134,
      "toJson": 7135,
      "resourceName": 7136,
      "##edi": 7137,
      "Work": 7138,
      "##Entities": 7139,
      "##ground": 7140,
      "ar": 7141,
      "##enter": 7142,
      "##icates": 7143,
      "##yzer": 7144,
      "MIN": 7145,
      "##CR": 7146,
      "Dimension": 7147,
      "##ublish": 7148,
      "operator": 7149,
      "##****": 7150,
      "red": 7151,
      "te": 7152,
      "##roy": 7153,
      "##Site": 7154,
      "##20": 7155,
      "Authentication": 7156,
      "hostname": 7157,
      "##Lower": 7158,
      "\"\";": 7159,
      "T19": 7160,
      "##ories": 7161,
      "##Success": 7162,
      "##Points": 7163,
      "##SIZE": 7164,
      "##ASH": 7165,
      "##henotype": 7166,
      "gen": 7167,
      "dt": 7168,
      "net": 7169,
      "Interface": 7170,
      "##Copy": 7171,
      "##Step": 7172,
      "##ublisher": 7173,
      "##ncy": 7174,
      "##Users": 7175,
      "##Usu": 7176,
      "##Namespace": 7177,
      "##Rows": 7178,
      "Format": 7179,
      "##arg": 7180,
      "##EE": 7181,
      "##PD": 7182,
      "##ANG": 7183,
      "uns": 7184,
      "external": 7185,
      "XMLStreamReader": 7186,
      "##istics": 7187,
      "io": 7188,
      "##ETR": 7189,
      "##100": 7190,
      "##erialization": 7191,
      "19": 7192,
      "Serv": 7193,
      "##Delay": 7194,
      "##KFLOW": 7195,
      "help": 7196,
      "BiFunction": 7197,
      "hsr": 7198,
      "getX": 7199,
      "##OST_": 7200,
      "##).": 7201,
      "scope": 7202,
      "getJob": 7203,
      "##Delegate": 7204,
      "AMImage": 7205,
      "forEach": 7206,
      "where": 7207,
      "Row": 7208,
      "secure": 7209,
      "##sing": 7210,
      "##Inc": 7211,
      "##ExtensionSetting": 7212,
      "but": 7213,
      "##he": 7214,
      "transform": 7215,
      "partition": 7216,
      "##ions": 7217,
      "##ookie": 7218,
      "##ERM": 7219,
      "##board": 7220,
      "FI": 7221,
      "##PORT": 7222,
      "##mark": 7223,
      "##Product": 7224,
      "ldap": 7225,
      "##Memory": 7226,
      "ind": 7227,
      "##etermin": 7228,
      "consumer": 7229,
      "isNull": 7230,
      "kerberos": 7231,
      "##Svc": 7232,
      "Notification": 7233,
      "##IGN": 7234,
      "catalog": 7235,
      "##Comparator": 7236,
      "Null": 7237,
      "##Expected": 7238,
      "ArgumentCaptor": 7239,
      "##apabilities": 7240,
      "##Sync": 7241,
      "##Completed": 7242,
      "ReactMethod": 7243,
      "LDAP": 7244,
      "##_N": 7245,
      "##--------": 7246,
      "EC": 7247,
      "##Download": 7248,
      "##ean": 7249,
      "##ryption": 7250,
      "sim": 7251,
      "##Diff": 7252,
      "FDB": 7253,
      "CH": 7254,
      "e6": 7255,
      "##ASE": 7256,
      "Top": 7257,
      "##Switch": 7258,
      "##Instances": 7259,
      "##_dictionary": 7260,
      "##(?": 7261,
      "requests": 7262,
      "##Tags": 7263,
      "##PTY": 7264,
      "IM": 7265,
      "##istCp": 7266,
      "Print": 7267,
      "up": 7268,
      "EnumSet": 7269,
      "TAG": 7270,
      "download": 7271,
      "organ": 7272,
      "##Rate": 7273,
      "##istic": 7274,
      "##group": 7275,
      "##RIB": 7276,
      "##PS": 7277,
      "##Heartbeat": 7278,
      "edit": 7279,
      "le": 7280,
      "environmentId": 7281,
      "##Mask": 7282,
      "Reservation": 7283,
      "transient": 7284,
      "events": 7285,
      "##ycle": 7286,
      "profile": 7287,
      "m8": 7288,
      "Or": 7289,
      "##ors": 7290,
      "IP": 7291,
      "##aun": 7292,
      "##LOG": 7293,
      "##ux": 7294,
      "##Loop": 7295,
      "ph": 7296,
      "addAll": 7297,
      "##AUT": 7298,
      "##Definitions": 7299,
      "##thm": 7300,
      "CompletionStage": 7301,
      "##vol": 7302,
      "##_CONT": 7303,
      "##Len": 7304,
      "Scan": 7305,
      "##LIN": 7306,
      "##ADD": 7307,
      "##Rpc": 7308,
      "##Flag": 7309,
      "cause": 7310,
      "##Classes": 7311,
      "(-": 7312,
      "AN": 7313,
      "##ummy": 7314,
      "cre": 7315,
      "##AK": 7316,
      "##erve": 7317,
      "##89": 7318,
      "##E_M": 7319,
      "term": 7320,
      "##ACH": 7321,
      "flush": 7322,
      "rece": 7323,
      "##DataProvider": 7324,
      "localhost": 7325,
      "##Ac": 7326,
      "##arity": 7327,
      "##Blank": 7328,
      "##alance": 7329,
      "##preter": 7330,
      "HTTP": 7331,
      "##Parse": 7332,
      "##user": 7333,
      "##cheduling": 7334,
      "##Zero": 7335,
      "##ivid": 7336,
      "##Style": 7337,
      "responses": 7338,
      "##orrect": 7339,
      "##VALU": 7340,
      "\\\",\\": 7341,
      "All": 7342,
      "##iceMock": 7343,
      "##Seconds": 7344,
      "##Completion": 7345,
      "Flow": 7346,
      "attempt": 7347,
      "dao": 7348,
      "##rop": 7349,
      "\\\"><": 7350,
      "##==": 7351,
      "cons": 7352,
      "ResultSet": 7353,
      "##We": 7354,
      "Presenter": 7355,
      "2001": 7356,
      "evaluate": 7357,
      "COM": 7358,
      "createNiceMock": 7359,
      "##vided": 7360,
      "##_f": 7361,
      "##clus": 7362,
      "util": 7363,
      "##Owner": 7364,
      "##SP": 7365,
      "indexOf": 7366,
      "mp": 7367,
      "##Schedule": 7368,
      "##RED": 7369,
      "NAME": 7370,
      "secret": 7371,
      "Batch": 7372,
      "##Experiment": 7373,
      "##Month": 7374,
      "under": 7375,
      "##ump": 7376,
      "Bit": 7377,
      "v1": 7378,
      "##ResourceProvider": 7379,
      "ms": 7380,
      "workflowInstance": 7381,
      "##Tracer": 7382,
      "folder": 7383,
      "mockM": 7384,
      "##ividual": 7385,
      "##ens": 7386,
      "##DEF": 7387,
      "PROPERTY_": 7388,
      "##legation": 7389,
      "allowed": 7390,
      "##STAT": 7391,
      "##LENGTH": 7392,
      "##we": 7393,
      "credentials": 7394,
      "##Annotations": 7395,
      "##ges": 7396,
      "props": 7397,
      "database": 7398,
      "##Save": 7399,
      "##21": 7400,
      "need": 7401,
      "##pat": 7402,
      "##PTY_": 7403,
      "OIDC": 7404,
      "##ferenc": 7405,
      "destKey": 7406,
      "##ClassDao": 7407,
      "ignore": 7408,
      "duration": 7409,
      "##Writable": 7410,
      "##Consent": 7411,
      "##oring": 7412,
      "##ally": 7413,
      "Future": 7414,
      "AppRole": 7415,
      "place": 7416,
      "Consent": 7417,
      "##Closed": 7418,
      "##arshaller": 7419,
      "##erialize": 7420,
      "##odo": 7421,
      "m9": 7422,
      "##Close": 7423,
      "##Duration": 7424,
      "e7": 7425,
      "##aces": 7426,
      "toArray": 7427,
      "##ifest": 7428,
      "##StateException": 7429,
      "##RIBUT": 7430,
      "60": 7431,
      "Coin": 7432,
      "DistCp": 7433,
      "module": 7434,
      "##CS": 7435,
      "##Ip": 7436,
      "datas": 7437,
      "##Observer": 7438,
      "##anifest": 7439,
      "##PTION_": 7440,
      "##ECT_": 7441,
      "randomUUID": 7442,
      "_get": 7443,
      ">>();": 7444,
      "##duct": 7445,
      "##ixed": 7446,
      "switch": 7447,
      "##Use": 7448,
      "submit": 7449,
      "##ER_NAME": 7450,
      "##Checker": 7451,
      "yarn": 7452,
      "##aptive": 7453,
      "##GR": 7454,
      "##iate": 7455,
      "##ICE": 7456,
      "details": 7457,
      "hive": 7458,
      "exit": 7459,
      "applicationName": 7460,
      "topology": 7461,
      "##Sink": 7462,
      "##Stmt": 7463,
      "##Help": 7464,
      "##AuthService": 7465,
      "##ES_": 7466,
      "##late": 7467,
      "##ogenicity": 7468,
      "ApiConfig": 7469,
      "grid": 7470,
      "##}\");": 7471,
      "##FILE": 7472,
      "EasyMock": 7473,
      "##Unique": 7474,
      "schedule": 7475,
      "getVersion": 7476,
      "JsonInclude": 7477,
      "Internal": 7478,
      "vXGroup": 7479,
      "three": 7480,
      "##icle": 7481,
      "ER": 7482,
      "##lict": 7483,
      "shared": 7484,
      "##SearchTerm": 7485,
      "##Inputs": 7486,
      "JsonObject": 7487,
      "Cli": 7488,
      "html": 7489,
      "##Red": 7490,
      "##Negative": 7491,
      "connect": 7492,
      "m10": 7493,
      "##Title": 7494,
      "oidc": 7495,
      "##END": 7496,
      "##IR": 7497,
      "##acet": 7498,
      "CS": 7499,
      "##iration": 7500,
      "getNum": 7501,
      "Copy": 7502,
      "##pi": 7503,
      "##position": 7504,
      "getLocal": 7505,
      "##ER_C": 7506,
      "READ_": 7507,
      "##ToString": 7508,
      "##Threshold": 7509,
      "hasNext": 7510,
      "##Extractor": 7511,
      "e8": 7512,
      "network": 7513,
      "##Push": 7514,
      "##Methods": 7515,
      "radius": 7516,
      "##T_FOUND": 7517,
      "Template": 7518,
      "##ASE_": 7519,
      "##ELD_": 7520,
      "##FeedItem": 7521,
      "##aunch": 7522,
      "global": 7523,
      "##ngr": 7524,
      "currentTime": 7525,
      "proposal": 7526,
      "export": 7527,
      "##Anal": 7528,
      "##Binding": 7529,
      "##omodo": 7530,
      "getContent": 7531,
      "##HashSet": 7532,
      "Level": 7533,
      "NodeValue": 7534,
      "##Edge": 7535,
      "##icker": 7536,
      "##Post": 7537,
      "##Off": 7538,
      "##OO": 7539,
      "DB": 7540,
      "getHttp": 7541,
      "comparator": 7542,
      "nodeId": 7543,
      "##urch": 7544,
      "+=": 7545,
      "##LocalService": 7546,
      "##gorithm": 7547,
      "gene": 7548,
      "filename": 7549,
      "##FORM": 7550,
      "getProperties": 7551,
      "##vok": 7552,
      "anyString": 7553,
      "##amples": 7554,
      "##ABL": 7555,
      "##Assert": 7556,
      "##Signature": 7557,
      "IllegalStateException": 7558,
      "Mode": 7559,
      "observer": 7560,
      "##oud": 7561,
      "charset": 7562,
      "Multi": 7563,
      "##otal": 7564,
      "getJSON": 7565,
      "(\"{": 7566,
      "My": 7567,
      "same": 7568,
      "##STRING": 7569,
      "##ving": 7570,
      "been": 7571,
      "##UND": 7572,
      "appRole": 7573,
      "escape": 7574,
      "Source": 7575,
      "##uted": 7576,
      "ToInt": 7577,
      "##Gen": 7578,
      "already": 7579,
      "##When": 7580,
      "UTF": 7581,
      "\")));": 7582,
      "##CF": 7583,
      "flags": 7584,
      "##Inf": 7585,
      "https": 7586,
      "##Encoding": 7587,
      "active": 7588,
      "initialize": 7589,
      "Back": 7590,
      "Failed": 7591,
      "pass": 7592,
      "Apply": 7593,
      "enable": 7594,
      "##EB": 7595,
      "##Network": 7596,
      "requested": 7597,
      "getLast": 7598,
      "##gister": 7599,
      "##IgnoreCase": 7600,
      "##Represent": 7601,
      "Target": 7602,
      "##EAR": 7603,
      "Generic": 7604,
      "LOC": 7605,
      "sum": 7606,
      "\\\":[": 7607,
      "##NotFoundException": 7608,
      "##RESOURCE": 7609,
      "##Finder": 7610,
      "activ": 7611,
      "day": 7612,
      "30": 7613,
      "Patient": 7614,
      "Widget": 7615,
      "Komodo": 7616,
      "##Invalid": 7617,
      "##ServiceClient": 7618,
      "##V2": 7619,
      "ModelNode": 7620,
      "ServiceComponent": 7621,
      "IS": 7622,
      "perform": 7623,
      "##Symbol": 7624,
      "##ynt": 7625,
      "##cf": 7626,
      "##Pointer": 7627,
      "Gene": 7628,
      "##pted": 7629,
      "dfs": 7630,
      "##SET": 7631,
      "##35": 7632,
      "##Split": 7633,
      "##rate": 7634,
      "##ECONDS": 7635,
      "##Failed": 7636,
      "##87": 7637,
      "xUser": 7638,
      "sequence": 7639,
      "##andlers": 7640,
      "##Origin": 7641,
      "##UFF": 7642,
      "##Paths": 7643,
      "classes": 7644,
      "converter": 7645,
      "##000000": 7646,
      "##AD_REQUEST": 7647,
      "WOR": 7648,
      "##Mark": 7649,
      "##Do": 7650,
      "release": 7651,
      "##portun": 7652,
      "##Else": 7653,
      "##ane": 7654,
      "Sample": 7655,
      "repo": 7656,
      "##AGE_": 7657,
      "Blueprint": 7658,
      "##ware": 7659,
      "##anding": 7660,
      "##outing": 7661,
      "##ivate": 7662,
      "##Usuario": 7663,
      "##Chunk": 7664,
      "PathVariable": 7665,
      "m11": 7666,
      "##DDMForm": 7667,
      "##andidate": 7668,
      "##Optional": 7669,
      "w3": 7670,
      "##NAME_": 7671,
      "##Envelope": 7672,
      "Servlet": 7673,
      "bot": 7674,
      "##Started": 7675,
      "##uring": 7676,
      "##UC": 7677,
      "Unsupported": 7678,
      "Net": 7679,
      "##Database": 7680,
      "jdbc": 7681,
      "##uded": 7682,
      "##ogram": 7683,
      "##Direct": 7684,
      "##COM": 7685,
      "pair": 7686,
      "##IVE": 7687,
      "##_PROPERTY": 7688,
      "##Simple": 7689,
      "##Updaters": 7690,
      "seconds": 7691,
      "##bound": 7692,
      "##_H": 7693,
      "##idden": 7694,
      "##Modifier": 7695,
      "arguments": 7696,
      "getCluster": 7697,
      "##COR": 7698,
      "className": 7699,
      "##bsolutePath": 7700,
      "simple": 7701,
      "##_2": 7702,
      "EMPTY_": 7703,
      "##DEL": 7704,
      "##QP": 7705,
      "VERS": 7706,
      "Account": 7707,
      "entrySet": 7708,
      "Delete": 7709,
      "tokens": 7710,
      "##gments": 7711,
      "##Fragment": 7712,
      "getConfig": 7713,
      "Utils": 7714,
      "##cluded": 7715,
      "Requ": 7716,
      "##TOK": 7717,
      "SSLCertificate": 7718,
      "form": 7719,
      "##Alias": 7720,
      "##aded": 7721,
      "##Bind": 7722,
      "##ma": 7723,
      "##holder": 7724,
      "##Monitor": 7725,
      "##Stop": 7726,
      "zip": 7727,
      "Process": 7728,
      "PARAM": 7729,
      "FactRecord": 7730,
      "guid": 7731,
      "owner": 7732,
      "##EventType": 7733,
      "##ULT": 7734,
      "assign": 7735,
      "(\"{\\\"": 7736,
      "##ructure": 7737,
      "##))": 7738,
      "ver": 7739,
      "13": 7740,
      "##E6": 7741,
      "##Dock": 7742,
      "##DOM": 7743,
      "criterion": 7744,
      "Origin": 7745,
      "##_CON": 7746,
      "##Bar": 7747,
      "Socket": 7748,
      "getChild": 7749,
      "JSONUtil": 7750,
      "##27": 7751,
      "##APP": 7752,
      "##Packet": 7753,
      "##Artifact": 7754,
      "Rect": 7755,
      "Span": 7756,
      "##imeType": 7757,
      "##ANS": 7758,
      "ApplicationId": 7759,
      "##ful": 7760,
      "##Listeners": 7761,
      "##usiness": 7762,
      "##Ident": 7763,
      "##igest": 7764,
      "ConcurrentHashMap": 7765,
      "streamId": 7766,
      "(\"<": 7767,
      "LinkedList": 7768,
      "##GB": 7769,
      "##ORT_": 7770,
      "##enticate": 7771,
      "##legationToken": 7772,
      "Operator": 7773,
      "##ully": 7774,
      "\\\"/": 7775,
      "##ARI": 7776,
      "##S_S": 7777,
      "##ACK_": 7778,
      "##jo": 7779,
      "##notated": 7780,
      "hosts": 7781,
      "##IVE_": 7782,
      "campaign": 7783,
      "zRevRangeByScore": 7784,
      "##istogram": 7785,
      ")),": 7786,
      "single": 7787,
      "##Declaration": 7788,
      "##([": 7789,
      "##raction": 7790,
      "##UserData": 7791,
      "\"\",": 7792,
      "##ampling": 7793,
      "Callback": 7794,
      "##atures": 7795,
      "##obile": 7796,
      "ImmutableList": 7797,
      "New": 7798,
      "KEY_": 7799,
      "##ExtensionSettingService": 7800,
      "Bu": 7801,
      "e9": 7802,
      "##idad": 7803,
      "##AT_": 7804,
      "toTuple": 7805,
      "##idence": 7806,
      "##eries": 7807,
      "##AX_": 7808,
      "##used": 7809,
      "##PlacementViewService": 7810,
      "pack": 7811,
      "##Calculator": 7812,
      "div": 7813,
      "MockM": 7814,
      "clusters": 7815,
      "serialize": 7816,
      "##Effect": 7817,
      "RedisClusterNode": 7818,
      "##oogleAds": 7819,
      "feed": 7820,
      "setProperty": 7821,
      "##Runner": 7822,
      "##_in": 7823,
      "##asure": 7824,
      "##Interest": 7825,
      "##MapperImpl": 7826,
      "Part": 7827,
      "##UDoc": 7828,
      "##ires": 7829,
      "AtomicInteger": 7830,
      "##ability": 7831,
      "##Errors": 7832,
      "Organization": 7833,
      "nodes": 7834,
      "##Card": 7835,
      "##TOKEN": 7836,
      "criterionId": 7837,
      "##AY_": 7838,
      "dependency": 7839,
      "##atform": 7840,
      "##SimulationService": 7841,
      "ChannelHandlerContext": 7842,
      "##Det": 7843,
      "##DTO": 7844,
      "##FileStatus": 7845,
      "##ACL": 7846,
      "ttl": 7847,
      "DefaultValue": 7848,
      "getSh": 7849,
      "##Click": 7850,
      "Docker": 7851,
      "##OF": 7852,
      "##lack": 7853,
      "Mono": 7854,
      "changed": 7855,
      "##volving": 7856,
      "##SearchTermViewService": 7857,
      "##Arguments": 7858,
      "setId": 7859,
      "##racle": 7860,
      "Callable": 7861,
      "feature": 7862,
      "##pro": 7863,
      "##Print": 7864,
      "protocol": 7865,
      "##iler": 7866,
      "ENT": 7867,
      "REQUEST_": 7868,
      "userToken": 7869,
      "rename": 7870,
      "compute": 7871,
      "getContainer": 7872,
      "Coap": 7873,
      "##Mngr": 7874,
      "##olume": 7875,
      "\",\"": 7876,
      "<?,": 7877,
      "off": 7878,
      "unm": 7879,
      "##LowerCase": 7880,
      "getResponse": 7881,
      "##Than": 7882,
      "##Subject": 7883,
      "definition": 7884,
      "##Attr": 7885,
      "kv": 7886,
      "##Separator": 7887,
      "MutableTuple": 7888,
      "principal": 7889,
      "##oded": 7890,
      "mockKeywordPlan": 7891,
      "##Handle": 7892,
      "Op": 7893,
      "##Cert": 7894,
      "##Tr": 7895,
      "##ournal": 7896,
      "svcAcc": 7897,
      "flatMap": 7898,
      "fw": 7899,
      "##NECT": 7900,
      "##57": 7901,
      "##Vertex": 7902,
      "##AF": 7903,
      "##oom": 7904,
      "##eep": 7905,
      "contentType": 7906,
      "Image": 7907,
      "##Associ": 7908,
      "m12": 7909,
      "##arge": 7910,
      "##Quota": 7911,
      "##formance": 7912,
      "Tracing": 7913,
      "##Observation": 7914,
      "Consumes": 7915,
      "##ARN": 7916,
      "History": 7917,
      "##67": 7918,
      "Line": 7919,
      "##08": 7920,
      "LITERAL_": 7921,
      "##Coin": 7922,
      "async": 7923,
      "##Consult": 7924,
      "findAll": 7925,
      "##Records": 7926,
      "contract": 7927,
      "[]>>": 7928,
      "injector": 7929,
      "ERROR": 7930,
      "DDM": 7931,
      "Form": 7932,
      "Java": 7933,
      "dimension": 7934,
      "##110": 7935,
      "##KEY_": 7936,
      "bound": 7937,
      "##Me": 7938,
      "\\\"}": 7939,
      "##pes": 7940,
      "##clusive": 7941,
      "available": 7942,
      "##dir": 7943,
      "\"'": 7944,
      "##Used": 7945,
      "returnType": 7946,
      "##pth": 7947,
      "MockKeywordPlan": 7948,
      "##Modeller": 7949,
      "Rectangle": 7950,
      "##_PARAM": 7951,
      "responseEntity": 7952,
      "##doc": 7953,
      "ReadOnlyVector": 7954,
      "Ti": 7955,
      "##Reason": 7956,
      "++;": 7957,
      "##Simil": 7958,
      "abc": 7959,
      "##ABLED": 7960,
      "##status": 7961,
      "getObject": 7962,
      "uuid": 7963,
      "##urrency": 7964,
      "XMLSchema": 7965,
      "Contract": 7966,
      "##FieldValue": 7967,
      "##ExecutorService": 7968,
      "##Vault": 7969,
      "##Visible": 7970,
      "compareTo": 7971,
      "BufferedImage": 7972,
      "{\\": 7973,
      "types": 7974,
      "Certificate": 7975,
      "##ORY_": 7976,
      "fromJson": 7977,
      "##EXT_": 7978,
      "registry": 7979,
      "##GEX": 7980,
      "Order": 7981,
      "##rupted": 7982,
      "##_PERM": 7983,
      "##Lex": 7984,
      "##dr": 7985,
      "Short": 7986,
      "##plica": 7987,
      "T20": 7988,
      "Post": 7989,
      "ToLong": 7990,
      "##elfSupport": 7991,
      "##Before": 7992,
      "##Private": 7993,
      "four": 7994,
      "ClassLoader": 7995,
      "##ILLIS": 7996,
      "startTime": 7997,
      "organization": 7998,
      "##Organization": 7999,
      "##Analysis": 8000,
      "Coordinate": 8001,
      "##DataSource": 8002,
      "##mbed": 8003,
      "Reader": 8004,
      "getText": 8005,
      "##embl": 8006,
      "##Modified": 8007,
      "lookup": 8008,
      "opt": 8009,
      "##Instal": 8010,
      "##Assignment": 8011,
      "##lim": 8012,
      "reason": 8013,
      "##erializable": 8014,
      "Feature": 8015,
      "##hing": 8016,
      "##Without": 8017,
      "##enuItem": 8018,
      "End": 8019,
      "sync": 8020,
      "##atory": 8021,
      "Scheduled": 8022,
      "##ATA_": 8023,
      "ExecutorService": 8024,
      "##izUtil": 8025,
      "##ListDictionary": 8026,
      "cancel": 8027,
      "SERVICE_": 8028,
      "FAIL": 8029,
      "alloc": 8030,
      "By": 8031,
      "PATH": 8032,
      "setM": 8033,
      "##Remote": 8034,
      "##DR": 8035,
      "arg1": 8036,
      "Writer": 8037,
      "Report": 8038,
      "rs": 8039,
      "##ATCH": 8040,
      "##ilters": 8041,
      "MESSAGE": 8042,
      "##yntax": 8043,
      "##Lat": 8044,
      "getParent": 8045,
      "##key": 8046,
      "##viders": 8047,
      "##trict": 8048,
      "Constants": 8049,
      "subscri": 8050,
      "##Tokens": 8051,
      "vXUser": 8052,
      "##_PATTERN": 8053,
      "##auge": 8054,
      "upload": 8055,
      "internal": 8056,
      "never": 8057,
      "##ading": 8058,
      "##essaging": 8059,
      "e10": 8060,
      "returnDescription": 8061,
      "RestQuery": 8062,
      "##Sender": 8063,
      "##VersionUID": 8064,
      "encoding": 8065,
      "##HexString": 8066,
      "month": 8067,
      "##Right": 8068,
      "Aud": 8069,
      "##Intent": 8070,
      "##Apps": 8071,
      "<=": 8072,
      "##lator": 8073,
      "getEntity": 8074,
      "login": 8075,
      "serialVersionUID": 8076,
      "##conf": 8077,
      "##ueues": 8078,
      "PropertyHelper": 8079,
      "##Popup": 8080,
      "more": 8081,
      "reqProcessor": 8082,
      "##HOLD": 8083,
      "ContainerId": 8084,
      "remaining": 8085,
      "##95": 8086,
      "Func0": 8087,
      "getConfiguration": 8088,
      "##ER_ID": 8089,
      "RangerServiceDef": 8090,
      "##ARATOR": 8091,
      "##ASS_": 8092,
      "jobId": 8093,
      "Bucket": 8094,
      "Retry": 8095,
      "##Tab": 8096,
      "##Html": 8097,
      "getPri": 8098,
      "Rel": 8099,
      "##conds": 8100,
      "returned": 8101,
      "##rpc": 8102,
      "getClient": 8103,
      "Provider": 8104,
      "Sort": 8105,
      "window": 8106,
      "##Supported": 8107,
      "svcAccName": 8108,
      "gml": 8109,
      "getAttribute": 8110,
      "adGroupId": 8111,
      "descriptor": 8112,
      "##yc": 8113,
      "Kerberos": 8114,
      "Stat": 8115,
      "##Bounds": 8116,
      "##tos": 8117,
      "##UDI": 8118,
      "##Datatype": 8119,
      "##use": 8120,
      "FunctionResolver": 8121,
      "rh": 8122,
      "##IEW": 8123,
      "(\"[": 8124,
      "##REAM": 8125,
      "##Distance": 8126,
      "##Dependencies": 8127,
      "equalsIgnoreCase": 8128,
      "##LOCK": 8129,
      "##AWS": 8130,
      "##Ranger": 8131,
      "regex": 8132,
      "##Opt": 8133,
      "##Username": 8134,
      "there": 8135,
      "##FileSystem": 8136,
      "##HEADER_": 8137,
      "Port": 8138,
      "Translation": 8139,
      "move": 8140,
      "##_w": 8141,
      "TagREST": 8142,
      "##icroService": 8143,
      "title": 8144,
      "policyData": 8145,
      "##Uuid": 8146,
      "delta": 8147,
      "##A6": 8148,
      "##rypto": 8149,
      "tableName": 8150,
      "bb": 8151,
      "Standard": 8152,
      "##RAM": 8153,
      "##erson": 8154,
      "##Opportun": 8155,
      "JOB": 8156,
      "google": 8157,
      "redu": 8158,
      "##ont": 8159,
      "##overage": 8160,
      "##uit": 8161,
      "cannot": 8162,
      "support": 8163,
      "stackName": 8164,
      "TIM": 8165,
      "push": 8166,
      "##ism": 8167,
      "delimiter": 8168,
      "TVault": 8169,
      "##Renderer": 8170,
      "Private": 8171,
      "##_PROPERTY_ID": 8172,
      "##Leg": 8173,
      "arch": 8174,
      "than": 8175,
      "##VER": 8176,
      "##MenuItem": 8177,
      "missing": 8178,
      "##Layer": 8179,
      "##4j": 8180,
      "##eta": 8181,
      "Incl": 8182,
      "##sRequest": 8183,
      "mapTo": 8184,
      "sorted": 8185,
      "##Setup": 8186,
      "##ORY": 8187,
      "##Authenticator": 8188,
      "##Transform": 8189,
      "cursor": 8190,
      "##FO": 8191,
      "\\\"]": 8192,
      "##Weight": 8193,
      "QU": 8194,
      "calendar": 8195,
      "##Connect": 8196,
      "arg2": 8197,
      "##ection": 8198,
      "##olling": 8199,
      "Settings": 8200,
      "##CHEM": 8201,
      "ApiParam": 8202,
      "##DEFAULT": 8203,
      "Mutate": 8204,
      "Cert": 8205,
      "##sd": 8206,
      "##types": 8207,
      "##ongo": 8208,
      "HttpHeaders": 8209,
      "Determin": 8210,
      "##37": 8211,
      "##Bidding": 8212,
      "##pings": 8213,
      "##Deposit": 8214,
      "##Serie": 8215,
      "##cast": 8216,
      "##Hostname": 8217,
      "##Documento": 8218,
      "##GROUP_": 8219,
      "##ursive": 8220,
      "##patial": 8221,
      "scale": 8222,
      "ag": 8223,
      "variable": 8224,
      "##()": 8225,
      "getView": 8226,
      "##ErrorUtil": 8227,
      "##ases": 8228,
      "##CONT": 8229,
      "responseString": 8230,
      "transfer": 8231,
      "##Exceptions": 8232,
      "Controller": 8233,
      "kvp": 8234,
      "Database": 8235,
      "##FactType": 8236,
      "##Flags": 8237,
      "##Scenario": 8238,
      "resp": 8239,
      "getTask": 8240,
      "##ierarch": 8241,
      "##Random": 8242,
      "##ivel": 8243,
      "##inical": 8244,
      "enum": 8245,
      "HOST": 8246,
      "##IENT_": 8247,
      "##dp": 8248,
      "##ART_": 8249,
      "##Area": 8250,
      "Names": 8251,
      "##Driver": 8252,
      "Priority": 8253,
      "Single": 8254,
      "det": 8255,
      "##udes": 8256,
      "messages": 8257,
      "##_CONFIG": 8258,
      "GeoLocation": 8259,
      "Sorted": 8260,
      "presenter": 8261,
      "##adding": 8262,
      "m13": 8263,
      "Bigtable": 8264,
      "##IFIER": 8265,
      "ModeOfInheritance": 8266,
      "##Ring": 8267,
      "getSec": 8268,
      "Injector": 8269,
      "##Deserializer": 8270,
      "ma": 8271,
      "##acters": 8272,
      ",\"": 8273,
      "##Left": 8274,
      "##READ": 8275,
      "Unable": 8276,
      "LocalDate": 8277,
      "){": 8278,
      "finish": 8279,
      "##AMPLE_": 8280,
      "##Equal": 8281,
      "##orit": 8282,
      "##Common": 8283,
      "##ivo": 8284,
      "##_CH": 8285,
      "##AUTH": 8286,
      "MetricName": 8287,
      "topic": 8288,
      "ALL": 8289,
      "fieldName": 8290,
      "}/{": 8291,
      "##Family": 8292,
      "##30": 8293,
      "clusterName": 8294,
      "e11": 8295,
      "##da": 8296,
      "##AA": 8297,
      "RequestBody": 8298,
      "##Privilege": 8299,
      "##patch": 8300,
      "##IO": 8301,
      "operations": 8302,
      "persist": 8303,
      "##Principal": 8304,
      "RunState": 8305,
      "xGroup": 8306,
      "##ograph": 8307,
      "##TypeInfo": 8308,
      "Gen": 8309,
      "##ose": 8310,
      "##456": 8311,
      "\\\"/>": 8312,
      "sp": 8313,
      "Place": 8314,
      "cs": 8315,
      "##BC": 8316,
      "Listener": 8317,
      "##anned": 8318,
      "Description": 8319,
      "##idd": 8320,
      "HTML": 8321,
      "##TABLE": 8322,
      "##ital": 8323,
      "SC_OK": 8324,
      "##F4": 8325,
      "Sequence": 8326,
      "Options": 8327,
      "45": 8328,
      "##TRY_": 8329,
      "Limit": 8330,
      "ge": 8331,
      "##DFS": 8332,
      "##FL": 8333,
      "##RoleCommand": 8334,
      "##PONENT_": 8335,
      "Credentials": 8336,
      "SC_NO": 8337,
      "##olr": 8338,
      "##ivery": 8339,
      "SQL": 8340,
      "##Shape": 8341,
      "CRE": 8342,
      "##Flavor": 8343,
      "##.*": 8344,
      "##Allocation": 8345,
      "##rows": 8346,
      "##ssible": 8347,
      "WORKFLOW": 8348,
      "dif": 8349,
      "##Repo": 8350,
      "width": 8351,
      "DimensionInfo": 8352,
      "##iddle": 8353,
      "##HostInfo": 8354,
      "func": 8355,
      "##layer": 8356,
      "Rpc": 8357,
      "##PT_": 8358,
      "nn": 8359,
      "Inst": 8360,
      "##784": 8361,
      "##Singleton": 8362,
      "##Picker": 8363,
      "##DimensionInfo": 8364,
      "##WN": 8365,
      "##rev": 8366,
      "invoke": 8367,
      "##OUNT_": 8368,
      "##ross": 8369,
      "##LineString": 8370,
      "fragment": 8371,
      "##nector": 8372,
      "##ALSE": 8373,
      "Unary": 8374,
      "##ISSION": 8375,
      "##limin": 8376,
      "##TE": 8377,
      "Opt": 8378,
      "display": 8379,
      "txt": 8380,
      "##Scale": 8381,
      "##_KEY": 8382,
      "##crBy": 8383,
      "##Kind": 8384,
      "##Scan": 8385,
      "##Union": 8386,
      "##DebugEnabled": 8387,
      "##ites": 8388,
      "##OURCE_": 8389,
      "##tab": 8390,
      "##88": 8391,
      "Comp": 8392,
      "##Sha": 8393,
      "##Reservation": 8394,
      "modify": 8395,
      "##Credentials": 8396,
      "resolved": 8397,
      "##manager": 8398,
      "##esa": 8399,
      "hg": 8400,
      "##ESS_": 8401,
      "XUser": 8402,
      "##Addr": 8403,
      "elements": 8404,
      "\\\":[\\\"": 8405,
      "##Aggreg": 8406,
      "increment": 8407,
      "Subject": 8408,
      "##Lookup": 8409,
      "##Disc": 8410,
      "##ultim": 8411,
      "DataSource": 8412,
      "##ServiceDef": 8413,
      "##OrNull": 8414,
      "Permission": 8415,
      "priority": 8416,
      "getAs": 8417,
      "anyTimes": 8418,
      "charAt": 8419,
      "##CON": 8420,
      "##just": 8421,
      "capacity": 8422,
      "sm": 8423,
      "timeline": 8424,
      "##Complete": 8425,
      "##enance": 8426,
      "##NAMES": 8427,
      "##illise": 8428,
      "##VERSION_": 8429,
      "##BidModifier": 8430,
      "currentTimeMillis": 8431,
      "getPolicy": 8432,
      "##oped": 8433,
      "constructor": 8434,
      "ByteArrayOutputStream": 8435,
      "##Watch": 8436,
      "##iform": 8437,
      "##ugg": 8438,
      "getGroup": 8439,
      "##itions": 8440,
      "binding": 8441,
      "##MM": 8442,
      "##mbedded": 8443,
      "##Rel": 8444,
      "Composite": 8445,
      "<<": 8446,
      "getRequest": 8447,
      "isDebugEnabled": 8448,
      "zone": 8449,
      "##leep": 8450,
      "##97": 8451,
      "ENTITY": 8452,
      "acc": 8453,
      "##sation": 8454,
      "getStack": 8455,
      "##teps": 8456,
      "##Volume": 8457,
      "##HEADER": 8458,
      "cur": 8459,
      "records": 8460,
      "##azy": 8461,
      "##yped": 8462,
      "tenant": 8463,
      "REST": 8464,
      "activity": 8465,
      "##HttpClient": 8466,
      "##Statistics": 8467,
      "##eeper": 8468,
      "##JECT_": 8469,
      "##Router": 8470,
      "getAbsolutePath": 8471,
      "##ommendation": 8472,
      "getInt": 8473,
      "##izard": 8474,
      "##allel": 8475,
      "nm": 8476,
      "##Rules": 8477,
      "road": 8478,
      "clock": 8479,
      "Section": 8480,
      "capture": 8481,
      "Meta": 8482,
      "duplicate": 8483,
      "##_W": 8484,
      "Objects": 8485,
      "##paces": 8486,
      "##ultimap": 8487,
      "supplier": 8488,
      "##sBy": 8489,
      "Const": 8490,
      "##Submission": 8491,
      "(\"-": 8492,
      "##otel": 8493,
      "tuple": 8494,
      "rawtypes": 8495,
      "##ird": 8496,
      "##RIG": 8497,
      "language": 8498,
      "getSimple": 8499,
      "_dd": 8500,
      "##ResourceType": 8501,
      "\"[": 8502,
      "IT": 8503,
      "cf": 8504,
      "##Zip": 8505,
      "EntityManager": 8506,
      "--": 8507,
      "##Any": 8508,
      "occ": 8509,
      "getEvent": 8510,
      "ON": 8511,
      "configTypes": 8512,
      "\\\"\"": 8513,
      "##etwe": 8514,
      "##Filters": 8515,
      "##OWN": 8516,
      "##etween": 8517,
      "##avig": 8518,
      "TVaultConstants": 8519,
      "##lac": 8520,
      "ECKey": 8521,
      "##ERO": 8522,
      "##andidates": 8523,
      "##jection": 8524,
      "##andingPage": 8525,
      "WX": 8526,
      "##ServletRequest": 8527,
      "##dc": 8528,
      "##ARD": 8529,
      "##Removed": 8530,
      "##ASSWOR": 8531,
      ".\";": 8532,
      "##Ree": 8533,
      "ok": 8534,
      "##スト": 8535,
      "##Func": 8536,
      "_ddm": 8537,
      "##ether": 8538,
      "workspace": 8539,
      "##aintenance": 8540,
      "0L": 8541,
      "##IAM": 8542,
      "##OperationException": 8543,
      "FactType": 8544,
      "trust": 8545,
      "##urus": 8546,
      "##ACC": 8547,
      "LinkedHashMap": 8548,
      "ACTION": 8549,
      "##USER_": 8550,
      "Statement": 8551,
      "##box": 8552,
      "##tf8": 8553,
      "0f": 8554,
      "##Known": 8555,
      "##Primitive": 8556,
      "orElse": 8557,
      "word": 8558,
      ".\\": 8559,
      "##OUT_": 8560,
      "region": 8561,
      "e12": 8562,
      "##Performance": 8563,
      "##ker": 8564,
      "##ublin": 8565,
      "bl": 8566,
      "entries": 8567,
      "##Ldap": 8568,
      "##aku": 8569,
      "##TERVAL": 8570,
      "##AssetService": 8571,
      "##andra": 8572,
      "Variable": 8573,
      "Rob": 8574,
      "##Existing": 8575,
      "##mn": 8576,
      "counter": 8577,
      "Obligation": 8578,
      "getHeader": 8579,
      "resultSet": 8580,
      "##NAME_P": 8581,
      "Admin": 8582,
      "ACC": 8583,
      "##ward": 8584,
      "##)?": 8585,
      "##assandra": 8586,
      "clusterConfig": 8587,
      "=\"/": 8588,
      "##Udoc": 8589,
      "##Docks": 8590,
      "##ARD_": 8591,
      "##MetaInfo": 8592,
      "##Redis": 8593,
      "Handler": 8594,
      "br": 8595,
      "assertNot": 8596,
      "##ildcard": 8597,
      "##Placeholder": 8598,
      "em": 8599,
      "IntStream": 8600,
      "##romos": 8601,
      "##STOR": 8602,
      "RequestParam": 8603,
      "##Should": 8604,
      "##DateFormat": 8605,
      "##CA": 8606,
      "##ENABLED": 8607,
      "##OptionSwitch": 8608,
      "DistCpOptionSwitch": 8609,
      "##ven": 8610,
      "TransactionStatus": 8611,
      "err": 8612,
      "##Evaluator": 8613,
      "##imator": 8614,
      "TransactionToken": 8615,
      "##ike": 8616,
      "##arb": 8617,
      "Start": 8618,
      "caller": 8619,
      "metaData": 8620,
      "Offset": 8621,
      "Parameterized": 8622,
      "##esaurus": 8623,
      "big": 8624,
      "hex": 8625,
      "expResult": 8626,
      "patientId": 8627,
      "Bean": 8628,
      "##_CL": 8629,
      "m14": 8630,
      "##tended": 8631,
      "getLong": 8632,
      "##TIMEOUT": 8633,
      "high": 8634,
      "adapter": 8635,
      "##THRES": 8636,
      "exceptionConstructor": 8637,
      "##bin": 8638,
      "##Join": 8639,
      "##_SIZE": 8640,
      "##plement": 8641,
      "Listen": 8642,
      "##AND_": 8643,
      "##Producer": 8644,
      "##Seq": 8645,
      "##ElementFactory": 8646,
      "configType": 8647,
      "JsonIgnore": 8648,
      "##SharedSet": 8649,
      "50": 8650,
      "##Pay": 8651,
      "##Pipeline": 8652,
      "##Ret": 8653,
      "##IAL": 8654,
      "##Word": 8655,
      "##Rem": 8656,
      "score": 8657,
      "auto": 8658,
      "Transform": 8659,
      "##SecurityZone": 8660,
      "##Ab": 8661,
      "##Binary": 8662,
      "toList": 8663,
      "inOrder": 8664,
      "##WorkflowInstance": 8665,
      "##ueries": 8666,
      "roll": 8667,
      "##a256": 8668,
      "##Register": 8669,
      "##YTES": 8670,
      "##Big": 8671,
      "##Prop": 8672,
      "##Desc": 8673,
      "##irc": 8674,
      "MAX_VALUE": 8675,
      "normalize": 8676,
      "##Association": 8677,
      "##Has": 8678,
      "##Scanner": 8679,
      "getTag": 8680,
      "Helm": 8681,
      "'\"": 8682,
      "##Responses": 8683,
      "keyword": 8684,
      "##Configurations": 8685,
      "##Such": 8686,
      "##vestment": 8687,
      "retri": 8688,
      "##uce": 8689,
      "##Submit": 8690,
      "me": 8691,
      "rpc": 8692,
      "##Center": 8693,
      "##andatory": 8694,
      "TagRESTConstants": 8695,
      "##rere": 8696,
      "##Addresses": 8697,
      "OR": 8698,
      "##ls": 8699,
      "configTypesUpdated": 8700,
      "##A5": 8701,
      "##vis": 8702,
      "##illiseconds": 8703,
      "32": 8704,
      "maybe": 8705,
      "##Health": 8706,
      "##ELECT": 8707,
      "apps": 8708,
      "##Processing": 8709,
      "##Dynamic": 8710,
      "Transformer": 8711,
      "getColumn": 8712,
      "##oordinates": 8713,
      "25": 8714,
      "##amb": 8715,
      "Lists": 8716,
      "(()": 8717,
      "distance": 8718,
      "Func1": 8719,
      "SC": 8720,
      "##ELEM": 8721,
      "\"{\\\"": 8722,
      "Ldap": 8723,
      "StringUtil": 8724,
      "##PACE": 8725,
      "##yx": 8726,
      "##quent": 8727,
      "##emq": 8728,
      "##uffle": 8729,
      "serviceDef": 8730,
      "scan": 8731,
      "activemq": 8732,
      "Verify": 8733,
      "expr1": 8734,
      "##ETRIC": 8735,
      "Executable": 8736,
      "approle": 8737,
      "VXGroupUser": 8738,
      "xdr": 8739,
      "weight": 8740,
      "Keyword": 8741,
      "Namespace": 8742,
      "24": 8743,
      "members": 8744,
      "##ASK": 8745,
      "tasks": 8746,
      "##TERNAL": 8747,
      "]\",": 8748,
      "##olation": 8749,
      "running": 8750,
      "##Generic": 8751,
      "getE": 8752,
      "GML": 8753,
      "##axrs": 8754,
      "requireNonNull": 8755,
      "readable": 8756,
      "multiply": 8757,
      "##go": 8758,
      "AR": 8759,
      "could": 8760,
      "JsonNode": 8761,
      "generic": 8762,
      "helper": 8763,
      "get_": 8764,
      "##cesim": 8765,
      "optional": 8766,
      "##Running": 8767,
      "Named": 8768,
      "\"\");": 8769,
      "##Publisher": 8770,
      "##plex": 8771,
      "scenarioSimulation": 8772,
      "##ESCRI": 8773,
      "getSwitch": 8774,
      "lon": 8775,
      "##Cmd": 8776,
      "##add": 8777,
      "##GoogleAds": 8778,
      "##NOWN": 8779,
      "emptyList": 8780,
      "##Evolving": 8781,
      "##temis": 8782,
      "deserialize": 8783,
      "artemis": 8784,
      "テスト": 8785,
      "Interrupted": 8786,
      "NoSuch": 8787,
      "##Approle": 8788,
      "PublicEvolving": 8789,
      "##CONFIG": 8790,
      "##isk": 8791,
      "##Charset": 8792,
      "VariantEvaluation": 8793,
      "##Capabilities": 8794,
      "##ManagerLogin": 8795,
      "##ffic": 8796,
      "getTransaction": 8797,
      "GuidedDecisionTableView": 8798,
      "##DelegationToken": 8799,
      "Open": 8800,
      "den": 8801,
      "VXString": 8802,
      "##Bund": 8803,
      "##ji": 8804,
      "##Versions": 8805,
      "destroy": 8806,
      "##Replace": 8807,
      "##Positive": 8808,
      "##urchase": 8809,
      "RMContainer": 8810,
      "##Retrieve": 8811,
      "##UCC": 8812,
      "##0000000000000000": 8813,
      "##Global": 8814,
      "##itial": 8815,
      "##irt": 8816,
      "Ind": 8817,
      "getField": 8818,
      ".\"": 8819,
      "##Execute": 8820,
      "##Relation": 8821,
      "##ONG": 8822,
      ">)": 8823,
      "##Created": 8824,
      "##perating": 8825,
      "Frequency": 8826,
      "HttpError": 8827,
      "##_n": 8828,
      "##rangeByScore": 8829,
      "##PublicKey": 8830,
      "##Two": 8831,
      "##cond": 8832,
      "##dn": 8833,
      "extra": 8834,
      "\"\"": 8835,
      "suffix": 8836,
      "##Build": 8837,
      "##OIN": 8838,
      "##ENTIFIER": 8839,
      "ddmFormField": 8840,
      "Close": 8841,
      "Is": 8842,
      "diff": 8843,
      "##Multiple": 8844,
      "ByteString": 8845,
      "Therapy": 8846,
      "GeoRadius": 8847,
      "Load": 8848,
      "HA": 8849,
      "getFirst": 8850,
      "##UsuarioDBEntity": 8851,
      "##ConsultaDBEntity": 8852,
      "##Select": 8853,
      "##ROM": 8854,
      "YarnConfiguration": 8855,
      "Timestamp": 8856,
      "wfs": 8857,
      "##VALID": 8858,
      "\"(": 8859,
      "aggregate": 8860,
      "InetAddress": 8861,
      "AUT": 8862,
      "##fully": 8863,
      "jsonObject": 8864,
      "SH": 8865,
      "##ular": 8866,
      "##Capture": 8867,
      "##ernet": 8868,
      "##road": 8869,
      "Snapshot": 8870,
      "SelfSupport": 8871,
      "Elasticsearch": 8872,
      "iss": 8873,
      "##ral": 8874,
      "##Promise": 8875,
      "##Finished": 8876,
      "##ugh": 8877,
      "PG": 8878,
      "##oaded": 8879,
      "findBy": 8880,
      "color": 8881,
      "##stream": 8882,
      "FIELD_": 8883,
      "##irtual": 8884,
      "##45": 8885,
      "##ENV": 8886,
      "##ubernet": 8887,
      "))).": 8888,
      "TYPE": 8889,
      "##ubernetes": 8890,
      "span": 8891,
      "##Src": 8892,
      "<?>,": 8893,
      "CONTAIN": 8894,
      "isD": 8895,
      "##\").": 8896,
      "expr2": 8897,
      "##Raw": 8898,
      "e13": 8899,
      "peek": 8900,
      "getConnection": 8901,
      "chars": 8902,
      "##TAG": 8903,
      "##Listing": 8904,
      "Prefix": 8905,
      "##tom": 8906,
      "##lain": 8907,
      "OM": 8908,
      "##3Response": 8909,
      "FsPermission": 8910,
      "XDR": 8911,
      "##Yarn": 8912,
      "##edFlow": 8913,
      "##Reset": 8914,
      "##AGE": 8915,
      "chunk": 8916,
      ">\"": 8917,
      "##High": 8918,
      "##AndView": 8919,
      "##PointerException": 8920,
      "Matcher": 8921,
      "av": 8922,
      "getIndex": 8923,
      "rows": 8924,
      "##Subscribe": 8925,
      "into": 8926,
      "##_PRE": 8927,
      "##EPARATOR": 8928,
      "ServiceComponentHost": 8929,
      "##JECT": 8930,
      "##IMIT": 8931,
      "##JobService": 8932,
      "##_v": 8933,
      "##Wait": 8934,
      "##emporal": 8935,
      "##_type": 8936,
      "Power": 8937,
      "jsonString": 8938,
      "rolename": 8939,
      "##aptiveMedia": 8940,
      "bec": 8941,
      "##eh": 8942,
      "tagged": 8943,
      "##acard": 8944,
      "Active": 8945,
      "queueName": 8946,
      "roles": 8947,
      "getExtension": 8948,
      "42": 8949,
      "##Csv": 8950,
      "##ATTRIBUT": 8951,
      "Readable": 8952,
      "##onf": 8953,
      "maximum": 8954,
      "##str": 8955,
      "##Mappings": 8956,
      "dev": 8957,
      "MAX": 8958,
      "##\"))": 8959,
      "##Logging": 8960,
      "Factory": 8961,
      "##TIME_": 8962,
      "supported": 8963,
      "##MenuBuilder": 8964,
      "##ECUT": 8965,
      "ENV": 8966,
      "##NULL": 8967,
      "##PropertyName": 8968,
      "using": 8969,
      "Custom": 8970,
      "transition": 8971,
      "period": 8972,
      "stage": 8973,
      "##Regex": 8974,
      "##D5": 8975,
      "test_": 8976,
      "associ": 8977,
      "sslc": 8978,
      "direct": 8979,
      "##auth": 8980,
      "##1_": 8981,
      "replay": 8982,
      "##States": 8983,
      "##Patterns": 8984,
      "##Reduction": 8985,
      "setStatus": 8986,
      "getDescription": 8987,
      "toAsync": 8988,
      "##args": 8989,
      "##apoint": 8990,
      "##sec": 8991,
      "##onical": 8992,
      "##ublinCore": 8993,
      "##Since": 8994,
      "KeyValue": 8995,
      "entities": 8996,
      "##emption": 8997,
      "style": 8998,
      "notNull": 8999,
      "##chemas": 9000,
      "selected": 9001,
      "InterruptedException": 9002,
      "##C6": 9003,
      "##eration": 9004,
      "##Transport": 9005,
      "##Send": 9006,
      "getParameter": 9007,
      "expectedException": 9008,
      "scheme": 9009,
      "##LandingPage": 9010,
      "##erator": 9011,
      "year": 9012,
      "##B6": 9013,
      "m15": 9014,
      "stats": 9015,
      "Alias": 9016,
      "mediaPackage": 9017,
      "Identity": 9018,
      "##peratingSystem": 9019,
      "##rier": 9020,
      "mask": 9021,
      "##inct": 9022,
      "##ManagerImpl": 9023,
      "unknown": 9024,
      "doReturn": 9025,
      "parts": 9026,
      "##formed": 9027,
      "##Break": 9028,
      "##Identifiers": 9029,
      "yyy": 9030,
      "AMQP": 9031,
      "WH": 9032,
      "##rest": 9033,
      "##39": 9034,
      "##Sql": 9035,
      "##tc": 9036,
      "##gram": 9037,
      "Authorization": 9038,
      "##Video": 9039,
      "##type": 9040,
      "##E_NAME": 9041,
      "Frame": 9042,
      "spy": 9043,
      "##met": 9044,
      "##AccountAuthorization": 9045,
      "BinaryOperator": 9046,
      "##InputsValid": 9047,
      "Sim": 9048,
      "##BizUtil": 9049,
      "Allele": 9050,
      "##TxId": 9051,
      "##aderJob": 9052,
      "Resol": 9053,
      "publish": 9054,
      "##ferent": 9055,
      "fw_dictionary": 9056,
      "80": 9057,
      "statusCode": 9058,
      "##HTML": 9059,
      "70916": 9060,
      "sslcert": 9061,
      "JM": 9062,
      "NLS": 9063,
      "##ours": 9064,
      "cell": 9065,
      "Sha256": 9066,
      "##YN": 9067,
      "##Temp": 9068,
      "provided": 9069,
      "17": 9070,
      "##reater": 9071,
      "LongStream": 9072,
      "Sha256Hash": 9073,
      "##rator": 9074,
      "ApplicationAttemptId": 9075,
      "##ranch": 9076,
      "##Move": 9077,
      "##iet": 9078,
      "MenuItem": 9079,
      "##filters": 9080,
      "FileStatus": 9081,
      "getStatusCode": 9082,
      "##Helpers": 9083,
      "10000": 9084,
      "validation": 9085,
      "getHttpstatus": 9086,
      "##Hierarch": 9087,
      "setValue": 9088,
      "##StateInternal": 9089,
      "DEFAULT": 9090,
      "##FORMAT": 9091,
      "SC_NOT_FOUND": 9092,
      "##RIT": 9093,
      "##pis": 9094,
      "##ffective": 9095,
      "##reatment": 9096,
      "newArrayList": 9097,
      "mapping": 9098,
      "##,\\\"": 9099,
      "FDBRecord": 9100,
      "NUM": 9101,
      "amount": 9102,
      "mutate": 9103,
      "HttpClient": 9104,
      "Serializable": 9105,
      "LIN": 9106,
      "##D6": 9107,
      "##rong": 9108,
      "##ABEL": 9109,
      "yyyy": 9110,
      "##Added": 9111,
      "##eded": 9112,
      "##GRAD": 9113,
      "columns": 9114,
      "Sets": 9115,
      "height": 9116,
      "##Color": 9117,
      "##Route": 9118,
      "##Lon": 9119,
      "setUser": 9120,
      "getFlow": 9121,
      "##SH": 9122,
      "##roid": 9123,
      "##itoring": 9124,
      "##EAN": 9125,
      "##tribution": 9126,
      "##Days": 9127,
      "completed": 9128,
      "tab": 9129,
      "##change": 9130,
      "CLUST": 9131,
      "retrieve": 9132,
      "step": 9133,
      "##Iterable": 9134,
      "##iag": 9135,
      "Evalu": 9136,
      "##More": 9137,
      "##alm": 9138,
      "##AccountBudget": 9139,
      "Relation": 9140,
      "fill": 9141,
      "##strap": 9142,
      "##utes": 9143,
      "##FilePath": 9144,
      "##Timer": 9145,
      "##ift": 9146,
      "criteria": 9147,
      "//$": 9148,
      "INSec": 9149,
      ".\"),": 9150,
      "mapred": 9151,
      "##ootstrap": 9152,
      "ModelAndView": 9153,
      "underTest": 9154,
      "##Concurrent": 9155,
      "##urpose": 9156,
      "instant": 9157,
      "##Encryption": 9158,
      "$|": 9159,
      "Ehr": 9160,
      "##_TYPE": 9161,
      "##emplates": 9162,
      "##ROL": 9163,
      "##DefaultValue": 9164,
      "lib": 9165,
      "AttributeValue": 9166,
      "JX": 9167,
      "jar": 9168,
      "##Sig": 9169,
      "##_EM": 9170,
      "##Received": 9171,
      "Agent": 9172,
      "Clock": 9173,
      "EPS": 9174,
      "##Spy": 9175,
      "##Slot": 9176,
      "##__": 9177,
      "##atern": 9178,
      "##pring": 9179,
      "##dsb": 9180,
      "##pisode": 9181,
      "##aternion": 9182,
      "TObject": 9183,
      "CallSpec": 9184,
      "##_000": 9185,
      "##SecretKey": 9186,
      "deleted": 9187,
      "concat": 9188,
      "chain": 9189,
      "##ClientDto": 9190,
      "BR": 9191,
      "what": 9192,
      "##write": 9193,
      "##KNOWN": 9194,
      "metricst": 9195,
      "##DOMElementFactory": 9196,
      "equal": 9197,
      "##Render": 9198,
      "##US_": 9199,
      "##Providers": 9200,
      "TaskAttempt": 9201,
      "##inicalDocument": 9202,
      "##enew": 9203,
      "isNot": 9204,
      "##reserve": 9205,
      "B2AccountAuthorization": 9206,
      "STAT": 9207,
      "monitor": 9208,
      "##MAP": 9209,
      "##NS": 9210,
      "Transition": 9211,
      "##Updates": 9212,
      "##oconf": 9213,
      "getApp": 9214,
      "(\"\",": 9215,
      "##queue": 9216,
      "##Sort": 9217,
      "##riple": 9218,
      "##aven": 9219,
      "For": 9220,
      "Loan": 9221,
      "##pressed": 9222,
      "outputStream": 9223,
      "Persist": 9224,
      "##Codes": 9225,
      "##Depth": 9226,
      "constraint": 9227,
      "##Credential": 9228,
      "##istinct": 9229,
      "##Permissions": 9230,
      "ct": 9231,
      "srs": 9232,
      "##ObjectType": 9233,
      "(\"/{": 9234,
      "##Locations": 9235,
      "getPropertyId": 9236,
      "##WITH": 9237,
      "##Dra": 9238,
      "##illing": 9239,
      "mm": 9240,
      "##ActionService": 9241,
      "##URLConnection": 9242,
      "##NOT": 9243,
      "##MB": 9244,
      "primary": 9245,
      "##KeywordService": 9246,
      "NullPointerException": 9247,
      "##BidModifierService": 9248,
      "MET": 9249,
      "##oz": 9250,
      "XMLStreamReaderWrapper": 9251,
      "##cce": 9252,
      "##Extra": 9253,
      "Perm": 9254,
      "##arison": 9255,
      "##cludes": 9256,
      "policyId": 9257,
      "##789": 9258,
      "##width": 9259,
      "##lev": 9260,
      "getState": 9261,
      "singletonList": 9262,
      "Size": 9263,
      "docker": 9264,
      "sw": 9265,
      "##Queues": 9266,
      "000": 9267,
      "##_PL": 9268,
      "##Getter": 9269,
      "##ManagementController": 9270,
      "Bytes": 9271,
      "don": 9272,
      "##GroupViewService": 9273,
      "##RangeViewService": 9274,
      "instruction": 9275,
      "##CLASS": 9276,
      "##SecretManager": 9277,
      "##CategoryConstantService": 9278,
      "ebv": 9279,
      "##AudienceViewService": 9280,
      "##PerformanceViewService": 9281,
      "##FormatException": 9282,
      "Sign": 9283,
      "##inel": 9284,
      "sets": 9285,
      "##FileVersion": 9286,
      "##Age": 9287,
      "experiment": 9288,
      "##romosome": 9289,
      "##Sur": 9290,
      "assertSame": 9291,
      "E_Str": 9292,
      "PrintStream": 9293,
      "##uggest": 9294,
      "five": 9295,
      "##Merge": 9296,
      "##olders": 9297,
      "40": 9298,
      "NULL": 9299,
      "Ver": 9300,
      "##com": 9301,
      "HOST_": 9302,
      "##Bits": 9303,
      "seed": 9304,
      ",\\": 9305,
      "##oto": 9306,
      "##UploadService": 9307,
      "##InterestService": 9308,
      "Endpoint": 9309,
      "Beta": 9310,
      "getMin": 9311,
      "FOR": 9312,
      "e14": 9313,
      "impl": 9314,
      "Experiment": 9315,
      "delay": 9316,
      "additional": 9317,
      "resolver": 9318,
      "pathParameters": 9319,
      "Import": 9320,
      "MOD": 9321,
      "##Setter": 9322,
      "idx": 9323,
      "##Bindings": 9324,
      "##Hook": 9325,
      "##atible": 9326,
      "product": 9327,
      "Directory": 9328,
      "##_PERMISSION": 9329,
      "Child": 9330,
      "##Instant": 9331,
      "##actions": 9332,
      "ns3": 9333,
      "##SingletonDOMElementFactory": 9334,
      "milliseconds": 9335,
      "sleep": 9336,
      "promise": 9337,
      "##AdService": 9338,
      "##FeedItemService": 9339,
      "##SharedSetService": 9340,
      "##Hint": 9341,
      "ICRS": 9342,
      "##E4": 9343,
      "##_V": 9344,
      "##Clean": 9345,
      "##Hotel": 9346,
      "##InfoProto": 9347,
      "generated": 9348,
      "##gnored": 9349,
      "Des": 9350,
      "##RECT": 9351,
      "checkNotNull": 9352,
      "itemId": 9353,
      "ug": 9354,
      "##_O": 9355,
      "##icket": 9356,
      "##OLICY_": 9357,
      "##cp": 9358,
      "reply": 9359,
      "\\\"\\": 9360,
      "##achine": 9361,
      "##tributed": 9362,
      "##CriterionSimulationService": 9363,
      "##FactDao": 9364,
      "servlet": 9365,
      "##Begin": 9366,
      "##LocationViewService": 9367,
      "##KeywordViewService": 9368,
      "##LandingPageViewService": 9369,
      "Metrics": 9370,
      "Distance": 9371,
      "here": 9372,
      "##Hive": 9373,
      "##Standard": 9374,
      "TypeToken": 9375,
      "##Allocator": 9376,
      "channelId": 9377,
      "##eers": 9378,
      "##ECUR": 9379,
      "##F_PREFIX": 9380,
      "getSub": 9381,
      "accountAuth": 9382,
      "##Least": 9383,
      "Location": 9384,
      "##RETRY_": 9385,
      "RangerTag": 9386,
      "##DATA": 9387,
      "##ITION": 9388,
      "whether": 9389,
      "##EMPL": 9390,
      "FORM": 9391,
      "##Character": 9392,
      "##retty": 9393,
      "getComponent": 9394,
      "configs": 9395,
      "##JSONObject": 9396,
      "##PermissionService": 9397,
      "##apoints": 9398,
      "##Rol": 9399,
      "Store": 9400,
      "B2Json": 9401,
      "grant": 9402,
      "##wd": 9403,
      "REP": 9404,
      "TOD": 9405,
      "##ense": 9406,
      "ObservableTransformer": 9407,
      "sdb": 9408,
      "##200": 9409,
      "##Region": 9410,
      "attr": 9411,
      "##_SERVER_": 9412,
      "loader": 9413,
      "##code": 9414,
      "##UIL": 9415,
      "Stage": 9416,
      "\"})": 9417,
      "Captor": 9418,
      "getSimpleName": 9419,
      "TODO": 9420,
      "Include": 9421,
      "##iry": 9422,
      "flag": 9423,
      "Tracker": 9424,
      "Global": 9425,
      "TimelineEntity": 9426,
      "##RGB": 9427,
      "(\"%": 9428,
      "ScenarioGrid": 9429,
      "ListenableFuture": 9430,
      "Email": 9431,
      "##RecordConverter": 9432,
      "alias": 9433,
      "##ircuit": 9434,
      "category": 9435,
      ")\",": 9436,
      "##ignment": 9437,
      "##IGH": 9438,
      "##Calendar": 9439,
      "divide": 9440,
      "MediaPackageElement": 9441,
      "T21": 9442,
      "##Percent": 9443,
      "drop": 9444,
      "##Polygon": 9445,
      "ca": 9446,
      "getTarget": 9447,
      "##ian": 9448,
      "master": 9449,
      "##AST": 9450,
      "##Bag": 9451,
      "##inated": 9452,
      "Env": 9453,
      "pf": 9454,
      "Lock": 9455,
      "##ws": 9456,
      "APP": 9457,
      "serialized": 9458,
      "##Coins": 9459,
      "eval": 9460,
      "##Activ": 9461,
      "\"--": 9462,
      "##HOST": 9463,
      "##connect": 9464,
      "##Maps": 9465,
      "##Logic": 9466,
      "getError": 9467,
      "keySet": 9468,
      "AtomicLong": 9469,
      "##aml": 9470,
      "createMock": 9471,
      "\"\\\\": 9472,
      "RUN": 9473,
[...]
