{
  "version": "1.0",
  "truncation": {
    "direction": "Right",
    "max_length": 512,
    "strategy": "LongestFirst",
    "stride": 0
  },
  "padding": {
    "strategy": "BatchLongest",
    "direction": "Right",
    "pad_to_multiple_of": null,
    "pad_id": 1,
    "pad_type_id": 0,
    "pad_token": "<pad>"
  },
  "added_tokens": [
    {
      "id": 0,
      "special": true,
      "content": "<s>",
      "single_word": false,
      "lstrip": false,
      "rstrip": false,
      "normalized": false
    },
    {
      "id": 1,
      "special": true,
      "content": "<pad>",
      "single_word": false,
      "lstrip": false,
      "rstrip": false,
      "normalized": false
    },
    {
      "id": 2,
      "special": true,
      "content": "</s>",
      "single_word": false,
      "lstrip": false,
      "rstrip": false,
      "normalized": false
    },
    {
      "id": 3,
      "special": true,
      "content": "<unk>",
      "single_word": false,
      "lstrip": false,
      "rstrip": false,
      "normalized": false
    },
    {
      "id": 4,
      "special": true,
      "content": "<mask>",
      "single_word": false,
      "lstrip": false,
      "rstrip": false,
      "normalized": false
    }
  ],
  "normalizer": {
    "type": "NFKC"
  },
  "pre_tokenizer": {
    "type": "ByteLevel",
    "add_prefix_space": true,
    "trim_offsets": true
  },
  "post_processor": {
    "type": "TemplateProcessing",
    "single": [
      {
        "SpecialToken": {
          "id": "<s>",
          "type_id": 0
        }
      },
      {
        "Sequence": {
          "id": "A",
          "type_id": 0
        }
      },
      {
        "SpecialToken": {
          "id": "</s>",
          "type_id": 0
        }
      }
    ],
    "pair": [
      {
        "SpecialToken": {
          "id": "<s>",
          "type_id": 0
        }
      },
      {
        "Sequence": {
          "id": "A",
          "type_id": 0
        }
      },
      {
        "SpecialToken": {
          "id": "</s>",
          "type_id": 0
        }
      },
      {
        "Sequence": {
          "id": "B",
          "type_id": 1
        }
      },
      {
        "SpecialToken": {
          "id": "</s>",
          "type_id": 1
        }
      }
    ],
    "special_tokens": {
      "</s>": {
        "id": "</s>",
        "ids": [
          2
        ],
        "tokens": [
          "</s>"
        ]
      },
      "<s>": {
        "id": "<s>",
        "ids": [
          0
        ],
        "tokens": [
          "<s>"
        ]
      }
    }
  },
  "decoder": {
    "type": "ByteLevel",
    "add_prefix_space": true,
    "trim_offsets": true
  },
  "model": {
    "type": "BPE",
    "dropout": null,
    "unk_token": "<unk>",
    "continuing_subword_prefix": null,
    "end_of_word_suffix": null,
    "fuse_unk": false,
    "vocab": {
      "<s>": 0,
      "<pad>": 1,
      "</s>": 2,
      "<unk>": 3,
      "<mask>": 4,
      "!": 5,
      "\"": 6,
      "#": 7,
      "$": 8,
      "%": 9,
      "&": 10,
      "'": 11,
      "(": 12,
      ")": 13,
      "*": 14,
      "+": 15,
      ",": 16,
      "-": 17,
      ".": 18,
      "/": 19,
      "0": 20,
      "1": 21,
      "2": 22,
      "3": 23,
      "4": 24,
      "5": 25,
      "6": 26,
      "7": 27,
      "8": 28,
      "9": 29,
      ":": 30,
      ";": 31,
      "<": 32,
      "=": 33,
      ">": 34,
      "?": 35,
      "@": 36,
      "A": 37,
      "B": 38,
      "C": 39,
      "D": 40,
      "E": 41,
      "F": 42,
      "G": 43,
      "H": 44,
      "I": 45,
      "J": 46,
      "K": 47,
      "L": 48,
      "M": 49,
      "N": 50,
      "O": 51,
      "P": 52,
      "Q": 53,
      "R": 54,
      "S": 55,
      "T": 56,
      "U": 57,
      "V": 58,
      "W": 59,
      "X": 60,
      "Y": 61,
      "Z": 62,
      "[": 63,
      "\\": 64,
      "]": 65,
      "^": 66,
      "_": 67,
      "`": 68,
      "a": 69,
      "b": 70,
      "c": 71,
      "d": 72,
      "e": 73,
      "f": 74,
      "g": 75,
      "h": 76,
      "i": 77,
      "j": 78,
      "k": 79,
      "l": 80,
      "m": 81,
      "n": 82,
      "o": 83,
      "p": 84,
      "q": 85,
      "r": 86,
      "s": 87,
      "t": 88,
      "u": 89,
      "v": 90,
      "w": 91,
      "x": 92,
      "y": 93,
      "z": 94,
      "{": 95,
      "|": 96,
      "}": 97,
      "~": 98,
      "¡": 99,
      "¢": 100,
      "£": 101,
      "¤": 102,
      "¥": 103,
      "¦": 104,
      "§": 105,
      "¨": 106,
      "©": 107,
      "ª": 108,
      "«": 109,
      "¬": 110,
      "®": 111,
      "¯": 112,
      "°": 113,
      "±": 114,
      "²": 115,
      "³": 116,
      "´": 117,
      "µ": 118,
      "¶": 119,
      "·": 120,
      "¸": 121,
      "¹": 122,
      "º": 123,
      "»": 124,
      "¼": 125,
      "½": 126,
      "¾": 127,
      "¿": 128,
      "À": 129,
      "Á": 130,
      "Â": 131,
      "Ã": 132,
      "Ä": 133,
      "Å": 134,
      "Æ": 135,
      "Ç": 136,
      "È": 137,
      "É": 138,
      "Ê": 139,
      "Ë": 140,
      "Ì": 141,
      "Í": 142,
      "Î": 143,
      "Ï": 144,
      "Ð": 145,
      "Ñ": 146,
      "Ò": 147,
      "Ó": 148,
      "Ô": 149,
      "Õ": 150,
      "Ö": 151,
      "×": 152,
      "Ø": 153,
      "Ù": 154,
      "Ú": 155,
      "Û": 156,
      "Ü": 157,
      "Ý": 158,
      "Þ": 159,
      "ß": 160,
      "à": 161,
      "á": 162,
      "â": 163,
      "ã": 164,
      "ä": 165,
      "å": 166,
      "æ": 167,
      "ç": 168,
      "è": 169,
      "é": 170,
      "ê": 171,
      "ë": 172,
      "ì": 173,
      "í": 174,
      "î": 175,
      "ï": 176,
      "ð": 177,
      "ñ": 178,
      "ò": 179,
      "ó": 180,
      "ô": 181,
      "õ": 182,
      "ö": 183,
      "÷": 184,
      "ø": 185,
      "ù": 186,
      "ú": 187,
      "û": 188,
      "ü": 189,
      "ý": 190,
      "þ": 191,
      "ÿ": 192,
      "Ā": 193,
      "ā": 194,
      "Ă": 195,
      "ă": 196,
      "Ą": 197,
      "ą": 198,
      "Ć": 199,
      "ć": 200,
      "Ĉ": 201,
      "ĉ": 202,
      "Ċ": 203,
      "ċ": 204,
      "Č": 205,
      "č": 206,
      "Ď": 207,
      "ď": 208,
      "Đ": 209,
      "đ": 210,
      "Ē": 211,
      "ē": 212,
      "Ĕ": 213,
      "ĕ": 214,
      "Ė": 215,
      "ė": 216,
      "Ę": 217,
      "ę": 218,
      "Ě": 219,
      "ě": 220,
      "Ĝ": 221,
      "ĝ": 222,
      "Ğ": 223,
      "ğ": 224,
      "Ġ": 225,
      "ġ": 226,
      "Ģ": 227,
      "ģ": 228,
      "Ĥ": 229,
      "ĥ": 230,
      "Ħ": 231,
      "ħ": 232,
      "Ĩ": 233,
      "ĩ": 234,
      "Ī": 235,
      "ī": 236,
      "Ĭ": 237,
      "ĭ": 238,
      "Į": 239,
      "į": 240,
      "İ": 241,
      "ı": 242,
      "Ĳ": 243,
      "ĳ": 244,
      "Ĵ": 245,
      "ĵ": 246,
      "Ķ": 247,
      "ķ": 248,
      "ĸ": 249,
      "Ĺ": 250,
      "ĺ": 251,
      "Ļ": 252,
      "ļ": 253,
      "Ľ": 254,
      "ľ": 255,
      "Ŀ": 256,
      "ŀ": 257,
      "Ł": 258,
      "ł": 259,
      "Ń": 260,
      "OL": 261,
      "Ġ[": 262,
      "EOL": 263,
      "er": 264,
      "at": 265,
      "in": 266,
      "on": 267,
      "Ġp": 268,
      "ic": 269,
      "st": 270,
      "al": 271,
      "et": 272,
      "bl": 273,
      "ri": 274,
      "en": 275,
      "St": 276,
      "ing": 277,
      "ate": 278,
      "es": 279,
      "ubl": 280,
      "ion": 281,
      "or": 282,
      "Str": 283,
      "ublic": 284,
      "Ġpublic": 285,
      "()": 286,
      "String": 287,
      "an": 288,
      "ct": 289,
      "Ġf": 290,
      "Ġ=": 291,
      "le": 292,
      "inal": 293,
      "ro": 294,
      "riv": 295,
      "de": 296,
      "re": 297,
      "rivate": 298,
      "Ġprivate": 299,
      ");": 300,
      "te": 301,
      "get": 302,
      "Ġ@": 303,
      "ent": 304,
      "as": 305,
      "ar": 306,
      "Ġst": 307,
      "Ġfinal": 308,
      "id": 309,
      "am": 310,
      "it": 311,
      "ĠString": 312,
      "Ġc": 313,
      "Ġstat": 314,
      "Ġv": 315,
      "Ġstatic": 316,
      "ce": 317,
      "ul": 318,
      "Ġn": 319,
      "ue": 320,
      "ed": 321,
      "Ġt": 322,
      "ur": 323,
      "Ġ\"": 324,
      "Ġs": 325,
      "In": 326,
      "ver": 327,
      "ap": 328,
      "ut": 329,
      "Con": 330,
      "ist": 331,
      "Ġ{": 332,
      "Re": 333,
      "Ġb": 334,
      "il": 335,
      "is": 336,
      "oid": 337,
      "Ġin": 338,
      "ck": 339,
      "Ġvoid": 340,
      "ation": 341,
      "ass": 342,
      "ch": 343,
      "pt": 344,
      "pe": 345,
      "ew": 346,
      "ad": 347,
      "ess": 348,
      "ag": 349,
      "Ġ}": 350,
      "oo": 351,
      "Ġget": 352,
      "ert": 353,
      "ect": 354,
      "Co": 355,
      "Ex": 356,
      "ame": 357,
      "se": 358,
      "lo": 359,
      "Over": 360,
      "ride": 361,
      "Override": 362,
      "un": 363,
      "ter": 364,
      "List": 365,
      "(\"": 366,
      "Ġm": 367,
      "ull": 368,
      "ig": 369,
      "abl": 370,
      "ption": 371,
      "Ġe": 372,
      "if": 373,
      "Pro": 374,
      "Ġd": 375,
      "Ġnew": 376,
      "Ġĉ": 377,
      "ment": 378,
      "ype": 379,
      "Ġr": 380,
      "lean": 381,
      "oolean": 382,
      "im": 383,
      "ject": 384,
      "Res": 385,
      "able": 386,
      "Id": 387,
      "xt": 388,
      "Ġint": 389,
      "up": 390,
      "ĠS": 391,
      "el": 392,
      "alue": 393,
      "act": 394,
      "();": 395,
      "\",": 396,
      "Ġ(": 397,
      "ĠM": 398,
      "mp": 399,
      "Type": 400,
      "ol": 401,
      "ata": 402,
      "ĠA": 403,
      "Lo": 404,
      "Ġboolean": 405,
      "qu": 406,
      "ode": 407,
      "ot": 408,
      "Ġre": 409,
      "Name": 410,
      "age": 411,
      "erv": 412,
      "lass": 413,
      "ult": 414,
      "bject": 415,
      "der": 416,
      "ĠT": 417,
      "ile": 418,
      "Ġpro": 419,
      "ice": 420,
      "que": 421,
      "um": 422,
      "En": 423,
      "Ġth": 424,
      "ay": 425,
      "ER": 426,
      "us": 427,
      "est": 428,
      "Ġl": 429,
      "ĠD": 430,
      "quest": 431,
      "ory": 432,
      "and": 433,
      "ĠP": 434,
      "\")": 435,
      "ception": 436,
      "our": 437,
      "Object": 438,
      "final": 439,
      "assert": 440,
      "ger": 441,
      "ock": 442,
      "fig": 443,
      "ĠC": 444,
      "[]": 445,
      "urn": 446,
      "\";": 447,
      "Ġcon": 448,
      "eturn": 449,
      "ers": 450,
      "ervice": 451,
      "Exception": 452,
      "ey": 453,
      "ON": 454,
      "Ġ+": 455,
      "ction": 456,
      "Ġo": 457,
      "00": 458,
      "ong": 459,
      "text": 460,
      "cted": 461,
      "od": 462,
      "iz": 463,
      "ec": 464,
      "ource": 465,
      "int": 466,
      "To": 467,
      "ath": 468,
      "ity": 469,
      "ve": 470,
      "Ġĉĉ": 471,
      "om": 472,
      "ĠB": 473,
      "Par": 474,
      "Map": 475,
      "//": 476,
      "ĠList": 477,
      "em": 478,
      "uil": 479,
      "end": 480,
      "pl": 481,
      "Ġw": 482,
      "qual": 483,
      "AT": 484,
      "Service": 485,
      "th": 486,
      "Null": 487,
      "Config": 488,
      "tt": 489,
      "Value": 490,
      "IN": 491,
      "ator": 492,
      "ress": 493,
      "oubl": 494,
      "pon": 495,
      "\\\"": 496,
      "ĠF": 497,
      "Ġassert": 498,
      "ouble": 499,
      "put": 500,
      "Ġ0": 501,
      "Ġa": 502,
      "orm": 503,
      "Log": 504,
      "ime": 505,
      "Test": 506,
      "ry": 507,
      "per": 508,
      "set": 509,
      "row": 510,
      "Request": 511,
      "Ġis": 512,
      "ponse": 513,
      "os": 514,
      "Ġif": 515,
      "ser": 516,
      "());": 517,
      "Ġh": 518,
      "pert": 519,
      "ort": 520,
      ").": 521,
      "RE": 522,
      "Ġ1": 523,
      "\");": 524,
      "ran": 525,
      "Data": 526,
      "ack": 527,
      "quals": 528,
      "rr": 529,
      "Ch": 530,
      "ĠI": 531,
      "Ġreturn": 532,
      "yte": 533,
      "ir": 534,
      "Ġnull": 535,
      "));": 536,
      "ME": 537,
      "essage": 538,
      "tected": 539,
      "reate": 540,
      "ain": 541,
      "class": 542,
      "Ġprotected": 543,
      "co": 544,
      "Col": 545,
      "li": 546,
      "ase": 547,
      "ST": 548,
      "Ġ//": 549,
      "De": 550,
      "ition": 551,
      "().": 552,
      "add": 553,
      "atch": 554,
      "Ġset": 555,
      "Context": 556,
      "Met": 557,
      "ow": 558,
      "Key": 559,
      "Ġres": 560,
      "ff": 561,
      "Ġto": 562,
      "rans": 563,
      "cess": 564,
      "Ent": 565,
      "unt": 566,
      "test": 567,
      "Response": 568,
      "stan": 569,
      "ial": 570,
      "uilder": 571,
      "alid": 572,
      "red": 573,
      "Ġ.": 574,
      "Mock": 575,
      "Propert": 576,
      "all": 577,
      "Ġde": 578,
      "Cont": 579,
      "art": 580,
      "Ġex": 581,
      "ge": 582,
      "ach": 583,
      "ith": 584,
      "Path": 585,
      "ĠIn": 586,
      "vent": 587,
      "ĠL": 588,
      "ĠMap": 589,
      "ore": 590,
      "ĠH": 591,
      "actory": 592,
      "fa": 593,
      "eld": 594,
      "Set": 595,
      "mpl": 596,
      "Th": 597,
      "to": 598,
      "Equals": 599,
      "ield": 600,
      "ure": 601,
      "ĠE": 602,
      "lient": 603,
      "cri": 604,
      "ener": 605,
      "ize": 606,
      "eck": 607,
      "ĠObject": 608,
      "Ġ)": 609,
      "ute": 610,
      "AL": 611,
      "ĠV": 612,
      "ery": 613,
      "ID": 614,
      "Param": 615,
      "File": 616,
      "ĠU": 617,
      "Man": 618,
      "Ġthrow": 619,
      "Ġdouble": 620,
      "Ġlo": 621,
      "Ġlong": 622,
      "rue": 623,
      "ĠO": 624,
      "Factory": 625,
      "dex": 626,
      "uration": 627,
      "ord": 628,
      "<?": 629,
      "ttp": 630,
      "LE": 631,
      "Node": 632,
      "con": 633,
      "ument": 634,
      "ies": 635,
      "fo": 636,
      "OR": 637,
      "ication": 638,
      "teger": 639,
      "tem": 640,
      "roup": 641,
      "ler": 642,
      "ager": 643,
      "Non": 644,
      "res": 645,
      "ac": 646,
      "rray": 647,
      "Ġch": 648,
      "Ġvalue": 649,
      "ION": 650,
      "ader": 651,
      "Stat": 652,
      "str": 653,
      "Qu": 654,
      "Time": 655,
      "Resource": 656,
      "(),": 657,
      "Ad": 658,
      "By": 659,
      "ine": 660,
      "An": 661,
      "ub": 662,
      "ss": 663,
      "lection": 664,
      "lement": 665,
      "ail": 666,
      "Builder": 667,
      "Logger": 668,
      "eam": 669,
      "son": 670,
      "rom": 671,
      "lu": 672,
      "Not": 673,
      "Result": 674,
      "uth": 675,
      "Manager": 676,
      "Class": 677,
      "ace": 678,
      "oc": 679,
      "Stream": 680,
      "Se": 681,
      "cal": 682,
      "ip": 683,
      "Ġg": 684,
      "State": 685,
      "Ġtest": 686,
      "til": 687,
      "Ġ-": 688,
      "rib": 689,
      "Ap": 690,
      "NA": 691,
      "stance": 692,
      "ĠR": 693,
      "date": 694,
      "Rep": 695,
      "Ġpar": 696,
      "mm": 697,
      "ule": 698,
      "ence": 699,
      "Comp": 700,
      "key": 701,
      "ex": 702,
      "iv": 703,
      "ash": 704,
      "ive": 705,
      "new": 706,
      "Message": 707,
      "ĠJ": 708,
      "))": 709,
      "Util": 710,
      "Ġthe": 711,
      "ache": 712,
      "Info": 713,
      "tern": 714,
      ">>": 715,
      "AR": 716,
      "Al": 717,
      "ĉĉ": 718,
      "ind": 719,
      "alse": 720,
      "yn": 721,
      "Ġco": 722,
      "Date": 723,
      "odel": 724,
      "For": 725,
      "press": 726,
      "action": 727,
      "Property": 728,
      "DE": 729,
      "fault": 730,
      "Ġcreate": 731,
      "ob": 732,
      "Un": 733,
      "fer": 734,
      "ilter": 735,
      "mo": 736,
      "ork": 737,
      "ost": 738,
      "hod": 739,
      "Client": 740,
      "Entity": 741,
      "ber": 742,
      "vid": 743,
      "ext": 744,
      "User": 745,
      "user": 746,
      "Configuration": 747,
      "NAME": 748,
      "Collection": 749,
      "nect": 750,
      "EN": 751,
      "osit": 752,
      "und": 753,
      "ax": 754,
      "form": 755,
      "ab": 756,
      "ĠassertEquals": 757,
      "Trans": 758,
      "Query": 759,
      "IT": 760,
      "Group": 761,
      "ken": 762,
      "andler": 763,
      "..": 764,
      "escri": 765,
      "ari": 766,
      "Event": 767,
      "ask": 768,
      "Status": 769,
      "vider": 770,
      "unction": 771,
      "ast": 772,
      "sion": 773,
      "With": 774,
      "),": 775,
      "Ġ2": 776,
      "null": 777,
      "chem": 778,
      "let": 779,
      "iew": 780,
      "Ġi": 781,
      "Ġname": 782,
      "rg": 783,
      "Sup": 784,
      "ign": 785,
      "ĠN": 786,
      "ository": 787,
      "Field": 788,
      "(@": 789,
      "enc": 790,
      "Ġthrows": 791,
      "UR": 792,
      "Ġj": 793,
      "Ġadd": 794,
      "Ġfor": 795,
      "eng": 796,
      "Ser": 797,
      "ĠG": 798,
      "uild": 799,
      "name": 800,
      "out": 801,
      "Of": 802,
      "ier": 803,
      "CE": 804,
      "ted": 805,
      "urr": 806,
      "Ac": 807,
      "ori": 808,
      "Item": 809,
      "RO": 810,
      "av": 811,
      "ann": 812,
      "value": 813,
      "Array": 814,
      "eter": 815,
      "ecut": 816,
      "alu": 817,
      "oint": 818,
      "Nullable": 819,
      "ength": 820,
      "Ġbyte": 821,
      "ire": 822,
      "Code": 823,
      "ange": 824,
      "())": 825,
      "ersion": 826,
      "Provider": 827,
      "Ġext": 828,
      "Reg": 829,
      "Add": 830,
      "ings": 831,
      "AN": 832,
      "port": 833,
      "low": 834,
      "FI": 835,
      "Ġrequest": 836,
      "Handler": 837,
      "Ġkey": 838,
      "pected": 839,
      "SE": 840,
      "umn": 841,
      "Ġlog": 842,
      "Att": 843,
      "app": 844,
      "Ġ==": 845,
      "ames": 846,
      "chema": 847,
      "He": 848,
      "ĠW": 849,
      "ĠEx": 850,
      "Integer": 851,
      "Comm": 852,
      "Repository": 853,
      "TE": 854,
      "Form": 855,
      "of": 856,
      "ix": 857,
      "Option": 858,
      "hen": 859,
      "op": 860,
      "Index": 861,
      "ĠSet": 862,
      "ĠLogger": 863,
      "ard": 864,
      "ary": 865,
      "SS": 866,
      "Return": 867,
      "erm": 868,
      "Or": 869,
      "ty": 870,
      "Ġuser": 871,
      "umber": 872,
      "ribute": 873,
      "Ġsh": 874,
      "uff": 875,
      "rap": 876,
      "On": 877,
      "Model": 878,
      "Ġ!": 879,
      "plication": 880,
      "arch": 881,
      "ify": 882,
      "pty": 883,
      "pro": 884,
      "Ġdata": 885,
      "rror": 886,
      "01": 887,
      "ated": 888,
      "ĠRe": 889,
      "Utils": 890,
      "Up": 891,
      "Ġcont": 892,
      "ple": 893,
      "UL": 894,
      "Element": 895,
      "read": 896,
      "ak": 897,
      "par": 898,
      "adata": 899,
      "Ġresult": 900,
      "yst": 901,
      "ao": 902,
      "Valid": 903,
      "sh": 904,
      "Connect": 905,
      "ust": 906,
      "one": 907,
      "Ġ<": 908,
      "ystem": 909,
      "TY": 910,
      "From": 911,
      "Instance": 912,
      "ink": 913,
      "ric": 914,
      "ra": 915,
      "ession": 916,
      "ference": 917,
      "arget": 918,
      "And": 919,
      "Local": 920,
      "Ġtrue": 921,
      "OG": 922,
      "ssert": 923,
      "du": 924,
      "GE": 925,
      "AP": 926,
      "lock": 927,
      "lse": 928,
      "Sh": 929,
      "ends": 930,
      "count": 931,
      "CT": 932,
      "Auth": 933,
      "ired": 934,
      "leg": 935,
      "That": 936,
      "Arg": 937,
      "Ġtype": 938,
      "arn": 939,
      "alues": 940,
      "lect": 941,
      "urrent": 942,
      "Ġnot": 943,
      "Ġfalse": 944,
      "Listener": 945,
      "Ġup": 946,
      "Ġid": 947,
      "ocument": 948,
      "rol": 949,
      "sum": 950,
      "Call": 951,
      "pace": 952,
      "ang": 953,
      "LI": 954,
      "UT": 955,
      "ner": 956,
      "Ġcontext": 957,
      "Inter": 958,
      "tes": 959,
      "loat": 960,
      "ud": 961,
      "pec": 962,
      "Ġ);": 963,
      "ATION": 964,
      "back": 965,
      "Ġmet": 966,
      "Ġ3": 967,
      "Properties": 968,
      "NonNull": 969,
      "FA": 970,
      "Ġelse": 971,
      "pression": 972,
      "Address": 973,
      "ED": 974,
      "<>": 975,
      "Cache": 976,
      "olic": 977,
      "Em": 978,
      "All": 979,
      "ree": 980,
      "attern": 981,
      "Version": 982,
      "Descri": 983,
      "ĠK": 984,
      "\\\\": 985,
      "Long": 986,
      "utput": 987,
      "lust": 988,
      "ia": 989,
      "Ġconfig": 990,
      "rite": 991,
      "<?>": 992,
      "Api": 993,
      "Error": 994,
      "Ġextends": 995,
      "ml": 996,
      "As": 997,
      "uffer": 998,
      "Filter": 999,
      "cord": 1000,
      "ĠFile": 1001,
      "ĠPro": 1002,
      "CH": 1003,
      "peration": 1004,
      "Input": 1005,
      "Method": 1006,
      "Ġar": 1007,
      "Dec": 1008,
      "her": 1009,
      "ep": 1010,
      "Ġbe": 1011,
      "Source": 1012,
      "Ġ'": 1013,
      "Size": 1014,
      "riter": 1015,
      "Nonnull": 1016,
      "Entry": 1017,
      "create": 1018,
      "entity": 1019,
      "RI": 1020,
      "Ġĉĉĉ": 1021,
      "mplate": 1022,
      "ĠInteger": 1023,
      "Ġ!=": 1024,
      "Token": 1025,
      "icate": 1026,
      "Impl": 1027,
      "Store": 1028,
      "0000": 1029,
      "Pre": 1030,
      "View": 1031,
      "PE": 1032,
      "Ġx": 1033,
      "Ġ?": 1034,
      "luster": 1035,
      "Ġse": 1036,
      "ded": 1037,
      "uri": 1038,
      "fin": 1039,
      "ht": 1040,
      "Ġsup": 1041,
      "ized": 1042,
      "err": 1043,
      "\\\":": 1044,
      "Ġmock": 1045,
      "Ġ:": 1046,
      "NotNull": 1047,
      "ly": 1048,
      "byte": 1049,
      "Content": 1050,
      "ound": 1051,
      "ĠassertThat": 1052,
      "ill": 1053,
      "ainer": 1054,
      "12": 1055,
      "ant": 1056,
      "Check": 1057,
      "onent": 1058,
      "cation": 1059,
      "AD": 1060,
      "ched": 1061,
      "move": 1062,
      "CO": 1063,
      "ING": 1064,
      "Count": 1065,
      "ook": 1066,
      "ĠCollection": 1067,
      "otation": 1068,
      "ULT": 1069,
      "\"));": 1070,
      "Rule": 1071,
      "ces": 1072,
      "Function": 1073,
      "ATE": 1074,
      "ĠException": 1075,
      "Ġcheck": 1076,
      "True": 1077,
      "Ġcomp": 1078,
      "Format": 1079,
      "ĠClass": 1080,
      "UE": 1081,
      "Json": 1082,
      "Part": 1083,
      "are": 1084,
      "Ġ4": 1085,
      "Table": 1086,
      "Ġlist": 1087,
      "att": 1088,
      "Ġon": 1089,
      "Ġcol": 1090,
      "Ġ*": 1091,
      "log": 1092,
      "Column": 1093,
      "uld": 1094,
      "ance": 1095,
      "--": 1096,
      "SON": 1097,
      "pes": 1098,
      "Le": 1099,
      "Ġparam": 1100,
      "ĠArray": 1101,
      "CON": 1102,
      "ateg": 1103,
      "Http": 1104,
      "own": 1105,
      "error": 1106,
      "Ġvalid": 1107,
      "ĠAssert": 1108,
      "NT": 1109,
      "Ġmessage": 1110,
      "cont": 1111,
      "older": 1112,
      "ug": 1113,
      "Transaction": 1114,
      "load": 1115,
      "Ġupdate": 1116,
      "Ġĉĉĉĉ": 1117,
      "Execut": 1118,
      "Be": 1119,
      "Process": 1120,
      "ifier": 1121,
      "Regist": 1122,
      "ract": 1123,
      "Ġor": 1124,
      "Te": 1125,
      "Meta": 1126,
      "Warn": 1127,
      "ission": 1128,
      "Connection": 1129,
      "Ġthis": 1130,
      "Argument": 1131,
      "query": 1132,
      "Command": 1133,
      "Server": 1134,
      "Int": 1135,
      "AA": 1136,
      "Task": 1137,
      "ffset": 1138,
      "ĠCon": 1139,
      "ptor": 1140,
      "Ġun": 1141,
      "Metadata": 1142,
      "eters": 1143,
      "base": 1144,
      "ql": 1145,
      "assertEquals": 1146,
      "MP": 1147,
      "ĠHttp": 1148,
      "ould": 1149,
      "file": 1150,
      "ribut": 1151,
      "SER": 1152,
      "ody": 1153,
      "build": 1154,
      "Empty": 1155,
      "ram": 1156,
      "irect": 1157,
      "ool": 1158,
      "Ġof": 1159,
      "MA": 1160,
      "FAULT": 1161,
      "Ġindex": 1162,
      "ave": 1163,
      "()).": 1164,
      "99": 1165,
      "rig": 1166,
      "raph": 1167,
      "Parameter": 1168,
      "Suppress": 1169,
      "Warnings": 1170,
      "ĠData": 1171,
      "KE": 1172,
      "Ġfile": 1173,
      "pr": 1174,
      "Job": 1175,
      "ternal": 1176,
      "10": 1177,
      "ains": 1178,
      "ite": 1179,
      "Ġdo": 1180,
      "Ġver": 1181,
      "Match": 1182,
      "com": 1183,
      "...": 1184,
      "TER": 1185,
      "work": 1186,
      "Dep": 1187,
      "finition": 1188,
      "then": 1189,
      "ĠCh": 1190,
      "stant": 1191,
      "ble": 1192,
      "End": 1193,
      "Ext": 1194,
      "Sub": 1195,
      "Spec": 1196,
      "Ġtrans": 1197,
      "Ġ5": 1198,
      "SuppressWarnings": 1199,
      "ync": 1200,
      "Dis": 1201,
      "any": 1202,
      "IZ": 1203,
      "Attribute": 1204,
      "mplet": 1205,
      "Update": 1206,
      "Number": 1207,
      "ification": 1208,
      "Options": 1209,
      "Ġpre": 1210,
      "bs": 1211,
      "valid": 1212,
      "word": 1213,
      "Get": 1214,
      "Ġ&": 1215,
      "check": 1216,
      "py": 1217,
      "Ġwhen": 1218,
      "Serv": 1219,
      "size": 1220,
      "annel": 1221,
      "point": 1222,
      "iter": 1223,
      "ptional": 1224,
      "long": 1225,
      "Ġtry": 1226,
      "Char": 1227,
      "sumer": 1228,
      "Names": 1229,
      "Reference": 1230,
      "Sec": 1231,
      "Mapper": 1232,
      "rl": 1233,
      "TO": 1234,
      "Cap": 1235,
      "code": 1236,
      "Bytes": 1237,
      "Schema": 1238,
      "Ġcatch": 1239,
      "ĠLOG": 1240,
      "<>();": 1241,
      "utable": 1242,
      "use": 1243,
      "Action": 1244,
      "ible": 1245,
      "erial": 1246,
      "ual": 1247,
      "Unit": 1248,
      "abel": 1249,
      "col": 1250,
      "irst": 1251,
      "Ġpath": 1252,
      "Ġfrom": 1253,
      "ENT": 1254,
      "pic": 1255,
      "Control": 1256,
      "Access": 1257,
      "ĠLong": 1258,
      "Ġ\\\"": 1259,
      "Ġac": 1260,
      "Ġresponse": 1261,
      "LO": 1262,
      "Ġmap": 1263,
      "ĠDate": 1264,
      "comp": 1265,
      "vert": 1266,
      "VAL": 1267,
      "Ġinstance": 1268,
      "Block": 1269,
      "Hel": 1270,
      "ĠHash": 1271,
      "Container": 1272,
      "System": 1273,
      "Ġstr": 1274,
      "Ġstart": 1275,
      "ature": 1276,
      "Text": 1277,
      "Vis": 1278,
      "Del": 1279,
      "thenReturn": 1280,
      "ypes": 1281,
      "ĠDE": 1282,
      "Inject": 1283,
      "fix": 1284,
      "At": 1285,
      "ild": 1286,
      "DA": 1287,
      "lete": 1288,
      "uture": 1289,
      "Mod": 1290,
      "ĠResponse": 1291,
      "Tr": 1292,
      "PRO": 1293,
      "ency": 1294,
      "abled": 1295,
      "Default": 1296,
      "line": 1297,
      "Ġread": 1298,
      "Ġal": 1299,
      "TYPE": 1300,
      "Ġarg": 1301,
      "Values": 1302,
      "aders": 1303,
      "Component": 1304,
      "AB": 1305,
      "eb": 1306,
      "Ġcom": 1307,
      "ron": 1308,
      "itor": 1309,
      "Definition": 1310,
      "ping": 1311,
      "etwork": 1312,
      "Url": 1313,
      "Ġinput": 1314,
      "Ġ&&": 1315,
      "Ġen": 1316,
      "imal": 1317,
      "Hash": 1318,
      "Ġsuper": 1319,
      "ight": 1320,
      "ermission": 1321,
      "Ġap": 1322,
      "64": 1323,
      "Ġ->": 1324,
      "append": 1325,
      "Template": 1326,
      "PER": 1327,
      "equals": 1328,
      "Operation": 1329,
      "be": 1330,
      "Ġro": 1331,
      "ender": 1332,
      "Aut": 1333,
      "Ro": 1334,
      "Order": 1335,
      "Ġtime": 1336,
      "min": 1337,
      "vel": 1338,
      "Ġchar": 1339,
      "legal": 1340,
      "edia": 1341,
      "getLogger": 1342,
      "stract": 1343,
      "ĠLog": 1344,
      "Ġcase": 1345,
      "osition": 1346,
      "Ġparse": 1347,
      "io": 1348,
      "orted": 1349,
      "Ġverify": 1350,
      "bstract": 1351,
      "ĠCo": 1352,
      "},": 1353,
      "la": 1354,
      "Buffer": 1355,
      "Ġpropert": 1356,
      "Ġfield": 1357,
      "PA": 1358,
      "air": 1359,
      "Det": 1360,
      "dition": 1361,
      "af": 1362,
      "Ġ|": 1363,
      "Ġ_": 1364,
      "ps": 1365,
      "gin": 1366,
      "reg": 1367,
      "Ġmax": 1368,
      "Ġquery": 1369,
      "ream": 1370,
      "llegal": 1371,
      "http": 1372,
      "11": 1373,
      "oin": 1374,
      "Record": 1375,
      "ĠUser": 1376,
      "ributes": 1377,
      "length": 1378,
      "02": 1379,
      "Pl": 1380,
      "resent": 1381,
      "ifi": 1382,
      "Ġatt": 1383,
      "Produ": 1384,
      "val": 1385,
      "Ġfind": 1386,
      "gress": 1387,
      "ĠX": 1388,
      "ond": 1389,
      "ĠOptional": 1390,
      "Ġdefault": 1391,
      "Gener": 1392,
      "Location": 1393,
      "CATION": 1394,
      "Session": 1395,
      "ample": 1396,
      "Ġk": 1397,
      "olicy": 1398,
      "Tag": 1399,
      "imple": 1400,
      "assword": 1401,
      "Ġsource": 1402,
      "ient": 1403,
      "UN": 1404,
      "Row": 1405,
      "ĠType": 1406,
      "Output": 1407,
      "Document": 1408,
      "andle": 1409,
      "Ġremove": 1410,
      "Header": 1411,
      "vir": 1412,
      "Ġreg": 1413,
      "ayer": 1414,
      "NO": 1415,
      "Helper": 1416,
      "TI": 1417,
      "Ġwith": 1418,
      "TH": 1419,
      "',": 1420,
      "toString": 1421,
      "Ġexpected": 1422,
      "ĠTh": 1423,
      "ustom": 1424,
      "\"),": 1425,
      "Types": 1426,
      "Ġhas": 1427,
      "return": 1428,
      "ative": 1429,
      "double": 1430,
      "Vari": 1431,
      "ĠSt": 1432,
      "face": 1433,
      "ava": 1434,
      "Boolean": 1435,
      "ĠArrayList": 1436,
      "lose": 1437,
      "56": 1438,
      "orage": 1439,
      "ee": 1440,
      "viron": 1441,
      "TR": 1442,
      "vironment": 1443,
      "izer": 1444,
      "ĠDe": 1445,
      "Ġshould": 1446,
      "Byte": 1447,
      "amp": 1448,
      "LA": 1449,
      "Ġy": 1450,
      "ector": 1451,
      "ĠAp": 1452,
      "Que": 1453,
      "clu": 1454,
      "Ġnode": 1455,
      "Ġtarget": 1456,
      "ĠMet": 1457,
      "lector": 1458,
      "Line": 1459,
      "Sched": 1460,
      "ension": 1461,
      "scri": 1462,
      "ĠJson": 1463,
      "oriz": 1464,
      "ĠByte": 1465,
      "ential": 1466,
      "ark": 1467,
      "Act": 1468,
      "ms": 1469,
      "ply": 1470,
      "uct": 1471,
      "lation": 1472,
      "sing": 1473,
      "ayment": 1474,
      "Ed": 1475,
      "cept": 1476,
      "Ġfloat": 1477,
      "Parser": 1478,
      "public": 1479,
      "iles": 1480,
      "ĠBoolean": 1481,
      "verter": 1482,
      "itial": 1483,
      "ĠIN": 1484,
      "urity": 1485,
      "oot": 1486,
      "rim": 1487,
      "Ġ\"/": 1488,
      "Sc": 1489,
      "Ġdelete": 1490,
      "mb": 1491,
      "Ag": 1492,
      "Ġ6": 1493,
      "Host": 1494,
      "ĠBig": 1495,
      "Double": 1496,
      "JSON": 1497,
      "Reader": 1498,
      "CK": 1499,
      "[][]": 1500,
      "DAO": 1501,
      "Ġhe": 1502,
      "Callback": 1503,
      "Mapping": 1504,
      "VER": 1505,
      "Ġresource": 1506,
      "gment": 1507,
      "mmutable": 1508,
      "notation": 1509,
      "KEY": 1510,
      "ens": 1511,
      "ML": 1512,
      "entifier": 1513,
      "gram": 1514,
      "EL": 1515,
      "uf": 1516,
      "ĠPath": 1517,
      "redicate": 1518,
      "Run": 1519,
      "Parameters": 1520,
      "IL": 1521,
      "getName": 1522,
      "Descriptor": 1523,
      "EX": 1524,
      "Decimal": 1525,
      "Resol": 1526,
      "Tim": 1527,
      "ility": 1528,
      "boolean": 1529,
      "Ġevent": 1530,
      "quired": 1531,
      "quence": 1532,
      "ĠassertTrue": 1533,
      "Search": 1534,
      "Ġand": 1535,
      "34": 1536,
      "with": 1537,
      "Ġsub": 1538,
      "Detail": 1539,
      "UID": 1540,
      "000": 1541,
      "ĠPar": 1542,
      "Ġvalidate": 1543,
      "ivity": 1544,
      "Ġservice": 1545,
      "url": 1546,
      "Serial": 1547,
      "server": 1548,
      "pen": 1549,
      "Ġend": 1550,
      "acao": 1551,
      "Body": 1552,
      "Range": 1553,
      "ke": 1554,
      "map": 1555,
      "chron": 1556,
      "Is": 1557,
      "Iter": 1558,
      "Ġobject": 1559,
      "Autow": 1560,
      "Description": 1561,
      "Ġprocess": 1562,
      "Autowired": 1563,
      "ict": 1564,
      "ynchron": 1565,
      "uc": 1566,
      "reak": 1567,
      "mage": 1568,
      "Ġas": 1569,
      "ecute": 1570,
      "UP": 1571,
      "Ġfilter": 1572,
      "PO": 1573,
      "Per": 1574,
      "ĠRequest": 1575,
      "ĠDEFAULT": 1576,
      "\\\",": 1577,
      "Sp": 1578,
      "uler": 1579,
      "Point": 1580,
      "true": 1581,
      "Servlet": 1582,
      "://": 1583,
      "Ġerror": 1584,
      "SH": 1585,
      "Mem": 1586,
      "ĠLoggerFactory": 1587,
      "Future": 1588,
      "erver": 1589,
      "data": 1590,
      "ĠDouble": 1591,
      "type": 1592,
      "Length": 1593,
      "Throw": 1594,
      "Work": 1595,
      "Ġform": 1596,
      "Ġmethod": 1597,
      "Ġauth": 1598,
      "Start": 1599,
      "DI": 1600,
      "expected": 1601,
      "Expression": 1602,
      "Ġ>": 1603,
      "32": 1604,
      "UM": 1605,
      "plier": 1606,
      "irectory": 1607,
      "omain": 1608,
      "aint": 1609,
      "Port": 1610,
      "Base": 1611,
      "checked": 1612,
      "Create": 1613,
      "Ġclient": 1614,
      ")).": 1615,
      "URL": 1616,
      "Enabled": 1617,
      "16": 1618,
      "pect": 1619,
      "ĠIter": 1620,
      "ages": 1621,
      "Region": 1622,
      "Writer": 1623,
      "=\\\"": 1624,
      "redential": 1625,
      "ake": 1626,
      "Ġitem": 1627,
      "Project": 1628,
      "ĠRE": 1629,
      "DO": 1630,
      "entry": 1631,
      "Permission": 1632,
      "Ġact": 1633,
      "Uri": 1634,
      "ĠLocal": 1635,
      "Ġstate": 1636,
      "Ġ(!": 1637,
      "No": 1638,
      "False": 1639,
      "mock": 1640,
      "bj": 1641,
      "PAT": 1642,
      "other": 1643,
      "ĠTrans": 1644,
      "ade": 1645,
      "ĠMock": 1646,
      "ources": 1647,
      "Ġentity": 1648,
      "ox": 1649,
      "met": 1650,
      "contains": 1651,
      "Dir": 1652,
      "Ġbuild": 1653,
      "ĠHashMap": 1654,
      "escription": 1655,
      "ĠPattern": 1656,
      "rid": 1657,
      "Loader": 1658,
      "Partition": 1659,
      "Page": 1660,
      "Level": 1661,
      "cated": 1662,
      "Mult": 1663,
      "ft": 1664,
      "po": 1665,
      "unchecked": 1666,
      "Controller": 1667,
      "Validator": 1668,
      "VALUE": 1669,
      "ĠIllegal": 1670,
      "ision": 1671,
      "Dao": 1672,
      "private": 1673,
      "Link": 1674,
      "Ġcurrent": 1675,
      "Registry": 1676,
      "Ids": 1677,
      "Queue": 1678,
      "Tree": 1679,
      "Account": 1680,
      "URI": 1681,
      "\").": 1682,
      "atcher": 1683,
      "IAL": 1684,
      "Equal": 1685,
      "Application": 1686,
      "ick": 1687,
      "Metric": 1688,
      "Ġlogger": 1689,
      "Mode": 1690,
      "APP": 1691,
      "Pr": 1692,
      "Visible": 1693,
      "Ġgroup": 1694,
      "this": 1695,
      "ie": 1696,
      "ArgumentException": 1697,
      "OException": 1698,
      "Constant": 1699,
      "result": 1700,
      "Label": 1701,
      "ĠResource": 1702,
      "parse": 1703,
      "Policy": 1704,
      "cope": 1705,
      "cript": 1706,
      "xy": 1707,
      "ĠComp": 1708,
      "Case": 1709,
      "Fac": 1710,
      "Cluster": 1711,
      "Read": 1712,
      "GER": 1713,
      "Ġ7": 1714,
      "apter": 1715,
      "PAR": 1716,
      "Pack": 1717,
      "ategy": 1718,
      "ptions": 1719,
      "If": 1720,
      "lob": 1721,
      "Ġ};": 1722,
      "rc": 1723,
      "ide": 1724,
      "Ġwrite": 1725,
      "vice": 1726,
      "Exp": 1727,
      "Ġ||": 1728,
      "Ass": 1729,
      "Ġtable": 1730,
      "place": 1731,
      "andom": 1732,
      "request": 1733,
      "Ġcolumn": 1734,
      "Ġpart": 1735,
      "Ġconvert": 1736,
      "bug": 1737,
      "Ġcall": 1738,
      "ediaType": 1739,
      "vo": 1740,
      "MENT": 1741,
      "cip": 1742,
      "Max": 1743,
      "ipe": 1744,
      "entication": 1745,
      "cul": 1746,
      "Executor": 1747,
      "50": 1748,
      "Ġim": 1749,
      "AM": 1750,
      "formation": 1751,
      "iled": 1752,
      "Ġcomm": 1753,
      "Params": 1754,
      "ĠFunction": 1755,
      "for": 1756,
      "estamp": 1757,
      "TT": 1758,
      "Ġ/": 1759,
      "80": 1760,
      "ization": 1761,
      "ynchronized": 1762,
      "FF": 1763,
      "loy": 1764,
      "ĠTest": 1765,
      "Ġcontent": 1766,
      "erson": 1767,
      "Cal": 1768,
      "ĠExpression": 1769,
      "old": 1770,
      "PRE": 1771,
      "Ġte": 1772,
      "Sequence": 1773,
      "Ref": 1774,
      "rix": 1775,
      "</": 1776,
      "ister": 1777,
      "ified": 1778,
      "()));": 1779,
      "Converter": 1780,
      "Identifier": 1781,
      "Ġle": 1782,
      "og": 1783,
      "path": 1784,
      "Ġgener": 1785,
      "ĠConfiguration": 1786,
      "Ġby": 1787,
      "plit": 1788,
      "Statement": 1789,
      "((": 1790,
      "DateTime": 1791,
      "ib": 1792,
      "ell": 1793,
      "TA": 1794,
      "Headers": 1795,
      "Target": 1796,
      "unter": 1797,
      "Report": 1798,
      "Ġdis": 1799,
      "Ġdate": 1800,
      "current": 1801,
      "Lock": 1802,
      "Testing": 1803,
      "imit": 1804,
      "atrix": 1805,
      "Annotation": 1806,
      "has": 1807,
      "clude": 1808,
      "ination": 1809,
      "Ġan": 1810,
      "Capt": 1811,
      "Pattern": 1812,
      "eature": 1813,
      "ĠNode": 1814,
      "ise": 1815,
      "lugin": 1816,
      "df": 1817,
      "Graph": 1818,
      "etch": 1819,
      "etry": 1820,
      "ĠImmutable": 1821,
      "Ġsynchronized": 1822,
      "ics": 1823,
      "Folder": 1824,
      "ome": 1825,
      "(\"/": 1826,
      "sg": 1827,
      "ABLE": 1828,
      "Attributes": 1829,
      "ical": 1830,
      "Ġproject": 1831,
      "Ġbl": 1832,
      "15": 1833,
      "ray": 1834,
      "recated": 1835,
      "LICATION": 1836,
      "Image": 1837,
      "Change": 1838,
      "QL": 1839,
      "Ġconnect": 1840,
      "ration": 1841,
      "FOR": 1842,
      "Interface": 1843,
      "tings": 1844,
      "STR": 1845,
      "sub": 1846,
      "db": 1847,
      "ĠDefault": 1848,
      "Us": 1849,
      "Offset": 1850,
      "SC": 1851,
      "ĠtoString": 1852,
      "FIX": 1853,
      "Endpoint": 1854,
      "ategory": 1855,
      "Ġproperty": 1856,
      "22": 1857,
      "Deprecated": 1858,
      "Details": 1859,
      "aw": 1860,
      "Ġbuilder": 1861,
      "list": 1862,
      "Execution": 1863,
      "undle": 1864,
      "Role": 1865,
      "Processor": 1866,
      "Proto": 1867,
      "Environment": 1868,
      "Mon": 1869,
      "14": 1870,
      "LOG": 1871,
      "pc": 1872,
      "ities": 1873,
      "Enum": 1874,
      "Ġlength": 1875,
      "ForTesting": 1876,
      "org": 1877,
      "ĠZ": 1878,
      "ices": 1879,
      "Pol": 1880,
      "Channel": 1881,
      "Ġsec": 1882,
      "Ar": 1883,
      "untime": 1884,
      "DS": 1885,
      "Ġtoken": 1886,
      "ĠMessage": 1887,
      "Ġz": 1888,
      "Solic": 1889,
      "Present": 1890,
      "Pair": 1891,
      "SO": 1892,
      "VE": 1893,
      "play": 1894,
      "uid": 1895,
      "Strategy": 1896,
      "Ġbreak": 1897,
      "Sign": 1898,
      "ito": 1899,
      "VisibleForTesting": 1900,
      "Thread": 1901,
      "mote": 1902,
      "TIME": 1903,
      "Ġout": 1904,
      "201": 1905,
      "lag": 1906,
      "Ġjob": 1907,
      "false": 1908,
      "Ġenc": 1909,
      "Ġclass": 1910,
      "Resolver": 1911,
      "Network": 1912,
      "Prefix": 1913,
      "PT": 1914,
      "Buf": 1915,
      "BU": 1916,
      "flow": 1917,
      "20": 1918,
      "IZED": 1919,
      "ĠEntity": 1920,
      "Variable": 1921,
      "MS": 1922,
      "Delet": 1923,
      "Ġ{}": 1924,
      "Fields": 1925,
      "Ġelement": 1926,
      "getValue": 1927,
      "config": 1928,
      "Wid": 1929,
      "start": 1930,
      "Consumer": 1931,
      "iod": 1932,
      "Ġformat": 1933,
      "ush": 1934,
      "Ġinter": 1935,
      "ĠTime": 1936,
      "illis": 1937,
      "resh": 1938,
      "endar": 1939,
      "Back": 1940,
      "dd": 1941,
      "uccess": 1942,
      "Ġlocal": 1943,
      "Ġoffset": 1944,
      "Scheduler": 1945,
      "App": 1946,
      "odes": 1947,
      "Ġcache": 1948,
      "Notification": 1949,
      "\\\":\\\"": 1950,
      "CHE": 1951,
      "ĠgetS": 1952,
      "Topic": 1953,
      "89": 1954,
      "cl": 1955,
      "ish": 1956,
      "ĠAt": 1957,
      "IC": 1958,
      "Ġsession": 1959,
      "ailed": 1960,
      "Ġem": 1961,
      "Ġtask": 1962,
      "Ġurl": 1963,
      "Solicit": 1964,
      "Out": 1965,
      "not": 1966,
      "ingle": 1967,
      "isEmpty": 1968,
      "55": 1969,
      "DATE": 1970,
      "19": 1971,
      "ported": 1972,
      "TERN": 1973,
      "Constants": 1974,
      "ocket": 1975,
      "ĠElement": 1976,
      "Ġinstanceof": 1977,
      "AC": 1978,
      "ubject": 1979,
      "FILE": 1980,
      "++": 1981,
      "Pool": 1982,
      "Chang": 1983,
      "ns": 1984,
      "Captor": 1985,
      "InputStream": 1986,
      "Ġhandle": 1987,
      "Root": 1988,
      "13": 1989,
      "APPLICATION": 1990,
      "very": 1991,
      "Ġstring": 1992,
      "esc": 1993,
      "space": 1994,
      "shot": 1995,
      "format": 1996,
      "AGE": 1997,
      "nap": 1998,
      "iment": 1999,
      "AAAA": 2000,
      "annotation": 2001,
      "Support": 2002,
      "Ġhash": 2003,
      "ĠIOException": 2004,
      "itle": 2005,
      "Ġtext": 2006,
      "ĠgetC": 2007,
      "loud": 2008,
      "Bean": 2009,
      "Ġvalues": 2010,
      "amed": 2011,
      "Ġtim": 2012,
      "GET": 2013,
      "Storage": 2014,
      "ipeline": 2015,
      "Ġoutput": 2016,
      "straint": 2017,
      "aly": 2018,
      ">\"": 2019,
      "Module": 2020,
      "ĠService": 2021,
      "Ġexecut": 2022,
      "aa": 2023,
      "Ġjson": 2024,
      "INT": 2025,
      "valu": 2026,
      "Cons": 2027,
      "greg": 2028,
      "wner": 2029,
      "ld": 2030,
      "Directory": 2031,
      "eg": 2032,
      "table": 2033,
      "New": 2034,
      "led": 2035,
      "stream": 2036,
      "ĠQuery": 2037,
      "Ġmin": 2038,
      "18": 2039,
      "Ġload": 2040,
      "sp": 2041,
      "IG": 2042,
      "gn": 2043,
      "ITY": 2044,
      "perator": 2045,
      "IALIZED": 2046,
      "CTION": 2047,
      "Ġwh": 2048,
      "Generator": 2049,
      "incip": 2050,
      "wer": 2051,
      "atas": 2052,
      "rapper": 2053,
      "ctx": 2054,
      "ormal": 2055,
      "incipal": 2056,
      "ret": 2057,
      "----": 2058,
      "logy": 2059,
      "QU": 2060,
      "Position": 2061,
      "Adapter": 2062,
      "Facade": 2063,
      "::": 2064,
      "IZE": 2065,
      "Ġ10": 2066,
      "string": 2067,
      "Ġad": 2068,
      "Ġparent": 2069,
      "ank": 2070,
      "ape": 2071,
      "redentials": 2072,
      "kip": 2073,
      "ĠSystem": 2074,
      "wit": 2075,
      "()))": 2076,
      "napshot": 2077,
      "Last": 2078,
      "Ġcan": 2079,
      "Ġversion": 2080,
      "US": 2081,
      "ved": 2082,
      "ĠMult": 2083,
      "cer": 2084,
      "bserv": 2085,
      "Big": 2086,
      "ersist": 2087,
      "Keys": 2088,
      "uck": 2089,
      "Term": 2090,
      "Solicitacao": 2091,
      "];": 2092,
      "Imp": 2093,
      "Ġall": 2094,
      "Cur": 2095,
      "getId": 2096,
      "Ġsize": 2097,
      "iven": 2098,
      "17": 2099,
      "ĠBigDecimal": 2100,
      "33": 2101,
      "lear": 2102,
      "ta": 2103,
      "ertif": 2104,
      "ĠSe": 2105,
      "indow": 2106,
      "its": 2107,
      "write": 2108,
      "DEFAULT": 2109,
      "Child": 2110,
      "Ġserver": 2111,
      "Ġfirst": 2112,
      "umm": 2113,
      "print": 2114,
      "Ġ},": 2115,
      ">();": 2116,
      "Ġdescription": 2117,
      "ĠChar": 2118,
      "Ġmatch": 2119,
      "lex": 2120,
      "ables": 2121,
      "DB": 2122,
      "from": 2123,
      "otal": 2124,
      "Ġwork": 2125,
      "Ġass": 2126,
      "ertificate": 2127,
      "ATA": 2128,
      "Ġserial": 2129,
      "Step": 2130,
      "zz": 2131,
      "urrency": 2132,
      "Matcher": 2133,
      "ker": 2134,
      "ERR": 2135,
      "ĠAn": 2136,
      "Exame": 2137,
      "store": 2138,
      "getS": 2139,
      "UB": 2140,
      "ions": 2141,
      "04": 2142,
      "omic": 2143,
      "asList": 2144,
      "24": 2145,
      "Files": 2146,
      "ymb": 2147,
      "Ġmodel": 2148,
      "ĠAuth": 2149,
      "RA": 2150,
      "ucket": 2151,
      "VI": 2152,
      "Ġany": 2153,
      "Ġcluster": 2154,
      "Fr": 2155,
      "84": 2156,
      "Ġschema": 2157,
      "ations": 2158,
      "ĠgetP": 2159,
      "Ġorg": 2160,
      "Ver": 2161,
      "Ġuri": 2162,
      "Ġrun": 2163,
      "ayload": 2164,
      "Word": 2165,
      "ĠValue": 2166,
      "fore": 2167,
      "EqualTo": 2168,
      "Ġexception": 2169,
      "Ġthat": 2170,
      "ĠJSON": 2171,
      "Exist": 2172,
      "aster": 2173,
      "Stack": 2174,
      "Database": 2175,
      "Complet": 2176,
      ")));": 2177,
      "Ġcal": 2178,
      "Ġrep": 2179,
      "Ġrow": 2180,
      "yy": 2181,
      "ONE": 2182,
      "Min": 2183,
      "Ġput": 2184,
      "ĠSh": 2185,
      "Ġconfiguration": 2186,
      "Ġother": 2187,
      "Ġequals": 2188,
      "SIZE": 2189,
      "87": 2190,
      "uple": 2191,
      "MO": 2192,
      "Sql": 2193,
      "ries": 2194,
      "Assert": 2195,
      "Transform": 2196,
      "struct": 2197,
      "raw": 2198,
      "Flow": 2199,
      "Ġwe": 2200,
      "Color": 2201,
      "Ġobj": 2202,
      "eed": 2203,
      "Only": 2204,
      "bserver": 2205,
      "ĠIterable": 2206,
      "Ġvis": 2207,
      "Ġstream": 2208,
      "getC": 2209,
      "rs": 2210,
      "ich": 2211,
      "VO": 2212,
      "Timeout": 2213,
      "Ġlast": 2214,
      "Num": 2215,
      "find": 2216,
      "ared": 2217,
      "ĠInput": 2218,
      "omial": 2219,
      "ãĥ": 2220,
      "IP": 2221,
      "ĠClient": 2222,
      "witch": 2223,
      "86": 2224,
      "ServletRequest": 2225,
      "he": 2226,
      "host": 2227,
      "when": 2228,
      "SION": 2229,
      "Password": 2230,
      "Ġoptions": 2231,
      "Deleg": 2232,
      "Void": 2233,
      "ĠProperty": 2234,
      "version": 2235,
      "ik": 2236,
      "Enc": 2237,
      "<>(": 2238,
      "Profile": 2239,
      "Next": 2240,
      "auth": 2241,
      "36": 2242,
      "next": 2243,
      "Matrix": 2244,
      "Iterator": 2245,
      "Ġctx": 2246,
      "Ġus": 2247,
      "PROPER": 2248,
      "yle": 2249,
      "info": 2250,
      "HE": 2251,
      "Ġmod": 2252,
      "Web": 2253,
      "54": 2254,
      "PATH": 2255,
      "Ġtr": 2256,
      "Ġparams": 2257,
      "ORT": 2258,
      "Product": 2259,
      "Extension": 2260,
      "Down": 2261,
      "Ip": 2262,
      "ĠExpected": 2263,
      "ĠEvent": 2264,
      "Wrapper": 2265,
      "First": 2266,
      "index": 2267,
      "ename": 2268,
      "atient": 2269,
      "ĠKey": 2270,
      "Dist": 2271,
      "Dto": 2272,
      "Ġbase": 2273,
      "Progress": 2274,
      "plic": 2275,
      "Ġstatus": 2276,
      "ĠURI": 2277,
      "Ġhost": 2278,
      "Millis": 2279,
      "Ġarray": 2280,
      "Ġit": 2281,
      "way": 2282,
      "ERROR": 2283,
      "Payment": 2284,
      "duct": 2285,
      "context": 2286,
      "Information": 2287,
      "ĠIllegalArgumentException": 2288,
      "NE": 2289,
      "valueOf": 2290,
      "Ġprogram": 2291,
      "Bas": 2292,
      "ookup": 2293,
      "builder": 2294,
      "ending": 2295,
      "Ġinitial": 2296,
      "ments": 2297,
      "lazz": 2298,
      "Ġorder": 2299,
      "Rate": 2300,
      "Ġview": 2301,
      "ĠConfig": 2302,
      "Ġapplication": 2303,
      "MAX": 2304,
      "ymbol": 2305,
      "group": 2306,
      "Ġpl": 2307,
      "Ġat": 2308,
      "30": 2309,
      "az": 2310,
      "json": 2311,
      "ero": 2312,
      "Chain": 2313,
      "ĠSchema": 2314,
      "Settings": 2315,
      "ĠAc": 2316,
      "Async": 2317,
      "FORM": 2318,
      "ES": 2319,
      "Ġpr": 2320,
      "Ġcount": 2321,
      "Ġ,": 2322,
      "Supplier": 2323,
      "ĠAtomic": 2324,
      "ules": 2325,
      "Ġargs": 2326,
      "Scope": 2327,
      "ear": 2328,
      "PREFIX": 2329,
      "essages": 2330,
      "ynomial": 2331,
      "Internal": 2332,
      "Ġnumber": 2333,
      "37": 2334,
      "Assign": 2335,
      "39": 2336,
      "Fail": 2337,
      "ĠLOGGER": 2338,
      "ĠTE": 2339,
      "ATOR": 2340,
      "pre": 2341,
      "cre": 2342,
      "Ġnames": 2343,
      "Short": 2344,
      "ãģ": 2345,
      "The": 2346,
      "Validation": 2347,
      "ĠComplet": 2348,
      "Segment": 2349,
      "ĠStream": 2350,
      "order": 2351,
      "Condition": 2352,
      "ĠField": 2353,
      "Ġpage": 2354,
      "OUT": 2355,
      "fter": 2356,
      "ĠAbstract": 2357,
      "debug": 2358,
      "Ġvol": 2359,
      "Ġcopy": 2360,
      "Ġinit": 2361,
      "sert": 2362,
      "Ġ%": 2363,
      "isEqualTo": 2364,
      "Ign": 2365,
      "API": 2366,
      "getMessage": 2367,
      "param": 2368,
      "ĠCache": 2369,
      "view": 2370,
      "xml": 2371,
      "lot": 2372,
      "Ġproperties": 2373,
      "ability": 2374,
      "ures": 2375,
      "ĠArg": 2376,
      "ĠSimple": 2377,
      "inding": 2378,
      "Ġabstract": 2379,
      "ĠExpectedException": 2380,
      "SP": 2381,
      "iction": 2382,
      "Parent": 2383,
      "Def": 2384,
      "Ġorig": 2385,
      "empty": 2386,
      "00000000": 2387,
      "ause": 2388,
      "ority": 2389,
      "foo": 2390,
      "istics": 2391,
      "Ġaccount": 2392,
      "Ġtag": 2393,
      "Ġaction": 2394,
      "olve": 2395,
      "Ġret": 2396,
      "Ġentry": 2397,
      "DTO": 2398,
      "Conf": 2399,
      "Ġnext": 2400,
      "Ġconf": 2401,
      "Ġno": 2402,
      "assertTrue": 2403,
      "Ġhttp": 2404,
      "application": 2405,
      "enant": 2406,
      "Security": 2407,
      "ging": 2408,
      "Ġsearch": 2409,
      "25": 2410,
      "};": 2411,
      "STRING": 2412,
      "Vector": 2413,
      "Bound": 2414,
      "message": 2415,
      "Ġblock": 2416,
      "rie": 2417,
      "ĠDocument": 2418,
      "Write": 2419,
      "service": 2420,
      "AS": 2421,
      "ĠassertFalse": 2422,
      "\"))": 2423,
      "Second": 2424,
      "Vol": 2425,
      "process": 2426,
      "ait": 2427,
      "Layer": 2428,
      "Delete": 2429,
      "ences": 2430,
      "apt": 2431,
      "vail": 2432,
      "Ġcode": 2433,
      "ĠMockito": 2434,
      "angu": 2435,
      "OT": 2436,
      "ĠByteBuf": 2437,
      "ataset": 2438,
      "Subscri": 2439,
      "ĠBe": 2440,
      "ced": 2441,
      "lobal": 2442,
      "Ġrequired": 2443,
      "igh": 2444,
      "Post": 2445,
      "ped": 2446,
      "ANCE": 2447,
      "ume": 2448,
      "Ġaddress": 2449,
      "actor": 2450,
      "Inv": 2451,
      "Ġcommand": 2452,
      "sed": 2453,
      "ze": 2454,
      "yc": 2455,
      "Bit": 2456,
      "andard": 2457,
      "Rest": 2458,
      "ph": 2459,
      "27": 2460,
      "FIG": 2461,
      "Proxy": 2462,
      "PROPERTY": 2463,
      "ĠTask": 2464,
      "rade": 2465,
      "arator": 2466,
      "Ġroot": 2467,
      "Ġdest": 2468,
      "ection": 2469,
      "Ġapp": 2470,
      "inary": 2471,
      "box": 2472,
      "Ġref": 2473,
      "Ġ{\"": 2474,
      "eer": 2475,
      "QUE": 2476,
      "stat": 2477,
      "AX": 2478,
      "Amo": 2479,
      "vision": 2480,
      "ward": 2481,
      "ario": 2482,
      "MediaType": 2483,
      "UNT": 2484,
      "Build": 2485,
      "Ġiter": 2486,
      "ĠContext": 2487,
      "comm": 2488,
      "Ġare": 2489,
      "Resources": 2490,
      "ater": 2491,
      "oop": 2492,
      "update": 2493,
      "Ġregister": 2494,
      "Rece": 2495,
      "Load": 2496,
      "Ġnum": 2497,
      "tr": 2498,
      "MM": 2499,
      "ka": 2500,
      "Route": 2501,
      "iff": 2502,
      "ĠExecut": 2503,
      "afe": 2504,
      "Zone": 2505,
      "acter": 2506,
      "ãĤ": 2507,
      "Domain": 2508,
      "Items": 2509,
      "Ġgenerate": 2510,
      "Elements": 2511,
      "cent": 2512,
      "Stats": 2513,
      "Ġclose": 2514,
      "iteral": 2515,
      "lease": 2516,
      "Custom": 2517,
      "Ġ8": 2518,
      "sl": 2519,
      "Authoriz": 2520,
      "Bl": 2521,
      "Float": 2522,
      "Ġsc": 2523,
      "HashMap": 2524,
      "sc": 2525,
      "Ġconnection": 2526,
      "atal": 2527,
      "ableFuture": 2528,
      "Metrics": 2529,
      "PTION": 2530,
      "XML": 2531,
      "Ġcontains": 2532,
      "Ġexecute": 2533,
      "Ġsave": 2534,
      "TED": 2535,
      "Interval": 2536,
      "ĠParam": 2537,
      "Ġbuffer": 2538,
      "PI": 2539,
      "ĠTe": 2540,
      "Ġlistener": 2541,
      "arg": 2542,
      "ĠhashCode": 2543,
      "ĠAtt": 2544,
      "Socket": 2545,
      "char": 2546,
      "Changed": 2547,
      "gable": 2548,
      "erge": 2549,
      "Ġtopic": 2550,
      "Results": 2551,
      "match": 2552,
      "ĠUn": 2553,
      "Common": 2554,
      "TRI": 2555,
      "AND": 2556,
      "ĠJob": 2557,
      "Feature": 2558,
      "Ignore": 2559,
      "ĠInputStream": 2560,
      "200": 2561,
      "bservable": 2562,
      "PathParam": 2563,
      "Eng": 2564,
      "Open": 2565,
      "Track": 2566,
      "],": 2567,
      "HO": 2568,
      "Bundle": 2569,
      "ĠSER": 2570,
      "default": 2571,
      "orre": 2572,
      "field": 2573,
      "Ġactual": 2574,
      "77": 2575,
      "Ġfail": 2576,
      "ranch": 2577,
      "Polynomial": 2578,
      "Plugin": 2579,
      "Ġcallback": 2580,
      "down": 2581,
      "MIN": 2582,
      "float": 2583,
      "ASE": 2584,
      "ds": 2585,
      "Ġextract": 2586,
      "One": 2587,
      "29": 2588,
      "ifact": 2589,
      "23": 2590,
      "Ġparameters": 2591,
      "59": 2592,
      "filter": 2593,
      "USER": 2594,
      "Authentication": 2595,
      "ĠLink": 2596,
      "Script": 2597,
      "26": 2598,
      "IVE": 2599,
      "ific": 2600,
      "({": 2601,
      "Span": 2602,
      "mpor": 2603,
      "ĠApplication": 2604,
      "Mark": 2605,
      "RL": 2606,
      "propert": 2607,
      "Day": 2608,
      "md": 2609,
      "Ġattribute": 2610,
      "Struct": 2611,
      "ls": 2612,
      "source": 2613,
      "itu": 2614,
      "response": 2615,
      "ĠTEST": 2616,
      "Off": 2617,
      "Engine": 2618,
      "Ġsp": 2619,
      "ating": 2620,
      "ĠTo": 2621,
      "ĠStringBuilder": 2622,
      "Ġoperation": 2623,
      "ĠCollections": 2624,
      "Space": 2625,
      "DER": 2626,
      "ariate": 2627,
      "afka": 2628,
      "ĠCON": 2629,
      "ivariate": 2630,
      "we": 2631,
      "getClass": 2632,
      "ocation": 2633,
      "iki": 2634,
      "Ġdb": 2635,
      "ĠArgument": 2636,
      "Ġshort": 2637,
      "example": 2638,
      "Ġclazz": 2639,
      "Ġmetadata": 2640,
      "ayout": 2641,
      "88": 2642,
      "Ġcondition": 2643,
      "net": 2644,
      "Register": 2645,
      "rowable": 2646,
      "Ġexist": 2647,
      "Sens": 2648,
      "Groups": 2649,
      "Period": 2650,
      "cale": 2651,
      "CESS": 2652,
      "Timestamp": 2653,
      "IS": 2654,
      "Ġĉĉĉĉĉ": 2655,
      "content": 2656,
      "acity": 2657,
      "Ġ9": 2658,
      "Ġskip": 2659,
      "tex": 2660,
      "ĠArrays": 2661,
      "Transactional": 2662,
      "ĠInter": 2663,
      "Ġag": 2664,
      "riteria": 2665,
      "Ġparameter": 2666,
      "Ġrecord": 2667,
      "Ġbytes": 2668,
      "/{": 2669,
      "anguage": 2670,
      "ors": 2671,
      "Ġuse": 2672,
      "Ġsend": 2673,
      "ordin": 2674,
      "bar": 2675,
      "Limit": 2676,
      "ĠPredicate": 2677,
      "CODE": 2678,
      "Operator": 2679,
      "Ġexp": 2680,
      "Mo": 2681,
      "periment": 2682,
      "57": 2683,
      "Flag": 2684,
      "Observer": 2685,
      "cr": 2686,
      "Exames": 2687,
      "no": 2688,
      "part": 2689,
      "queue": 2690,
      "44": 2691,
      "rics": 2692,
      "Join": 2693,
      "Holder": 2694,
      "Ġargument": 2695,
      "wo": 2696,
      "66": 2697,
      "Ġline": 2698,
      "input": 2699,
      "connect": 2700,
      "ĠTable": 2701,
      "09": 2702,
      "Admin": 2703,
      "DATA": 2704,
      "Selector": 2705,
      "time": 2706,
      "Batch": 2707,
      "Can": 2708,
      "Extract": 2709,
      "Found": 2710,
      "Invalid": 2711,
      "==": 2712,
      "Ġprefix": 2713,
      "chedule": 2714,
      "compile": 2715,
      "ĠPre": 2716,
      "lowed": 2717,
      "Xml": 2718,
      "Device": 2719,
      ".\");": 2720,
      "ancel": 2721,
      "trans": 2722,
      "Statistics": 2723,
      "Ġmult": 2724,
      "INE": 2725,
      "Op": 2726,
      "Ġu": 2727,
      "Ġbody": 2728,
      "ADER": 2729,
      "Ġtemplate": 2730,
      "WOR": 2731,
      "Ġfunction": 2732,
      "pol": 2733,
      "Activity": 2734,
      "rypt": 2735,
      "ĠMethod": 2736,
      "\\\",\\\"": 2737,
      "Ġmsg": 2738,
      "{\\\"": 2739,
      "parator": 2740,
      "Cre": 2741,
      "IO": 2742,
      "orter": 2743,
      "ELD": 2744,
      "ĠResult": 2745,
      "getType": 2746,
      "ynam": 2747,
      "++)": 2748,
      "SET": 2749,
      "ĠAl": 2750,
      "getInstance": 2751,
      "sWith": 2752,
      "ALL": 2753,
      "nown": 2754,
      "Protocol": 2755,
      "cc": 2756,
      "Calcul": 2757,
      "Ġreader": 2758,
      "ports": 2759,
      "Ġsrc": 2760,
      "Ġ\"<": 2761,
      "END": 2762,
      "igned": 2763,
      "Contract": 2764,
      "ines": 2765,
      "ĠThrowable": 2766,
      "lected": 2767,
      "Failed": 2768,
      "Ġstore": 2769,
      "Success": 2770,
      "URCE": 2771,
      "Trace": 2772,
      "Nodes": 2773,
      "Ġ((": 2774,
      "Constraint": 2775,
      "ĠApi": 2776,
      "ĠVector": 2777,
      "Ġspec": 2778,
      "ApiModel": 2779,
      "ĠKE": 2780,
      "ferences": 2781,
      "////": 2782,
      "Ġrepository": 2783,
      "Ġdel": 2784,
      "river": 2785,
      "ĠtestGet": 2786,
      "Parse": 2787,
      "Full": 2788,
      "atalog": 2789,
      "ates": 2790,
      "Serialized": 2791,
      "eserial": 2792,
      "ApiModelProperty": 2793,
      "Relation": 2794,
      "ere": 2795,
      "Ġcollection": 2796,
      "vailable": 2797,
      "ured": 2798,
      "bers": 2799,
      "node": 2800,
      "Ġencode": 2801,
      "ww": 2802,
      "Ġ\"\\\"": 2803,
      "Memory": 2804,
      "ĠSec": 2805,
      "Ġĉĉĉĉĉĉ": 2806,
      "Duration": 2807,
      "itive": 2808,
      "ĠProperties": 2809,
      "Ġcomponent": 2810,
      "Category": 2811,
      "leton": 2812,
      "Ġ})": 2813,
      "Ġhandler": 2814,
      "Abs": 2815,
      "COL": 2816,
      "ĠdefaultValue": 2817,
      "remove": 2818,
      "Render": 2819,
      "Ġdocument": 2820,
      "SQL": 2821,
      "Ġper": 2822,
      "validate": 2823,
      "quire": 2824,
      "OB": 2825,
      "UTH": 2826,
      "tml": 2827,
      "SchedulerSupport": 2828,
      "Ġpassword": 2829,
      "round": 2830,
      "Consent": 2831,
      "Ġchild": 2832,
      "change": 2833,
      "ĠBlock": 2834,
      "ĠNumber": 2835,
      "ById": 2836,
      "ateway": 2837,
      "coder": 2838,
      "right": 2839,
      "Copy": 2840,
      "orld": 2841,
      "Ġcontainer": 2842,
      "UUID": 2843,
      "agement": 2844,
      "ting": 2845,
      "Ġwill": 2846,
      "ĠRepository": 2847,
      "max": 2848,
      "FO": 2849,
      "Checker": 2850,
      "Active": 2851,
      "Ġpost": 2852,
      "Args": 2853,
      "Ġvisit": 2854,
      "ached": 2855,
      "Produces": 2856,
      "Ġport": 2857,
      "uction": 2858,
      "etition": 2859,
      "Predicate": 2860,
      "QUEST": 2861,
      "inter": 2862,
      "roker": 2863,
      "Package": 2864,
      "Ġmem": 2865,
      "CONFIG": 2866,
      "Rol": 2867,
      "open": 2868,
      "ĠValid": 2869,
      "local": 2870,
      "Ġclear": 2871,
      "oding": 2872,
      "BO": 2873,
      "Fin": 2874,
      "TTLE": 2875,
      "})": 2876,
      "aged": 2877,
      "sql": 2878,
      "MPTY": 2879,
      "throw": 2880,
      "unk": 2881,
      "pm": 2882,
      "stack": 2883,
      "OK": 2884,
      "olute": 2885,
      "Ġdecode": 2886,
      "NOT": 2887,
      "ĠuserId": 2888,
      "Ġmust": 2889,
      "Ġhave": 2890,
      "Ġ*/": 2891,
      "Collector": 2892,
      "Pos": 2893,
      "JE": 2894,
      "Amount": 2895,
      "Ġprovider": 2896,
      "Me": 2897,
      "ren": 2898,
      "COMP": 2899,
      "Window": 2900,
      "ref": 2901,
      "loyment": 2902,
      "Ġheaders": 2903,
      "03": 2904,
      "100": 2905,
      "last": 2906,
      "ĠgetAll": 2907,
      "ORY": 2908,
      "ĠAs": 2909,
      "issing": 2910,
      "SSAGE": 2911,
      "ĠURL": 2912,
      "Optional": 2913,
      "cator": 2914,
      "api": 2915,
      "ning": 2916,
      "Certificate": 2917,
      "istory": 2918,
      "OutputStream": 2919,
      "Ġempty": 2920,
      "sTo": 2921,
      "nf": 2922,
      "ĠTransaction": 2923,
      "COUNT": 2924,
      "enu": 2925,
      ".\",": 2926,
      "Ind": 2927,
      "BY": 2928,
      "ycle": 2929,
      "Ġgiven": 2930,
      "ULL": 2931,
      "annot": 2932,
      "07": 2933,
      "ivariatePolynomial": 2934,
      "External": 2935,
      "iag": 2936,
      "iver": 2937,
      "ship": 2938,
      "ĠGener": 2939,
      "here": 2940,
      "06": 2941,
      "ilename": 2942,
      "Counter": 2943,
      "ĠBase": 2944,
      "Identity": 2945,
      "Ġtransform": 2946,
      "Ġvolat": 2947,
      "ious": 2948,
      "Ġdoc": 2949,
      "Ġsecond": 2950,
      "ĠMath": 2951,
      "ĠHashSet": 2952,
      "ived": 2953,
      "UST": 2954,
      "zeich": 2955,
      "Ret": 2956,
      "avax": 2957,
      "SOURCE": 2958,
      "Ġmeta": 2959,
      "Java": 2960,
      "struction": 2961,
      "Ġ\".": 2962,
      "pos": 2963,
      "ummary": 2964,
      "voke": 2965,
      "ĠassertNotNull": 2966,
      "zeichner": 2967,
      "client": 2968,
      "token": 2969,
      "Namespace": 2970,
      "Doc": 2971,
      "Ġreplace": 2972,
      "rigger": 2973,
      "NG": 2974,
      "udit": 2975,
      "getP": 2976,
      "urs": 2977,
      "ĠEX": 2978,
      "ĠAel": 2979,
      "apped": 2980,
      "SU": 2981,
      "ROUP": 2982,
      "Initial": 2983,
      "<?>>": 2984,
      "iation": 2985,
      "Ġ});": 2986,
      "ixed": 2987,
      "EC": 2988,
      "Are": 2989,
      "MetaData": 2990,
      "Ge": 2991,
      "Locale": 2992,
      "Connector": 2993,
      "ton": 2994,
      "Ġ?>": 2995,
      "Rout": 2996,
      "ĠBezeichner": 2997,
      "WN": 2998,
      "java": 2999,
      "ĠAdd": 3000,
      "Ġdep": 3001,
      "9999": 3002,
      "oned": 3003,
      "}\")": 3004,
      "Presenter": 3005,
      "TES": 3006,
      "ĠServer": 3007,
      "ado": 3008,
      "Ġed": 3009,
      "Ġtransaction": 3010,
      "ITION": 3011,
      "OP": 3012,
      "job": 3013,
      "Ġappend": 3014,
      "Ġqu": 3015,
      "Style": 3016,
      "CA": 3017,
      "Ġ/*": 3018,
      "Dest": 3019,
      "ĠInt": 3020,
      "Cell": 3021,
      "Ġapply": 3022,
      "Ġpartition": 3023,
      "FS": 3024,
      "Messages": 3025,
      "status": 3026,
      "Packet": 3027,
      "tempt": 3028,
      "target": 3029,
      "ĠAttribute": 3030,
      "event": 3031,
      "Ġfactory": 3032,
      "ĠProject": 3033,
      "rop": 3034,
      "Ġover": 3035,
      "Illegal": 3036,
      "by": 3037,
      "Ġval": 3038,
      "resource": 3039,
      "ĠPRO": 3040,
      "mission": 3041,
      "ART": 3042,
      "Display": 3043,
      "Var": 3044,
      "Ġoriginal": 3045,
      "Org": 3046,
      "su": 3047,
      "mit": 3048,
      "Pop": 3049,
      "ĠIterator": 3050,
      "Signature": 3051,
      "ariable": 3052,
      "BER": 3053,
      "FORMAT": 3054,
      "project": 3055,
      "VAR": 3056,
      "ason": 3057,
      "Runtime": 3058,
      "SerializedName": 3059,
      "Ġman": 3060,
      "CS": 3061,
      "itam": 3062,
      "ĠChannel": 3063,
      "mise": 3064,
      "Analy": 3065,
      "icle": 3066,
      "my": 3067,
      "vious": 3068,
      "ĠCall": 3069,
      ">()": 3070,
      "Owner": 3071,
      "Width": 3072,
      "ĠModel": 3073,
      "ĠWork": 3074,
      "ĠSup": 3075,
      "Widget": 3076,
      "'t": 3077,
      "Depend": 3078,
      "ĠOr": 3079,
      "ĠConnection": 3080,
      "Ġpack": 3081,
      "ote": 3082,
      "Com": 3083,
      "ied": 3084,
      "Schedule": 3085,
      "mod": 3086,
      "ĠParameter": 3087,
      "ĠConsumer": 3088,
      "Ġvolatile": 3089,
      "rivile": 3090,
      "TEST": 3091,
      "[]{": 3092,
      "ique": 3093,
      "PACE": 3094,
      "Ġwhile": 3095,
      "unc": 3096,
      "imum": 3097,
      "gori": 3098,
      "SolicitacaoExame": 3099,
      "Ġone": 3100,
      "CI": 3101,
      "javax": 3102,
      "Fn": 3103,
      "Ġpos": 3104,
      "74": 3105,
      "ged": 3106,
      "Orig": 3107,
      "Ġent": 3108,
      "Ġword": 3109,
      "gorith": 3110,
      "PUT": 3111,
      "so": 3112,
      "Ġlocation": 3113,
      "Email": 3114,
      ">\\": 3115,
      "ĠPr": 3116,
      "Ġpattern": 3117,
      "UTF": 3118,
      "Title": 3119,
      "35": 3120,
      "('": 3121,
      "Seconds": 3122,
      "Aggreg": 3123,
      "rant": 3124,
      "Ġtx": 3125,
      "iple": 3126,
      "Db": 3127,
      "Ġaccess": 3128,
      "ITE": 3129,
      "ln": 3130,
      "JECT": 3131,
      "Ġold": 3132,
      "NUM": 3133,
      "Extractor": 3134,
      "roll": 3135,
      "Single": 3136,
      "verify": 3137,
      "ored": 3138,
      "egative": 3139,
      "PATTERN": 3140,
      "ĠThread": 3141,
      "SERIALIZED": 3142,
      "eners": 3143,
      "Ġconsumer": 3144,
      "28": 3145,
      "}/": 3146,
      "Before": 3147,
      "Ġcompare": 3148,
      "Registration": 3149,
      "08": 3150,
      "Red": 3151,
      "Required": 3152,
      "mporary": 3153,
      "ĠMAX": 3154,
      "ĠSERIALIZED": 3155,
      "Throws": 3156,
      "When": 3157,
      "ĠProcess": 3158,
      "Snapshot": 3159,
      "lat": 3160,
      "Consum": 3161,
      "VERSION": 3162,
      "edi": 3163,
      "Ġwriter": 3164,
      "LOW": 3165,
      "Credentials": 3166,
      "cache": 3167,
      "ĠMediaType": 3168,
      "Sync": 3169,
      "CR": 3170,
      "Ph": 3171,
      "UND": 3172,
      "ArrayList": 3173,
      "Send": 3174,
      "ĠGet": 3175,
      "cp": 3176,
      "\"},": 3177,
      "XT": 3178,
      "Pipeline": 3179,
      "ĠLinked": 3180,
      "Iterable": 3181,
      "PORT": 3182,
      "Literal": 3183,
      "ĠTree": 3184,
      "Year": 3185,
      "ApiResponse": 3186,
      "IST": 3187,
      "Box": 3188,
      "Layout": 3189,
      "onedDateTime": 3190,
      "ĠBigInteger": 3191,
      "item": 3192,
      "Ġ100": 3193,
      "ynamic": 3194,
      "Bus": 3195,
      "utton": 3196,
      "Prim": 3197,
      "Serializer": 3198,
      "Person": 3199,
      "Ġsign": 3200,
      "bo": 3201,
      "dis": 3202,
      "Qual": 3203,
      "OF": 3204,
      "DataType": 3205,
      "Arguments": 3206,
      "ĠWeb": 3207,
      "MESSAGE": 3208,
      "Ġmake": 3209,
      "ories": 3210,
      "verse": 3211,
      "Calendar": 3212,
      "ĠCO": 3213,
      "ĠCommand": 3214,
      "Mail": 3215,
      ">,": 3216,
      "Ġsb": 3217,
      "><": 3218,
      "amil": 3219,
      "ĠLocalDate": 3220,
      "Card": 3221,
      "riority": 3222,
      "Editor": 3223,
      "ookie": 3224,
      "cheme": 3225,
      "ĠRo": 3226,
      "Ġfound": 3227,
      "gex": 3228,
      "VICE": 3229,
      "gorithm": 3230,
      "Ġheader": 3231,
      "none": 3232,
      "256": 3233,
      "Ġstack": 3234,
      "Ġ{}\",": 3235,
      "Ġattributes": 3236,
      "ĠState": 3237,
      "just": 3238,
      "Simple": 3239,
      "ACT": 3240,
      "Art": 3241,
      "fs": 3242,
      "Ġip": 3243,
      "sation": 3244,
      "ĠTim": 3245,
      "HEADER": 3246,
      "Ġnamespace": 3247,
      "VALID": 3248,
      "nable": 3249,
      "ĠUp": 3250,
      "execute": 3251,
      "upl": 3252,
      "Principal": 3253,
      "Member": 3254,
      "ĠToken": 3255,
      "After": 3256,
      "Ġtimeout": 3257,
      "icro": 3258,
      "STANCE": 3259,
      "covery": 3260,
      "irection": 3261,
      "ĠAction": 3262,
      "ĠParse": 3263,
      "Uns": 3264,
      "ceptor": 3265,
      "tual": 3266,
      "Ġresolve": 3267,
      "Msg": 3268,
      "ĠCompletableFuture": 3269,
      "ĠText": 3270,
      "ServiceImpl": 3271,
      "CRE": 3272,
      "\".": 3273,
      "delete": 3274,
      "ãĢ": 3275,
      "pted": 3276,
      "Bal": 3277,
      "05": 3278,
      "Current": 3279,
      "URE": 3280,
      "ii": 3281,
      "vas": 3282,
      "pare": 3283,
      "DataSource": 3284,
      "Ġam": 3285,
      "Failure": 3286,
      "ĠFI": 3287,
      "apache": 3288,
      "Wh": 3289,
      "Close": 3290,
      "POST": 3291,
      "Fetch": 3292,
      "{}": 3293,
      "Tx": 3294,
      "Ali": 3295,
      "Public": 3296,
      "We": 3297,
      "ĠObservable": 3298,
      "Ġannotation": 3299,
      "ĠIndex": 3300,
      "]);": 3301,
      "ĠMon": 3302,
      "JsonProperty": 3303,
      "FIELD": 3304,
      "Hex": 3305,
      "gr": 3306,
      "ĠImmutableList": 3307,
      "Pan": 3308,
      "uch": 3309,
      "aces": 3310,
      "Ġ\",": 3311,
      "76": 3312,
      "ution": 3313,
      "getProperty": 3314,
      "QueryParam": 3315,
      "Ġexecutor": 3316,
      "Symbol": 3317,
      "Obj": 3318,
      "TERNAL": 3319,
      "Services": 3320,
      "SCHE": 3321,
      "now": 3322,
      "iry": 3323,
      "MIT": 3324,
      "READ": 3325,
      "ometry": 3326,
      "getKey": 3327,
      "Ġexecution": 3328,
      "Formatter": 3329,
      "Same": 3330,
      "Agent": 3331,
      "ĠRuntime": 3332,
      "des": 3333,
      "Ġop": 3334,
      "Include": 3335,
      "123": 3336,
      "Ġprogress": 3337,
      "Arrays": 3338,
      "Ġcustom": 3339,
      "Dig": 3340,
      "ys": 3341,
      "Ġstep": 3342,
      "Ġcl": 3343,
      "ET": 3344,
      "Remote": 3345,
      "Ġopen": 3346,
      "AG": 3347,
      "aybe": 3348,
      "anis": 3349,
      "TEXT": 3350,
      "Edge": 3351,
      "culate": 3352,
      "79": 3353,
      "iness": 3354,
      "Ġregion": 3355,
      "Exists": 3356,
      "yg": 3357,
      "Ġdec": 3358,
      "Ġxml": 3359,
      "sec": 3360,
      "Ael": 3361,
      "Ġchannel": 3362,
      "Ġselect": 3363,
      "Ġunit": 3364,
      "Mocks": 3365,
      "Ġapi": 3366,
      "asure": 3367,
      "Binding": 3368,
      "Ġimage": 3369,
      "Ġmo": 3370,
      "BUG": 3371,
      "ĠSp": 3372,
      "Ġinclude": 3373,
      "Calculator": 3374,
      "println": 3375,
      "Total": 3376,
      "Ġexpression": 3377,
      "ĠY": 3378,
      "model": 3379,
      "ĠError": 3380,
      "CLA": 3381,
      "dbc": 3382,
      "Deco": 3383,
      "Monitor": 3384,
      "()),": 3385,
      "ws": 3386,
      "DD": 3387,
      "oom": 3388,
      "TTP": 3389,
      "Multi": 3390,
      "Ġtimes": 3391,
      "Ġequal": 3392,
      "Ġjoin": 3393,
      "Ġinfo": 3394,
      "ĠPart": 3395,
      "Ġsplit": 3396,
      "Ġleft": 3397,
      "assertThat": 3398,
      "CHAR": 3399,
      "andid": 3400,
      "aining": 3401,
      "ĠST": 3402,
      "ma": 3403,
      "ADD": 3404,
      "do": 3405,
      "ling": 3406,
      "avig": 3407,
      "Lookup": 3408,
      "SA": 3409,
      "Ġsql": 3410,
      "Ġreport": 3411,
      "ĠAd": 3412,
      "ĠEd": 3413,
      "SPACE": 3414,
      "38": 3415,
      "Runner": 3416,
      "ĠID": 3417,
      "ĠConcurrent": 3418,
      "agment": 3419,
      "ĠCal": 3420,
      "Master": 3421,
      "Ġback": 3422,
      "Ġstop": 3423,
      "AAAAAAAA": 3424,
      "PathVariable": 3425,
      "gle": 3426,
      "<?,": 3427,
      "Columns": 3428,
      "object": 3429,
      "Persist": 3430,
      "amily": 3431,
      "Factor": 3432,
      "anner": 3433,
      "structor": 3434,
      "used": 3435,
      "Plan": 3436,
      "achment": 3437,
      "REQUEST": 3438,
      "Ġright": 3439,
      "ene": 3440,
      "Respon": 3441,
      "stances": 3442,
      "cheduler": 3443,
      "Wiki": 3444,
      "Right": 3445,
      "GROUP": 3446,
      "sis": 3447,
      "Commit": 3448,
      "ĠLocale": 3449,
      "achine": 3450,
      "alth": 3451,
      "ãĢģ": 3452,
      "rt": 3453,
      "ĠgetD": 3454,
      "crement": 3455,
      "register": 3456,
      "ĠDis": 3457,
      "ĠPair": 3458,
      "location": 3459,
      "Summary": 3460,
      "state": 3461,
      "irtual": 3462,
      "Rel": 3463,
      "ont": 3464,
      "gener": 3465,
      "itional": 3466,
      "MI": 3467,
      "ribution": 3468,
      "ĠIp": 3469,
      "BigDecimal": 3470,
      "Throwable": 3471,
      "Ġlabel": 3472,
      "Tags": 3473,
      "singleton": 3474,
      "tag": 3475,
      "Ġfetch": 3476,
      "Bar": 3477,
      "eh": 3478,
      "Price": 3479,
      "Ġign": 3480,
      "Ġposition": 3481,
      "Import": 3482,
      "LS": 3483,
      "BE": 3484,
      "Ġmapper": 3485,
      "Ġgraph": 3486,
      "izable": 3487,
      "Ġwas": 3488,
      "Ġparser": 3489,
      "Immutable": 3490,
      "Bucket": 3491,
      "Series": 3492,
      "sv": 3493,
      "SERVER": 3494,
      "ĠProgress": 3495,
      "Named": 3496,
      "NONE": 3497,
      "Month": 3498,
      "stall": 3499,
      "man": 3500,
      "book": 3501,
      "description": 3502,
      "ok": 3503,
      "Random": 3504,
      "ĠResponseEntity": 3505,
      "Cl": 3506,
      "AUTH": 3507,
      "LENG": 3508,
      "orisation": 3509,
      "ĠContent": 3510,
      "ervlet": 3511,
      "Height": 3512,
      "Management": 3513,
      "].": 3514,
      "Ġpayment": 3515,
      "allet": 3516,
      "Ġnetwork": 3517,
      "ĠSub": 3518,
      "types": 3519,
      "ĠGroup": 3520,
      "ACK": 3521,
      "69": 3522,
      "uffix": 3523,
      "Criteria": 3524,
      "Ġrange": 3525,
      "ĠSession": 3526,
      "AST": 3527,
      "close": 3528,
      "idth": 3529,
      "ĠPage": 3530,
      "ĠPoint": 3531,
      "Entries": 3532,
      "ift": 3533,
      "ided": 3534,
      "arsh": 3535,
      "LENGTH": 3536,
      "icator": 3537,
      "Concept": 3538,
      "legate": 3539,
      "Ġdescri": 3540,
      "LED": 3541,
      "parent": 3542,
      "ServletResponse": 3543,
      "Ġ).": 3544,
      "ĠTr": 3545,
      "\")).": 3546,
      "Ġdatabase": 3547,
      "History": 3548,
      "ĠHe": 3549,
      "Ġrule": 3550,
      "Ġreference": 3551,
      "Ġchange": 3552,
      "Ġenvironment": 3553,
      "Delegator": 3554,
      "ĠXML": 3555,
      "ĠDateTime": 3556,
      "ĠCluster": 3557,
      "Do": 3558,
      "ridge": 3559,
      "ĠRun": 3560,
      "atures": 3561,
      "ready": 3562,
      "imension": 3563,
      "Errors": 3564,
      "ĠHttpServletRequest": 3565,
      "ĠAnnotation": 3566,
      "method": 3567,
      "')": 3568,
      "Cla": 3569,
      "ĠView": 3570,
      "Remove": 3571,
      "aml": 3572,
      "DEX": 3573,
      "task": 3574,
      "pology": 3575,
      "tocol": 3576,
      "ĠOrder": 3577,
      "eq": 3578,
      "eline": 3579,
      "HT": 3580,
      "Objects": 3581,
      "las": 3582,
      "ĠTop": 3583,
      "Ġmerge": 3584,
      "Ġ\"-": 3585,
      "Tool": 3586,
      "Transformer": 3587,
      "Supported": 3588,
      "Evalu": 3589,
      "ĠArgumentCaptor": 3590,
      "=\"": 3591,
      "Ġusername": 3592,
      "Ġdist": 3593,
      "atform": 3594,
      "Val": 3595,
      "Zero": 3596,
      "bor": 3597,
      "58": 3598,
      "WS": 3599,
      "ĠSupplier": 3600,
      "Hand": 3601,
      "Visitor": 3602,
      "sFor": 3603,
      "NotFound": 3604,
      "RESS": 3605,
      "--------": 3606,
      "49": 3607,
      "Ġnon": 3608,
      "lush": 3609,
      "SECON": 3610,
      "eta": 3611,
      "osite": 3612,
      "link": 3613,
      "Ġmark": 3614,
      "Ġcompute": 3615,
      "ReturnValue": 3616,
      "Ġreq": 3617,
      "Ms": 3618,
      "Select": 3619,
      "STAT": 3620,
      "Ġ[]": 3621,
      "ĠFilter": 3622,
      "call": 3623,
      "Seq": 3624,
      "TABLE": 3625,
      "Ax": 3626,
      "Ġlink": 3627,
      "ĠZonedDateTime": 3628,
      "uto": 3629,
      "Standard": 3630,
      "Disp": 3631,
      "ges": 3632,
      "ĠColumn": 3633,
      "ibr": 3634,
      "Character": 3635,
      "Listeners": 3636,
      "VersionUID": 3637,
      "Usage": 3638,
      "bc": 3639,
      "InjectMocks": 3640,
      "angle": 3641,
      "cel": 3642,
      "acy": 3643,
      "Capacity": 3644,
      "RY": 3645,
      "SK": 3646,
      "DEBUG": 3647,
      "Handle": 3648,
      "Ġlocale": 3649,
      "sent": 3650,
      "Ġmon": 3651,
      "ĠTimeUnit": 3652,
      "OM": 3653,
      "ĠserialVersionUID": 3654,
      "search": 3655,
      "run": 3656,
      "getString": 3657,
      "ampl": 3658,
      "rieve": 3659,
      "Ġrole": 3660,
      "ĠRest": 3661,
      "HttpServletRequest": 3662,
      "Rec": 3663,
      "Expr": 3664,
      "Cost": 3665,
      "exist": 3666,
      "Vertex": 3667,
      "Selection": 3668,
      "Absolute": 3669,
      "itude": 3670,
      "TAG": 3671,
      "ONG": 3672,
      "Ġlimit": 3673,
      "BigInteger": 3674,
      "ĠOutput": 3675,
      "RequestBody": 3676,
      "swer": 3677,
      "grade": 3678,
      "FIN": 3679,
      "Subject": 3680,
      "Desc": 3681,
      ".\";": 3682,
      "Ġ12": 3683,
      "sure": 3684,
      "Ġqueue": 3685,
      "iol": 3686,
      "Events": 3687,
      "[]>": 3688,
      "RAN": 3689,
      "nd": 3690,
      "Ġ\"\";": 3691,
      "Encoder": 3692,
      "ins": 3693,
      "Ġerrors": 3694,
      "ĠForm": 3695,
      "Users": 3696,
      "Timer": 3697,
      "compare": 3698,
      "ho": 3699,
      "Rules": 3700,
      "replace": 3701,
      "SCRI": 3702,
      "**": 3703,
      "vocation": 3704,
      "Ġproduct": 3705,
      "ground": 3706,
      "ĠSE": 3707,
      "Ġsupports": 3708,
      "ware": 3709,
      "ĠUUID": 3710,
      "ĠNetwork": 3711,
      "Ġowner": 3712,
      "valuate": 3713,
      "Ġiterator": 3714,
      "getStatus": 3715,
      "reshold": 3716,
      "Complete": 3717,
      "clus": 3718,
      "Available": 3719,
      "istic": 3720,
      "EventListener": 3721,
      ">>>": 3722,
      "FileName": 3723,
      "Disk": 3724,
      "anization": 3725,
      "bound": 3726,
      "OD": 3727,
      "ĠMetadata": 3728,
      "Ġ>=": 3729,
      "Comment": 3730,
      "Transport": 3731,
      "Ġ()": 3732,
      "509": 3733,
      "Ġstri": 3734,
      "Roles": 3735,
      "ĠSearch": 3736,
      "ĠJSONObject": 3737,
      "logger": 3738,
      "Each": 3739,
      "Pres": 3740,
      "Raw": 3741,
      "ses": 3742,
      "Abstract": 3743,
      "asic": 3744,
      "lan": 3745,
      "TENT": 3746,
      "Ġpermission": 3747,
      "expect": 3748,
      "SqlType": 3749,
      "instance": 3750,
      "Paths": 3751,
      "Branch": 3752,
      "Ġcontrol": 3753,
      "PARAM": 3754,
      "Shard": 3755,
      "Tuple": 3756,
      "first": 3757,
      "Ġsubscri": 3758,
      "Gateway": 3759,
      "Use": 3760,
      "values": 3761,
      "try": 3762,
      "ibility": 3763,
      "='": 3764,
      "utdown": 3765,
      "ĠtableName": 3766,
      "Dat": 3767,
      "hash": 3768,
      "SCHEMA": 3769,
      "ointer": 3770,
      "Ġauthoriz": 3771,
      "\\\",\\": 3772,
      "ritable": 3773,
      "\")));": 3774,
      "Frame": 3775,
      "ĠName": 3776,
      "Ġendpoint": 3777,
      "ĠJsonNode": 3778,
      "ĠgetName": 3779,
      "(?": 3780,
      "LINE": 3781,
      "__": 3782,
      "NS": 3783,
      "ĉĉĉĉ": 3784,
      "ended": 3785,
      "Peer": 3786,
      "21": 3787,
      "Ġonly": 3788,
      "ĠKEY": 3789,
      "Ġcomplet": 3790,
      "idor": 3791,
      "OLE": 3792,
      "warn": 3793,
      "ĠVAL": 3794,
      "Ġthen": 3795,
      "mt": 3796,
      "ĠgetF": 3797,
      "upported": 3798,
      "Edit": 3799,
      "ally": 3800,
      "CheckReturnValue": 3801,
      "ĠObjectMapper": 3802,
      "velo": 3803,
      "ĠGraph": 3804,
      "ĠGe": 3805,
      "rapped": 3806,
      "Collections": 3807,
      "Inf": 3808,
      "aded": 3809,
      "LETE": 3810,
      "Payload": 3811,
      "Binary": 3812,
      "Ġ1000": 3813,
      "Generic": 3814,
      "Panel": 3815,
      "ĠNO": 3816,
      "ĠAg": 3817,
      "CL": 3818,
      "eek": 3819,
      "ĠCheck": 3820,
      "CAL": 3821,
      "Ġsort": 3822,
      "Uuid": 3823,
      "ITH": 3824,
      "Ġresults": 3825,
      "Ġ\"\\": 3826,
      "AMP": 3827,
      "ToString": 3828,
      "enario": 3829,
      "ĠFuture": 3830,
      "Ġreset": 3831,
      "EW": 3832,
      "Ġq": 3833,
      "Sl": 3834,
      "IF": 3835,
      "Ġsubject": 3836,
      "Producer": 3837,
      "Encry": 3838,
      "vm": 3839,
      "1234": 3840,
      "67": 3841,
      "cat": 3842,
      "ful": 3843,
      "Ġregist": 3844,
      ")))": 3845,
      "substring": 3846,
      "Backup": 3847,
      "REF": 3848,
      "Diff": 3849,
      "Arch": 3850,
      "ĠContainer": 3851,
      "][": 3852,
      "anisation": 3853,
      ".<": 3854,
      "(-": 3855,
      "ĠCalendar": 3856,
      "Ġallow": 3857,
      "Sender": 3858,
      "Ġthrown": 3859,
      "LIST": 3860,
      "Ġfr": 3861,
      "util": 3862,
      "orrect": 3863,
      "Ġso": 3864,
      "VARI": 3865,
      "Has": 3866,
      "encies": 3867,
      "Artifact": 3868,
      "Split": 3869,
      "Ġinsert": 3870,
      "Ġlen": 3871,
      "imiter": 3872,
      ">(": 3873,
      "Ġdoes": 3874,
      "Than": 3875,
      "Restr": 3876,
      "ĠDataWord": 3877,
      "ĠDec": 3878,
      "Auto": 3879,
      "ARD": 3880,
      "MB": 3881,
      "ested": 3882,
      "eries": 3883,
      "Ġswitch": 3884,
      "Grid": 3885,
      "Ġne": 3886,
      "ND": 3887,
      "Attempt": 3888,
      "Components": 3889,
      "Curator": 3890,
      "ump": 3891,
      "ĠassertNull": 3892,
      "ublish": 3893,
      "topic": 3894,
      "ĠInstance": 3895,
      "known": 3896,
      "PS": 3897,
      ".\")": 3898,
      "NC": 3899,
      "Menu": 3900,
      "âĺ": 3901,
      "ItemSolicitacao": 3902,
      "Ġpoint": 3903,
      "Ġjava": 3904,
      "Ġrel": 3905,
      "INSTANCE": 3906,
      "Should": 3907,
      "card": 3908,
      "fc": 3909,
      "itivity": 3910,
      "names": 3911,
      "IME": 3912,
      "copy": 3913,
      "loc": 3914,
      "cluster": 3915,
      "ĠMan": 3916,
      "property": 3917,
      "Sample": 3918,
      "Loggable": 3919,
      "ĠgetUser": 3920,
      "Asset": 3921,
      "matcher": 3922,
      "ĠSorted": 3923,
      "Ġtotal": 3924,
      "root": 3925,
      "convert": 3926,
      "ĠItem": 3927,
      "Any": 3928,
      "vc": 3929,
      "ibrary": 3930,
      "sBy": 3931,
      "${": 3932,
      "TRAN": 3933,
      "Static": 3934,
      "RAY": 3935,
      "Delegate": 3936,
      "ĠBit": 3937,
      "[][][]": 3938,
      "Ġopt": 3939,
      "LIENT": 3940,
      "ĠAct": 3941,
      "Proced": 3942,
      "ĠCharSequence": 3943,
      "Ġ),": 3944,
      "Acl": 3945,
      "RED": 3946,
      "HA": 3947,
      "Ġmy": 3948,
      "Ġcalculate": 3949,
      "Left": 3950,
      "ĠSerial": 3951,
      "Media": 3952,
      "Ġ(\"": 3953,
      "les": 3954,
      "ount": 3955,
      "fail": 3956,
      "ulk": 3957,
      "Stop": 3958,
      "ĠRecord": 3959,
      "fined": 3960,
      "MAP": 3961,
      "Cloud": 3962,
      "Lif": 3963,
      "Commun": 3964,
      "mporaryFolder": 3965,
      "Strings": 3966,
      "CharSequence": 3967,
      "ense": 3968,
      "mrs": 3969,
      "RequestMapping": 3970,
      "Sort": 3971,
      "eatures": 3972,
      "RequestParam": 3973,
      "Ġshow": 3974,
      "ases": 3975,
      "Ġdown": 3976,
      "ĠDatabase": 3977,
      "âĺ¼": 3978,
      "apping": 3979,
      "CLASS": 3980,
      "Ġkeys": 3981,
      "FileSystem": 3982,
      "Blank": 3983,
      "ĠME": 3984,
      "Button": 3985,
      "Ġarguments": 3986,
      "getBytes": 3987,
      "ĠUri": 3988,
      "Real": 3989,
      "ĠDuration": 3990,
      "Lat": 3991,
      "Delay": 3992,
      "ĠSecurity": 3993,
      "Ġeq": 3994,
      "Dataset": 3995,
      "Ġremote": 3996,
      "ĠSql": 3997,
      "Basic": 3998,
      "wap": 3999,
      "aging": 4000,
      ")),": 4001,
      "Ġpredicate": 4002,
      "schema": 4003,
      "IGN": 4004,
      "tim": 4005,
      "enter": 4006,
      "isher": 4007,
      "Tri": 4008,
      "Allowed": 4009,
      "Ġrx": 4010,
      "ĠAccess": 4011,
      "ower": 4012,
      "Area": 4013,
      "ĠOperation": 4014,
      "Selected": 4015,
      "TIMEOUT": 4016,
      "ĠRuntimeException": 4017,
      "Comparator": 4018,
      "ricao": 4019,
      "ATED": 4020,
      "irm": 4021,
      "Ġraw": 4022,
      "ĠRandom": 4023,
      "ENCE": 4024,
      "ierarch": 4025,
      "Login": 4026,
      "apply": 4027,
      "Subscription": 4028,
      "Ġlock": 4029,
      "Program": 4030,
      "ByteArray": 4031,
      "Ġmulti": 4032,
      "RN": 4033,
      "ited": 4034,
      "aterial": 4035,
      "MD": 4036,
      "ng": 4037,
      "aN": 4038,
      "Authorization": 4039,
      "DateFormat": 4040,
      "Driver": 4041,
      "ĠAddress": 4042,
      "Encoding": 4043,
      "eeper": 4044,
      "Ġtimestamp": 4045,
      "ĠFloat": 4046,
      "Tasks": 4047,
      "ĠExecutor": 4048,
      "Patient": 4049,
      "quis": 4050,
      "should": 4051,
      "assertFalse": 4052,
      "SY": 4053,
      "Language": 4054,
      "abc": 4055,
      "Two": 4056,
      "ĠCreate": 4057,
      "Ġdet": 4058,
      "Ġfailed": 4059,
      "ets": 4060,
      "Expiry": 4061,
      "ĠAccount": 4062,
      "src": 4063,
      "inue": 4064,
      "Lower": 4065,
      "Structure": 4066,
      "ĠBuilder": 4067,
      "VOCATION": 4068,
      "eration": 4069,
      "AsString": 4070,
      "LEMENT": 4071,
      "iterator": 4072,
      "Ins": 4073,
      "utation": 4074,
      "Destination": 4075,
      "Secret": 4076,
      "Ġnormal": 4077,
      "StringUtils": 4078,
      "Tracker": 4079,
      "EntityType": 4080,
      "ĠComponent": 4081,
      "Ġterm": 4082,
      "address": 4083,
      "Ġsecurity": 4084,
      "split": 4085,
      "ĠStatus": 4086,
      "Ġfull": 4087,
      "Missing": 4088,
      "Repo": 4089,
      "Encode": 4090,
      "Ġexpect": 4091,
      "ĠUpdate": 4092,
      "idd": 4093,
      "Processing": 4094,
      "Ġ\";": 4095,
      "ULE": 4096,
      "ferred": 4097,
      "Renderer": 4098,
      "ĠEnum": 4099,
      "ĠfieldName": 4100,
      "pose": 4101,
      "jo": 4102,
      "Coordin": 4103,
      "LIMIT": 4104,
      "wt": 4105,
      "moved": 4106,
      "QUER": 4107,
      "ORE": 4108,
      "lar": 4109,
      "ĠisValid": 4110,
      "Creator": 4111,
      "dir": 4112,
      "Charset": 4113,
      "eric": 4114,
      "Sink": 4115,
      "Retry": 4116,
      "Instances": 4117,
      "Ev": 4118,
      "ĠImage": 4119,
      "ifest": 4120,
      "Ġbatch": 4121,
      "ilities": 4122,
      "RES": 4123,
      "counter": 4124,
      ".*": 4125,
      "Ġsegment": 4126,
      "properties": 4127,
      "ootstr": 4128,
      "75": 4129,
      "NODE": 4130,
      "TS": 4131,
      "output": 4132,
      "CUR": 4133,
      "Accessor": 4134,
      "IgnoreCase": 4135,
      "ĠInternal": 4136,
      "step": 4137,
      "Ġflag": 4138,
      "'s": 4139,
      "tc": 4140,
      "31": 4141,
      "uplicate": 4142,
      "ĠINVOCATION": 4143,
      "ublisher": 4144,
      "85": 4145,
      "imento": 4146,
      "Global": 4147,
      "losed": 4148,
      "Rpc": 4149,
      "46": 4150,
      "ĠVersion": 4151,
      "Conversion": 4152,
      "ĠEMPTY": 4153,
      "ĠLoggable": 4154,
      "quare": 4155,
      "Assignment": 4156,
      "Gr": 4157,
      "ClassName": 4158,
      "azy": 4159,
      "Tra": 4160,
      "nr": 4161,
      "Volume": 4162,
      "Place": 4163,
      "some": 4164,
      "mploy": 4165,
      "INDEX": 4166,
      "Based": 4167,
      "anges": 4168,
      "Workspace": 4169,
      "off": 4170,
      "ĠskipResult": 4171,
      "ATTRI": 4172,
      "INTER": 4173,
      "pack": 4174,
      "REAM": 4175,
      "Children": 4176,
      "ehicle": 4177,
      "Ġfields": 4178,
      "Ġthread": 4179,
      "ĠBuffer": 4180,
      "ictionary": 4181,
      "AV": 4182,
      "RequestListener": 4183,
      "Ġdelegate": 4184,
      "rivilege": 4185,
      "over": 4186,
      "PRI": 4187,
      "VARIABLE": 4188,
      "Updated": 4189,
      "Ġpayload": 4190,
      "tology": 4191,
      "array": 4192,
      "arshall": 4193,
      "roy": 4194,
      "Inputs": 4195,
      "Ġdomain": 4196,
      "Prop": 4197,
      "ootstrap": 4198,
      "Ġmetrics": 4199,
      "Workflow": 4200,
      "pared": 4201,
      "WORD": 4202,
      "PL": 4203,
      "Complex": 4204,
      "Ġneed": 4205,
      "ĠgetM": 4206,
      "Ġafter": 4207,
      "ĠUSER": 4208,
      "Sensitivity": 4209,
      "Ġflow": 4210,
      "cast": 4211,
      "45": 4212,
      "Ġworkspace": 4213,
      "ResponseBody": 4214,
      "exp": 4215,
      "Interceptor": 4216,
      "Download": 4217,
      "]+": 4218,
      "ĠRead": 4219,
      "())).": 4220,
      "##": 4221,
      "dfs": 4222,
      "normal": 4223,
      "upon": 4224,
      "Ġsame": 4225,
      "AME": 4226,
      "ĠequalTo": 4227,
      "tax": 4228,
      "gest": 4229,
      "mark": 4230,
      "adoop": 4231,
      "Ġsystem": 4232,
      "andidate": 4233,
      "mem": 4234,
      "Ġprops": 4235,
      "Bounds": 4236,
      "br": 4237,
      "NUMBER": 4238,
      "ĠTO": 4239,
      "Ġpol": 4240,
      "vided": 4241,
      "ĠDel": 4242,
      "Ġrandom": 4243,
      "Locator": 4244,
      "Broker": 4245,
      "Without": 4246,
      "Operations": 4247,
      "trim": 4248,
      "ĠStorage": 4249,
      "ATTRIBU": 4250,
      "ffect": 4251,
      "Getter": 4252,
      "IOException": 4253,
      "ĠProduct": 4254,
      "Debug": 4255,
      "ĠSQL": 4256,
      "Permissions": 4257,
      "REG": 4258,
      "ĠSc": 4259,
      "ĠGeneric": 4260,
      "STATUS": 4261,
      "matches": 4262,
      "Trigger": 4263,
      "Ġinitialize": 4264,
      "zer": 4265,
      "Ġignore": 4266,
      "required": 4267,
      "JsonNode": 4268,
      "UserId": 4269,
      "Ġrec": 4270,
      "42": 4271,
      "Ġrece": 4272,
      "QUERY": 4273,
      "Player": 4274,
      "Ġdevice": 4275,
      "HttpClient": 4276,
      "Ġdiv": 4277,
      "Ġtree": 4278,
      "ĠXml": 4279,
      "ĠExecution": 4280,
      "Private": 4281,
      "Blob": 4282,
      "getLog": 4283,
      "derTest": 4284,
      "ans": 4285,
      "ĠValidation": 4286,
      "ATCH": 4287,
      "Ġclean": 4288,
      "dk": 4289,
      "tx": 4290,
      "ARRAY": 4291,
      "ĠDep": 4292,
      "short": 4293,
      "Ġbefore": 4294,
      "Ġ+=": 4295,
      "late": 4296,
      "cover": 4297,
      "Ġsetup": 4298,
      "Decoder": 4299,
      "ĠComplex": 4300,
      "arm": 4301,
      "Ġpresent": 4302,
      "Curve": 4303,
      "ItemSolicitacaoExames": 4304,
      "Contact": 4305,
      "column": 4306,
      "Car": 4307,
      "Rows": 4308,
      "Ġstorage": 4309,
      "47": 4310,
      "ĠApp": 4311,
      "ivery": 4312,
      "Shape": 4313,
      "LAG": 4314,
      "Reason": 4315,
      "Ġplugin": 4316,
      "ĠBy": 4317,
      "Execute": 4318,
      "udgment": 4319,
      "Algorithm": 4320,
      "ĠSingle": 4321,
      "rawtypes": 4322,
      "SSION": 4323,
      "ĠAsync": 4324,
      "Ġtransient": 4325,
      "vis": 4326,
      "aaaa": 4327,
      "IB": 4328,
      "rimary": 4329,
      "Init": 4330,
      "session": 4331,
      "TypeName": 4332,
      "Ġ<=": 4333,
      "ĠLocation": 4334,
      "ou": 4335,
      "ĠAC": 4336,
      "nal": 4337,
      "Diag": 4338,
      "localhost": 4339,
      "Ġnow": 4340,
      "Worker": 4341,
      "StateException": 4342,
      "Invite": 4343,
      "iffer": 4344,
      "Ident": 4345,
      "LOCK": 4346,
      "collect": 4347,
      "oft": 4348,
      "Ġrender": 4349,
      "SERVICE": 4350,
      "Ġdir": 4351,
      "Ġme": 4352,
      "Ġ\"\")": 4353,
      "ĠByteBuffer": 4354,
      "ARY": 4355,
      "olver": 4356,
      "ĠPAT": 4357,
      "Html": 4358,
      "containsKey": 4359,
      "WR": 4360,
      "Ġroute": 4361,
      "Slot": 4362,
      "Dial": 4363,
      "Ġscope": 4364,
      "Gen": 4365,
      "Ġoff": 4366,
      "Ġprint": 4367,
      "ĠgetMax": 4368,
      "NotFoundException": 4369,
      "Push": 4370,
      "Ġlevel": 4371,
      "SECONDS": 4372,
      "SIT": 4373,
      "ires": 4374,
      "Gu": 4375,
      "Ġdestination": 4376,
      "Pointer": 4377,
      "avigation": 4378,
      "ĠCharset": 4379,
      "Ġenv": 4380,
      "Ġ20": 4381,
      "ween": 4382,
      "Configs": 4383,
      "Machine": 4384,
      "itlement": 4385,
      "Scal": 4386,
      "ĠMatcher": 4387,
      "dep": 4388,
      "Env": 4389,
      "Records": 4390,
      "UMN": 4391,
      "Expected": 4392,
      "65": 4393,
      "fg": 4394,
      "ĠPol": 4395,
      "AY": 4396,
      "cricao": 4397,
      "ĠWe": 4398,
      "Safe": 4399,
      "arted": 4400,
      "Ġbuf": 4401,
      "etween": 4402,
      "Variant": 4403,
      "Validate": 4404,
      "ĠQu": 4405,
      "account": 4406,
      "ĠRow": 4407,
      "Ġweb": 4408,
      "PART": 4409,
      "Iss": 4410,
      "Intent": 4411,
      "ugh": 4412,
      "USE": 4413,
      "enantId": 4414,
      "UG": 4415,
      "Ġprepare": 4416,
      "Created": 4417,
      "ĠJava": 4418,
      "save": 4419,
      "Instruction": 4420,
      "CTED": 4421,
      "getResource": 4422,
      "Ġprodu": 4423,
      "ne": 4424,
      "processor": 4425,
      "WITH": 4426,
      "ongo": 4427,
      "OFF": 4428,
      "Ġoptional": 4429,
      "ĠgetDefault": 4430,
      "ĠtimeTo": 4431,
      "iolation": 4432,
      "ike": 4433,
      "etter": 4434,
      "hel": 4435,
      "ĠTemporaryFolder": 4436,
      "ĠBl": 4437,
      "ĠMetric": 4438,
      "au": 4439,
      "condition": 4440,
      "ociation": 4441,
      "Ġbut": 4442,
      "luent": 4443,
      "ther": 4444,
      "Syn": 4445,
      "aring": 4446,
      "Ġvariable": 4447,
      "HttpRequest": 4448,
      "ensor": 4449,
      "spf": 4450,
      "command": 4451,
      "nel": 4452,
      "opul": 4453,
      "www": 4454,
      "Variables": 4455,
      "ĠAuthentication": 4456,
      "567": 4457,
      "Ġmatcher": 4458,
      "ework": 4459,
      "Ġdst": 4460,
      "JB": 4461,
      ".\"": 4462,
      "reen": 4463,
      "Ġinvalid": 4464,
      "ramework": 4465,
      "EXT": 4466,
      "Ġvalidator": 4467,
      "verage": 4468,
      "////////": 4469,
      "KETTLE": 4470,
      "Ġprevious": 4471,
      "ifiers": 4472,
      "doc": 4473,
      "Flags": 4474,
      "rods": 4475,
      "ByName": 4476,
      "ollow": 4477,
      "Invocation": 4478,
      "light": 4479,
      "Ġ16": 4480,
      "Ġ200": 4481,
      "https": 4482,
      "case": 4483,
      "image": 4484,
      "Returns": 4485,
      "ĠitemSolicitacaoExame": 4486,
      "Upd": 4487,
      "ĠFr": 4488,
      "Ġemail": 4489,
      "Ġused": 4490,
      "cheduled": 4491,
      "Quest": 4492,
      "Alias": 4493,
      "encode": 4494,
      "Requests": 4495,
      "aven": 4496,
      "Appro": 4497,
      "ood": 4498,
      "Replic": 4499,
      "START": 4500,
      "ĠCustom": 4501,
      "pay": 4502,
      "ĠInvalid": 4503,
      "Ġbit": 4504,
      "roid": 4505,
      "ĠFlow": 4506,
      "ĠLe": 4507,
      "component": 4508,
      "getTime": 4509,
      "Mockito": 4510,
      "Attr": 4511,
      "Ġdescriptor": 4512,
      "impl": 4513,
      "STORE": 4514,
      "cs": 4515,
      "handle": 4516,
      "Username": 4517,
      "MIL": 4518,
      "PP": 4519,
      "openmrs": 4520,
      "PARATOR": 4521,
      "ular": 4522,
      "sa": 4523,
      "ĠRange": 4524,
      "ĠCurrency": 4525,
      "ositive": 4526,
      "ervices": 4527,
      "element": 4528,
      "48": 4529,
      ".,": 4530,
      "conf": 4531,
      "Normal": 4532,
      "Ġidentifier": 4533,
      "Ġnotify": 4534,
      "ĠByteArray": 4535,
      "Pending": 4536,
      "adget": 4537,
      "args": 4538,
      "Capability": 4539,
      "Ġrest": 4540,
      "DAY": 4541,
      "WORK": 4542,
      "ĠBi": 4543,
      "Ġfolder": 4544,
      "([": 4545,
      "Fixed": 4546,
      "Bind": 4547,
      "Axis": 4548,
      "ĠTIME": 4549,
      "complet": 4550,
      "ĠOpen": 4551,
      "ince": 4552,
      "Site": 4553,
      "ĠSource": 4554,
      "Currency": 4555,
      "ĠIntent": 4556,
      "ĠNo": 4557,
      "page": 4558,
      "Topology": 4559,
      "icip": 4560,
      "CONTENT": 4561,
      "lang": 4562,
      "ĠUN": 4563,
      "ĠColor": 4564,
      "COR": 4565,
      "Ġmocked": 4566,
      "ecycle": 4567,
      "bb": 4568,
      "KEN": 4569,
      "assand": 4570,
      "XY": 4571,
      "Ġbucket": 4572,
      "Ġproxy": 4573,
      "ipart": 4574,
      "Replace": 4575,
      "ĠStack": 4576,
      "Ġfinally": 4577,
      "ĠInet": 4578,
      "\\\\.": 4579,
      "Writable": 4580,
      "Sum": 4581,
      ",\\\"": 4582,
      "Hook": 4583,
      "Sent": 4584,
      "Declar": 4585,
      "}\";": 4586,
      "LECT": 4587,
      "etty": 4588,
      "Family": 4589,
      "ĠExt": 4590,
      "assandra": 4591,
      "Instant": 4592,
      "strument": 4593,
      "Ġscript": 4594,
      "Ġvm": 4595,
      "Ġmetric": 4596,
      "Catalog": 4597,
      "chemas": 4598,
      "ias": 4599,
      "partition": 4600,
      "Switch": 4601,
      "Tick": 4602,
      "ĠIf": 4603,
      "NAMESPACE": 4604,
      "Math": 4605,
      "full": 4606,
      "BB": 4607,
      "':": 4608,
      "Props": 4609,
      "Ġaccept": 4610,
      "ĠgetValue": 4611,
      "select": 4612,
      "TUR": 4613,
      "ross": 4614,
      "Ġcannot": 4615,
      "ĠPAR": 4616,
      "90": 4617,
      "child": 4618,
      "HOST": 4619,
      "Ġfeature": 4620,
      "ĠPl": 4621,
      "num": 4622,
      "dc": 4623,
      "pp": 4624,
      "Sorted": 4625,
      "dr": 4626,
      "Revision": 4627,
      "ĠDataType": 4628,
      "Ne": 4629,
      "40": 4630,
      "ites": 4631,
      "DIR": 4632,
      "cluded": 4633,
      "ĠRegion": 4634,
      "Servidor": 4635,
      "send": 4636,
      "Ġind": 4637,
      "Ġhel": 4638,
      "ĠVer": 4639,
      "getData": 4640,
      "Refresh": 4641,
      "VENT": 4642,
      "Consumes": 4643,
      "holder": 4644,
      "Ġ\"\",": 4645,
      "Ġenable": 4646,
      "});": 4647,
      "mail": 4648,
      "UBLE": 4649,
      "ĠNamed": 4650,
      "ClientFactory": 4651,
      "Fragment": 4652,
      "Members": 4653,
      "NON": 4654,
      "ByteBuffer": 4655,
      "Save": 4656,
      "NULL": 4657,
      "STE": 4658,
      "document": 4659,
      "Ġ\"</": 4660,
      "velope": 4661,
      "Separator": 4662,
      "FACT": 4663,
      "Measure": 4664,
      "ous": 4665,
      "\\\":{\\\"": 4666,
      "Ġ++": 4667,
      "ctangle": 4668,
      "DefaultValue": 4669,
      "ĠMO": 4670,
      "Ġfiles": 4671,
      "ĠHttpServletResponse": 4672,
      "ĠMod": 4673,
      "Ġpolicy": 4674,
      "OS": 4675,
      "DF": 4676,
      "RODS": 4677,
      "ts": 4678,
      "Offer": 4679,
      "escape": 4680,
      "Ġassign": 4681,
      "requ": 4682,
      "subscri": 4683,
      "El": 4684,
      "lator": 4685,
      "ĠTopic": 4686,
      "Ġdirectory": 4687,
      "eserializer": 4688,
      "ression": 4689,
      "Temp": 4690,
      "Classes": 4691,
      "TRA": 4692,
      "ĠSl": 4693,
      "Ġcap": 4694,
      "Ġoption": 4695,
      "Ġexisting": 4696,
      "files": 4697,
      "ior": 4698,
      "Dom": 4699,
      "imap": 4700,
      "Ġprincipal": 4701,
      "Ġ15": 4702,
      "abs": 4703,
      "ĠImmutableMap": 4704,
      "Alert": 4705,
      "Dependency": 4706,
      "Comb": 4707,
      "Ġabs": 4708,
      "ĠAuthoriz": 4709,
      "Ġsuccess": 4710,
      "Scale": 4711,
      "Preferences": 4712,
      "IV": 4713,
      "Ġnotification": 4714,
      "Ġrefresh": 4715,
      "Stage": 4716,
      "orator": 4717,
      "Multiple": 4718,
      "ading": 4719,
      "Credential": 4720,
      "Methods": 4721,
      "startsWith": 4722,
      "sup": 4723,
      "me": 4724,
      "gen": 4725,
      "ĠKStream": 4726,
      "Ġimport": 4727,
      "password": 4728,
      "Leg": 4729,
      "label": 4730,
      "random": 4731,
      "Filters": 4732,
      "resentation": 4733,
      ")\")": 4734,
      "ĠConcurrentHashMap": 4735,
      "Ġ102": 4736,
      "ĠfileName": 4737,
      "vro": 4738,
      "ĠVR": 4739,
      "ĠConstant": 4740,
      "Cancel": 4741,
      "ERO": 4742,
      "AbsolutePath": 4743,
      "resolve": 4744,
      "Modified": 4745,
      "Cr": 4746,
      "ĠRequestMethod": 4747,
      "isPresent": 4748,
      "Ġpersist": 4749,
      "Click": 4750,
      "eme": 4751,
      "ROM": 4752,
      "EMPTY": 4753,
      "unch": 4754,
      "iration": 4755,
      "ursor": 4756,
      "ĠObjectId": 4757,
      "Ġmail": 4758,
      "TOKEN": 4759,
      "ll": 4760,
      "Direct": 4761,
      "STREAM": 4762,
      "ĠInstant": 4763,
      "Ġtokens": 4764,
      "IllegalArgumentException": 4765,
      "(()": 4766,
      "Ġforward": 4767,
      "poch": 4768,
      "yyyy": 4769,
      "Unique": 4770,
      "}\",": 4771,
      "asy": 4772,
      "Ġclone": 4773,
      "TimeMillis": 4774,
      "ula": 4775,
      "Put": 4776,
      "gregate": 4777,
      "ideo": 4778,
      "post": 4779,
      "ifferent": 4780,
      "Ġinternal": 4781,
      "Ġsnapshot": 4782,
      "rup": 4783,
      "ĠCommon": 4784,
      "ĠTuple": 4785,
      "rep": 4786,
      "teg": 4787,
      "Alta": 4788,
      "istency": 4789,
      "PC": 4790,
      "title": 4791,
      "isTrue": 4792,
      "La": 4793,
      "assertNotNull": 4794,
      "ĠMem": 4795,
      "HTTP": 4796,
      "Ġph": 4797,
      "ĠNotification": 4798,
      "Experiment": 4799,
      "ĠPerson": 4800,
      "Threshold": 4801,
      "ĠBasic": 4802,
      "Ġasset": 4803,
      "ExecutorService": 4804,
      "Ġwait": 4805,
      "SCRIPTION": 4806,
      "Actions": 4807,
      "blem": 4808,
      "andReturn": 4809,
      "StringBuilder": 4810,
      "Hint": 4811,
      "getPath": 4812,
      "Ġprofile": 4813,
      "umul": 4814,
      "ĠEn": 4815,
      "FileSpec": 4816,
      "POINT": 4817,
      "Contents": 4818,
      "ĠScript": 4819,
      "orldpay": 4820,
      "Ġcontinue": 4821,
      "Export": 4822,
      "ian": 4823,
      "clear": 4824,
      "Ġtemp": 4825,
      "oogle": 4826,
      "NaN": 4827,
      "Med": 4828,
      "ĠPayment": 4829,
      "Partitions": 4830,
      "WE": 4831,
      "Distribution": 4832,
      "ĠProvider": 4833,
      "alle": 4834,
      "ygon": 4835,
      "Constructor": 4836,
      "Distance": 4837,
      "ĠTag": 4838,
      "ĠgetB": 4839,
      "83": 4840,
      "Feed": 4841,
      "ĠComparator": 4842,
      "MT": 4843,
      "atory": 4844,
      "Ġdef": 4845,
      "NAB": 4846,
      "Delivery": 4847,
      "Ġelements": 4848,
      "Cir": 4849,
      "){": 4850,
      "ital": 4851,
      "ffic": 4852,
      "Ġretry": 4853,
      "Upload": 4854,
      "Ġlogin": 4855,
      "inder": 4856,
      "Ġregistry": 4857,
      "LAY": 4858,
      "Reset": 4859,
      "Ġvar": 4860,
      "azon": 4861,
      "SSWORD": 4862,
      "block": 4863,
      "notNull": 4864,
      "antity": 4865,
      "Ġanaly": 4866,
      "msg": 4867,
      "JOB": 4868,
      "ingService": 4869,
      "ĠQ": 4870,
      "MAL": 4871,
      "BASE": 4872,
      "chain": 4873,
      "addAll": 4874,
      "Ġstrike": 4875,
      "ĠAtomicInteger": 4876,
      "pa": 4877,
      "Unsigned": 4878,
      "SocketAddress": 4879,
      "Ġsimple": 4880,
      "ĠDoubleMatrix": 4881,
      "Ġactivity": 4882,
      "Ġtitle": 4883,
      "RECT": 4884,
      "icated": 4885,
      "DELETE": 4886,
      "Ġmodule": 4887,
      "ClassLoader": 4888,
      "Registered": 4889,
      "KeyValue": 4890,
      "Audit": 4891,
      "Checked": 4892,
      "come": 4893,
      "\\\",\"": 4894,
      "ĠMIN": 4895,
      "Transfer": 4896,
      "Curs": 4897,
      "gp": 4898,
      "record": 4899,
      "ĠMail": 4900,
      "Section": 4901,
      "OW": 4902,
      "eep": 4903,
      "Ġserialize": 4904,
      "arison": 4905,
      "Ġitems": 4906,
      "domain": 4907,
      "THOD": 4908,
      "Core": 4909,
      "Ġattr": 4910,
      "generate": 4911,
      "Ġensure": 4912,
      "FE": 4913,
      "Links": 4914,
      "ByteBuf": 4915,
      "Creation": 4916,
      "ivate": 4917,
      "singletonList": 4918,
      "InstanceId": 4919,
      "arity": 4920,
      "This": 4921,
      "Hierarch": 4922,
      "Ġupdated": 4923,
      "PAY": 4924,
      "ummy": 4925,
      "perand": 4926,
      "params": 4927,
      "RESOURCE": 4928,
      "Chunk": 4929,
      "spec": 4930,
      "Ġconverter": 4931,
      "HashSet": 4932,
      "Ġpool": 4933,
      "ĠReference": 4934,
      "NumberOf": 4935,
      "SPON": 4936,
      "AMETER": 4937,
      "body": 4938,
      "Move": 4939,
      "Ġactive": 4940,
      "Accept": 4941,
      "Lines": 4942,
      "ĠprojectId": 4943,
      "bed": 4944,
      "STATE": 4945,
      "Reserv": 4946,
      "Tokens": 4947,
      "ContentType": 4948,
      "CONNE": 4949,
      "pth": 4950,
      "Platform": 4951,
      "ĠEnvironment": 4952,
      "aved": 4953,
      "Setup": 4954,
      "Ġnamed": 4955,
      "Old": 4956,
      "Ġge": 4957,
      "Ġamount": 4958,
      "negative": 4959,
      "Ġfs": 4960,
      "Opt": 4961,
      "ĠHost": 4962,
      "EJB": 4963,
      "0000000000000000": 4964,
      "ournal": 4965,
      "ĠPartition": 4966,
      "ADDRESS": 4967,
      "ĠMulti": 4968,
      "ssValue": 4969,
      "92": 4970,
      "Relationship": 4971,
      "SL": 4972,
      "wn": 4973,
      "ApiOperation": 4974,
      "Running": 4975,
      "ĠKafka": 4976,
      "ven": 4977,
      "Times": 4978,
      "icipant": 4979,
      "ocker": 4980,
      "Ġauthentication": 4981,
      "configuration": 4982,
      "td": 4983,
      "square": 4984,
      "ĠMeta": 4985,
      "Ġmanager": 4986,
      "SEPARATOR": 4987,
      "Received": 4988,
      "CD": 4989,
      "Authorisation": 4990,
      "Marker": 4991,
      "Ġvalidation": 4992,
      "hing": 4993,
      "Adjust": 4994,
      "Community": 4995,
      "Ġpipeline": 4996,
      "Ġmain": 4997,
      "Invo": 4998,
      "eeded": 4999,
      "Labels": 5000,
      "Ġreal": 5001,
      "Ġalready": 5002,
      "ĠAL": 5003,
      "96": 5004,
      "Ġpackage": 5005,
      "Tax": 5006,
      "ĠPer": 5007,
      "Health": 5008,
      "ĠuserName": 5009,
      "CLIENT": 5010,
      "Shared": 5011,
      "Ġperson": 5012,
      "CACHE": 5013,
      "mx": 5014,
      "ĠPromise": 5015,
      "Canvas": 5016,
      "Ġcancel": 5017,
      "arshaller": 5018,
      "Find": 5019,
      "Original": 5020,
      "Cert": 5021,
      "ĠElementMatcher": 5022,
      "COLUMN": 5023,
      "Ġsync": 5024,
      "ĠThe": 5025,
      "sd": 5026,
      "rupted": 5027,
      "Exchange": 5028,
      "Chars": 5029,
      "riterion": 5030,
      "number": 5031,
      "ĠOutputStream": 5032,
      "okhttp": 5033,
      "NOWN": 5034,
      "aker": 5035,
      "urve": 5036,
      "setName": 5037,
      "Answer": 5038,
      "Codec": 5039,
      "Ġwhere": 5040,
      "metadata": 5041,
      "GroupId": 5042,
      "ĠgetType": 5043,
      "ĠTODO": 5044,
      "ERS": 5045,
      "ĠStep": 5046,
      "Clause": 5047,
      "Junction": 5048,
      "Ġ\"'": 5049,
      ":\"": 5050,
      "Deployment": 5051,
      "Ġdataset": 5052,
      "Ġwidth": 5053,
      "TEGER": 5054,
      "ĠOn": 5055,
      "Evaluator": 5056,
      "bit": 5057,
      "YPE": 5058,
      "Library": 5059,
      "clusive": 5060,
      "squareup": 5061,
      "LOAD": 5062,
      "cipient": 5063,
      "Logging": 5064,
      "olr": 5065,
      "Wait": 5066,
      "buffer": 5067,
      "RENT": 5068,
      "admin": 5069,
      "ariant": 5070,
      "rong": 5071,
      "ru": 5072,
      "ĠIllegalStateException": 5073,
      "++;": 5074,
      "Ġchain": 5075,
      "Balance": 5076,
      "Ġretrieve": 5077,
      "Violation": 5078,
      "ABEL": 5079,
      "ĠAPI": 5080,
      "ediate": 5081,
      "Ġcategory": 5082,
      "wise": 5083,
      "Ġstatement": 5084,
      "ĠisEmpty": 5085,
      "Ġday": 5086,
      "ails": 5087,
      "Annotations": 5088,
      "alance": 5089,
      "Entities": 5090,
      "ished": 5091,
      "resources": 5092,
      "Question": 5093,
      "Entitlement": 5094,
      "uber": 5095,
      "BYTES": 5096,
      "ĠIP": 5097,
      "ĠNOT": 5098,
      "Responses": 5099,
      "ĠLogFactory": 5100,
      "ĠCloud": 5101,
      "Ġprocessor": 5102,
      "ding": 5103,
      "Regex": 5104,
      "ĠUtil": 5105,
      "ributed": 5106,
      "Ġcreated": 5107,
      "ffff": 5108,
      "====": 5109,
      "MILLI": 5110,
      "ete": 5111,
      "ĠentityType": 5112,
      "Ġsl": 5113,
      "Kind": 5114,
      "Changes": 5115,
      "mult": 5116,
      "Ġbean": 5117,
      "Ġglobal": 5118,
      "Attachment": 5119,
      "Resolved": 5120,
      "VID": 5121,
      "ural": 5122,
      "IFI": 5123,
      "CATE": 5124,
      "ores": 5125,
      "Kafka": 5126,
      "obj": 5127,
      "DOC": 5128,
      "Ġopts": 5129,
      "Ġsample": 5130,
      "Ġcommit": 5131,
      "DataSet": 5132,
      "Scenario": 5133,
      "ĠpropertyName": 5134,
      "Cursor": 5135,
      "apture": 5136,
      "Ġbegin": 5137,
      "atest": 5138,
      "Upper": 5139,
      "Ġtags": 5140,
      "Ġextension": 5141,
      "Primitive": 5142,
      "go": 5143,
      "Ġcloud": 5144,
      "Ġtrim": 5145,
      "Preference": 5146,
      "Expect": 5147,
      "TEMP": 5148,
      "PR": 5149,
      "ĠKETTLE": 5150,
      "dap": 5151,
      "acer": 5152,
      "></": 5153,
      "ĠNull": 5154,
      "sible": 5155,
      "header": 5156,
      "60": 5157,
      "Ġmode": 5158,
      "Ġheight": 5159,
      "ĠUns": 5160,
      "tle": 5161,
      "urface": 5162,
      "hav": 5163,
      ")'": 5164,
      "Ġ\"{": 5165,
      "ca": 5166,
      "ĠStringUtils": 5167,
      "Ġresources": 5168,
      "82": 5169,
      "KNOWN": 5170,
      "Ok": 5171,
      "actions": 5172,
      "Cas": 5173,
      "Balan": 5174,
      "execut": 5175,
      "Ġtypes": 5176,
      "Ġduration": 5177,
      "ĠMatch": 5178,
      "Ġlookup": 5179,
      "STAMP": 5180,
      "ACTION": 5181,
      "Ġfilename": 5182,
      "SUB": 5183,
      "Ġ<<": 5184,
      "])": 5185,
      "Priority": 5186,
      "itamContext": 5187,
      "Ab": 5188,
      "TRY": 5189,
      "More": 5190,
      "ĠRequestResponse": 5191,
      "reater": 5192,
      "Ġcx": 5193,
      "ĠHeader": 5194,
      "idden": 5195,
      "oth": 5196,
      "newBuilder": 5197,
      "ĠPermission": 5198,
      "Scheme": 5199,
      "95": 5200,
      "vs": 5201,
      "Archive": 5202,
      "Fetcher": 5203,
      "Setter": 5204,
      "White": 5205,
      "beat": 5206,
      "Ġinvoke": 5207,
      "Authent": 5208,
      "Ġcontroller": 5209,
      "Prescricao": 5210,
      "Matching": 5211,
      "ĠMo": 5212,
      "Ġspecified": 5213,
      "Center": 5214,
      "Bridge": 5215,
      "Ġdisk": 5216,
      "Ġmove": 5217,
      "Points": 5218,
      "Ġscale": 5219,
      "hs": 5220,
      "cision": 5221,
      "Percent": 5222,
      "ĠMatrix": 5223,
      "abilities": 5224,
      "Reporter": 5225,
      "Mer": 5226,
      "Compat": 5227,
      "lap": 5228,
      "Side": 5229,
      "ĠMutable": 5230,
      "ĠHandler": 5231,
      "Background": 5232,
      "asyMock": 5233,
      "SD": 5234,
      "da": 5235,
      "TableName": 5236,
      "Vnf": 5237,
      "Bitmap": 5238,
      "Ġhex": 5239,
      "system": 5240,
      "RM": 5241,
      "GEX": 5242,
      "html": 5243,
      "Cart": 5244,
      "custom": 5245,
      "Cp": 5246,
      "ĠTemplate": 5247,
      "actual": 5248,
      "Meter": 5249,
      "Ġadmin": 5250,
      "IM": 5251,
      "Release": 5252,
      "ĠWhen": 5253,
      "dest": 5254,
      "olution": 5255,
      "Filename": 5256,
      "Discount": 5257,
      "Ġtrack": 5258,
      "ĠServiceResult": 5259,
      "artbeat": 5260,
      "Tip": 5261,
      "mployee": 5262,
      "irror": 5263,
      "ĠINTERNAL": 5264,
      "allel": 5265,
      "ĠLinkedList": 5266,
      "Tables": 5267,
      "Receiver": 5268,
      "TRANS": 5269,
      "ĠinputStream": 5270,
      "person": 5271,
      "join": 5272,
      "ĠgetCurrent": 5273,
      "ĠdataType": 5274,
      "Dr": 5275,
      "hip": 5276,
      "Ġconfigure": 5277,
      "road": 5278,
      "arable": 5279,
      "Print": 5280,
      "ifiable": 5281,
      "ba": 5282,
      "Ġselector": 5283,
      "Geo": 5284,
      "Dynamic": 5285,
      "RG": 5286,
      "eserialize": 5287,
      "\\\"/": 5288,
      "Ġinject": 5289,
      "USTER": 5290,
      "INFO": 5291,
      "secon": 5292,
      "Redirect": 5293,
      "INK": 5294,
      "Micro": 5295,
      "unded": 5296,
      "active": 5297,
      "SPONSE": 5298,
      "Ġ30": 5299,
      "role": 5300,
      "Ġwhich": 5301,
      "Additional": 5302,
      "ĠclassName": 5303,
      "ĠHttpResponse": 5304,
      "Ġthan": 5305,
      "artifact": 5306,
      "HandlerContext": 5307,
      ">)": 5308,
      "exception": 5309,
      "Reply": 5310,
      "COMM": 5311,
      "utes": 5312,
      "Ġhtml": 5313,
      "Setting": 5314,
      "Show": 5315,
      "Runnable": 5316,
      "AF": 5317,
      "DC": 5318,
      "HER": 5319,
      "UTC": 5320,
      "Ns": 5321,
      "OPTION": 5322,
      "Convert": 5323,
      "ĠFileSystem": 5324,
      "Insert": 5325,
      "Ġfill": 5326,
      "core": 5327,
      "ĠBytes": 5328,
      "Sm": 5329,
      "Ġpopul": 5330,
      "Direction": 5331,
      "CP": 5332,
      "ĠAss": 5333,
      "UPDATE": 5334,
      "Ui": 5335,
      "hort": 5336,
      "Suffix": 5337,
      "lementation": 5338,
      "getDefault": 5339,
      "Ġprop": 5340,
      "idget": 5341,
      "emptyList": 5342,
      "ĠDist": 5343,
      "LATE": 5344,
      "prefix": 5345,
      "ĠLine": 5346,
      "))).": 5347,
      "Ġ1024": 5348,
      "BitSet": 5349,
      "Ġ11": 5350,
      "Country": 5351,
      "equalsIgnoreCase": 5352,
      "Ġshard": 5353,
      "ĠXWiki": 5354,
      "Ġmatches": 5355,
      "can": 5356,
      "yp": 5357,
      "IR": 5358,
      "polator": 5359,
      "Book": 5360,
      "97": 5361,
      "ifference": 5362,
      "exists": 5363,
      "Ġbound": 5364,
      "TURN": 5365,
      "anger": 5366,
      "indexOf": 5367,
      "Ġscheduler": 5368,
      "Declaration": 5369,
      "ResultSet": 5370,
      "chor": 5371,
      "hasNext": 5372,
      "viders": 5373,
      "decode": 5374,
      "Business": 5375,
      "stim": 5376,
      ">\";": 5377,
      "Collectors": 5378,
      "Ġforce": 5379,
      "Codes": 5380,
      "serial": 5381,
      "inu": 5382,
      "sal": 5383,
      "ĠThis": 5384,
      "ĠTransform": 5385,
      "CHAN": 5386,
      "usiness": 5387,
      "Perm": 5388,
      "Existing": 5389,
      "trace": 5390,
      "Publisher": 5391,
      "Ġspace": 5392,
      "Ġ60": 5393,
      "FilePath": 5394,
      "umb": 5395,
      "Days": 5396,
      "Ġpartner": 5397,
      "Jar": 5398,
      "ĠMultivariatePolynomial": 5399,
      "ederation": 5400,
      "DU": 5401,
      "fModule": 5402,
      "CER": 5403,
      "Else": 5404,
      "uit": 5405,
      "ĠOAuth": 5406,
      "Ġpatient": 5407,
      "icense": 5408,
      "DataProvider": 5409,
      "Ġzone": 5410,
      "Ġdefinition": 5411,
      "ĠTYPE": 5412,
      "connection": 5413,
      "yped": 5414,
      "less": 5415,
      "Ġcompetition": 5416,
      "ĠgetLast": 5417,
      "001": 5418,
      "ä¸": 5419,
      "pha": 5420,
      "Exceptions": 5421,
      "(\"[": 5422,
      "Mac": 5423,
      "ĠNAME": 5424,
      "lip": 5425,
      "Native": 5426,
      "Screen": 5427,
      "graph": 5428,
      "bytes": 5429,
      "ament": 5430,
      ")\");": 5431,
      "authoriz": 5432,
      "Deleted": 5433,
      "Coprocessor": 5434,
      "ERENCE": 5435,
      "ĠRule": 5436,
      "Ġround": 5437,
      "ificar": 5438,
      "ResourceType": 5439,
      "range": 5440,
      "errors": 5441,
      "var": 5442,
      "Vm": 5443,
      "ĠCompletable": 5444,
      "ĠResultSet": 5445,
      "Authority": 5446,
      "Ġnodes": 5447,
      "Ġconstraint": 5448,
      "ĠStandard": 5449,
      "lationship": 5450,
      "Ġcalendar": 5451,
      "ves": 5452,
      "Main": 5453,
      "Ġfin": 5454,
      "';": 5455,
      "ysical": 5456,
      "Virtual": 5457,
      "LONG": 5458,
      "Mutable": 5459,
      "UD": 5460,
      "ĠEC": 5461,
      "Ġbundle": 5462,
      "ij": 5463,
      "Delta": 5464,
      "ooth": 5465,
      "lers": 5466,
      "Ġinterval": 5467,
      "Dem": 5468,
      "ented": 5469,
      "udo": 5470,
      "Ġfuture": 5471,
      "UI": 5472,
      "Ġet": 5473,
      "ENAB": 5474,
      "ony": 5475,
      "Ġcredentials": 5476,
      "High": 5477,
      "Ġfac": 5478,
      "ĠEndpoint": 5479,
      "initial": 5480,
      "unit": 5481,
      "isNot": 5482,
      "ĠHttpRequest": 5483,
      "Ġmapping": 5484,
      "ĠRole": 5485,
      "Ġexists": 5486,
      "Origin": 5487,
      "ĠShort": 5488,
      "Final": 5489,
      "Ġbind": 5490,
      "Versions": 5491,
      "43": 5492,
      "options": 5493,
      "ely": 5494,
      "ators": 5495,
      "vention": 5496,
      "Req": 5497,
      "reader": 5498,
      "Ġred": 5499,
      "Updater": 5500,
      "TopicPartition": 5501,
      "ĠConfigurationProperty": 5502,
      "Ġperiod": 5503,
      "Ġcre": 5504,
      "ĠRemote": 5505,
      "Ġsingle": 5506,
      "TOP": 5507,
      "ĠRef": 5508,
      "Addresses": 5509,
      "CoprocessorEnvironment": 5510,
      "Ġwindow": 5511,
      "pring": 5512,
      "ĠBack": 5513,
      "ApiParam": 5514,
      "Cookie": 5515,
      "dx": 5516,
      "ĠGrid": 5517,
      "XX": 5518,
      "ente": 5519,
      "init": 5520,
      "endency": 5521,
      "ipher": 5522,
      "Free": 5523,
      "the": 5524,
      "complete": 5525,
      "main": 5526,
      "lay": 5527,
      "CHECK": 5528,
      "JSONObject": 5529,
      "DIRECT": 5530,
      "accept": 5531,
      "getRequest": 5532,
      "ĠVALUE": 5533,
      "Dimension": 5534,
      "Live": 5535,
      "lared": 5536,
      "astore": 5537,
      "Judgment": 5538,
      "elf": 5539,
      "faces": 5540,
      "BACK": 5541,
      "Ġdownload": 5542,
      "BuilderWith": 5543,
      "template": 5544,
      "Ġ\\": 5545,
      "etermin": 5546,
      "Contain": 5547,
      "Ġps": 5548,
      "Ġavailable": 5549,
      "div": 5550,
      "anode": 5551,
      "ĠImmutableSet": 5552,
      "Qualified": 5553,
      "ĠAtomicBoolean": 5554,
      "ĠHttpHeaders": 5555,
      "ATTRIBUTE": 5556,
      "Net": 5557,
      "Used": 5558,
      "reat": 5559,
      "Tab": 5560,
      "CREATE": 5561,
      "Mask": 5562,
      "Router": 5563,
      "nowled": 5564,
      "SELECT": 5565,
      "OperationException": 5566,
      "olved": 5567,
      "Dispatcher": 5568,
      "Ġsettings": 5569,
      "234": 5570,
      "Scalar": 5571,
      "ĠHT": 5572,
      "Ġ#": 5573,
      "LowerCase": 5574,
      "Clock": 5575,
      "ĠCH": 5576,
      "ĠERROR": 5577,
      "PointerException": 5578,
      "1000": 5579,
      "Ġcause": 5580,
      "Ut": 5581,
      "Ġexpr": 5582,
      "Consistency": 5583,
      "ĠEasyMock": 5584,
      "Ġextra": 5585,
      "hashCode": 5586,
      "mis": 5587,
      "Break": 5588,
      "Scanner": 5589,
      "ARN": 5590,
      "PLA": 5591,
      "Functions": 5592,
      "compareTo": 5593,
      "(\\\\": 5594,
      "NodeId": 5595,
      "ĠSerializable": 5596,
      "requency": 5597,
      "ĠSTR": 5598,
      "Ġab": 5599,
      "stackPop": 5600,
      "req": 5601,
      "lastic": 5602,
      "Rat": 5603,
      "isFalse": 5604,
      "Ġok": 5605,
      "eriv": 5606,
      "Ġbeen": 5607,
      "forEach": 5608,
      "Ġallowed": 5609,
      "UV": 5610,
      "Addr": 5611,
      "Unknown": 5612,
      "Sampl": 5613,
      "CacheLoader": 5614,
      "KET": 5615,
      "vite": 5616,
      "Dialog": 5617,
      "Ġexperiment": 5618,
      "function": 5619,
      "udget": 5620,
      "Building": 5621,
      "txt": 5622,
      "ĠgetFile": 5623,
      "Ġ\"[": 5624,
      "Completed": 5625,
      "Ġfn": 5626,
      "DOUBLE": 5627,
      "Intern": 5628,
      "ird": 5629,
      "Analysis": 5630,
      "Ġuuid": 5631,
      "Super": 5632,
      "Ġ50": 5633,
      "Material": 5634,
      "acters": 5635,
      "URATION": 5636,
      "HexString": 5637,
      "Ġusers": 5638,
      "cumul": 5639,
      "isValid": 5640,
      "ĠImp": 5641,
      "Ġevaluate": 5642,
      "access": 5643,
      "Composite": 5644,
      "maining": 5645,
      "Scan": 5646,
      "igration": 5647,
      "ĠPATH": 5648,
      "IMP": 5649,
      "Other": 5650,
      "ĠLO": 5651,
      "Ġtmp": 5652,
      "ecause": 5653,
      "Top": 5654,
      "Ġsupported": 5655,
      "equal": 5656,
      "PARAMETER": 5657,
      "LABEL": 5658,
      "SV": 5659,
      "ĠDat": 5660,
      "Len": 5661,
      "ĠUserResource": 5662,
      "InProgress": 5663,
      "Ġasync": 5664,
      "Ġspan": 5665,
      "attribute": 5666,
      "setProperty": 5667,
      "Pass": 5668,
      "Week": 5669,
      "rule": 5670,
      "99999999": 5671,
      "Jobs": 5672,
      "ational": 5673,
      "ExceptionHandler": 5674,
      "ĠPlugin": 5675,
      "]\",": 5676,
      "iate": 5677,
      "Parts": 5678,
      "ĠDO": 5679,
      "amento": 5680,
      "Ġtrace": 5681,
      "MQ": 5682,
      "ef": 5683,
      "ĠExecutorService": 5684,
      "Ġcounter": 5685,
      "PROP": 5686,
      "Ġhint": 5687,
      "Deploy": 5688,
      "Ġdebug": 5689,
      "zip": 5690,
      "stit": 5691,
      "OAuth": 5692,
      "Observable": 5693,
      "nt": 5694,
      "ault": 5695,
      "LD": 5696,
      "ZERO": 5697,
      "REST": 5698,
      "ResponseCode": 5699,
      "Ġexternal": 5700,
      "fr": 5701,
      "arded": 5702,
      "Ġ</": 5703,
      "Ġ32": 5704,
      "53": 5705,
      "udy": 5706,
      "make": 5707,
      "mediate": 5708,
      "Ġnever": 5709,
      "kast": 5710,
      "extract": 5711,
      "paredStatement": 5712,
      "ĠScheduled": 5713,
      "newArrayList": 5714,
      "udio": 5715,
      "Sensor": 5716,
      "Ġdisplay": 5717,
      "writer": 5718,
      "StackTrace": 5719,
      "Ġsignature": 5720,
      "Ġenabled": 5721,
      "vie": 5722,
      "ĠDomain": 5723,
      "Features": 5724,
      "ĠPipeline": 5725,
      "Ġseparator": 5726,
      "ĠEntry": 5727,
      "Ġcomment": 5728,
      "Wallet": 5729,
      "ĠMaybe": 5730,
      "aming": 5731,
      "Ġadapter": 5732,
      "rf": 5733,
      "Score": 5734,
      "Ġauto": 5735,
      "Serde": 5736,
      "Cmd": 5737,
      "INTEGER": 5738,
      "peat": 5739,
      ",\"": 5740,
      "netes": 5741,
      "Hello": 5742,
      "Ġcmd": 5743,
      "ubernetes": 5744,
      "Ġsection": 5745,
      "ĠKeyValue": 5746,
      "Ġpass": 5747,
      "getUser": 5748,
      "Ġ'.": 5749,
      "Ġsequence": 5750,
      "PASSWORD": 5751,
      "Example": 5752,
      "QueryBuilder": 5753,
      "onical": 5754,
      "Mapp": 5755,
      "Poly": 5756,
      "acing": 5757,
      "(?:": 5758,
      "container": 5759,
      "ENER": 5760,
      "verted": 5761,
      "Grant": 5762,
      "ĠDB": 5763,
      "lux": 5764,
      "tract": 5765,
      "Ġcharset": 5766,
      "Atlas": 5767,
      "Des": 5768,
      "ĠcolumnIndex": 5769,
      "ACL": 5770,
      "ĠHTTP": 5771,
      "eet": 5772,
      "FT": 5773,
      "rier": 5774,
      "VM": 5775,
      "Ġthere": 5776,
      "\"})": 5777,
      "Ġ17": 5778,
      "Finder": 5779,
      "Geometry": 5780,
      "ITER": 5781,
      "ĠRpc": 5782,
      "ĠThen": 5783,
      "ĠVariable": 5784,
      "lusters": 5785,
      "Terms": 5786,
      "tegration": 5787,
      "Dictionary": 5788,
      "Ġprotocol": 5789,
      "raft": 5790,
      "ĠId": 5791,
      "Ġperform": 5792,
      "Started": 5793,
      "ĠConst": 5794,
      "quisition": 5795,
      "Home": 5796,
      "ica": 5797,
      "Watch": 5798,
      "ĠCap": 5799,
      "ventory": 5800,
      "Ġcell": 5801,
      "Quot": 5802,
      "cd": 5803,
      "ĠAm": 5804,
      "tom": 5805,
      "åı": 5806,
      "ĠDelete": 5807,
      "Digest": 5808,
      "ĠSubscri": 5809,
      "DEFIN": 5810,
      "sign": 5811,
      "Ġinvocation": 5812,
      "Ġmonitor": 5813,
      "board": 5814,
      "wrap": 5815,
      "Loop": 5816,
      "getAll": 5817,
      "ĠEdm": 5818,
      "sue": 5819,
      "rypto": 5820,
      "Ġnormalize": 5821,
      "Ġrelease": 5822,
      "setId": 5823,
      "newInstance": 5824,
      "(\"{": 5825,
      "ĠgetString": 5826,
      "anged": 5827,
      "xx": 5828,
      "Organisation": 5829,
      "ĠBundle": 5830,
      "52": 5831,
      "Ġdig": 5832,
      "(\"/{": 5833,
      "ARCH": 5834,
      "My": 5835,
      "Ġmember": 5836,
      "ĠcontentType": 5837,
      "isNull": 5838,
      "OLEAN": 5839,
      "Ġ24": 5840,
      "inality": 5841,
      "plicit": 5842,
      "LAN": 5843,
      "FIL": 5844,
      "Tracking": 5845,
      "web": 5846,
      "Ġclock": 5847,
      "81": 5848,
      "DED": 5849,
      "ĠgetResource": 5850,
      "Modification": 5851,
      "Zp": 5852,
      "Swap": 5853,
      "Ġrequire": 5854,
      "Needed": 5855,
      "Ġlower": 5856,
      "Specific": 5857,
      "Ġbranch": 5858,
      "Ġpeer": 5859,
      "anyString": 5860,
      "\\\\\\\"": 5861,
      "Cycle": 5862,
      "Transactions": 5863,
      "FFFF": 5864,
      "amb": 5865,
      "tos": 5866,
      "94": 5867,
      "ased": 5868,
      "Hop": 5869,
      "WA": 5870,
      "(\"\",": 5871,
      "OBJECT": 5872,
      "DESCRIPTION": 5873,
      "Configur": 5874,
      "ĠAssertions": 5875,
      "Gas": 5876,
      "POL": 5877,
      "username": 5878,
      "Ġrepo": 5879,
      "PECTED": 5880,
      "currentTimeMillis": 5881,
      "invalid": 5882,
      "ixel": 5883,
      "Transformation": 5884,
      "Bulk": 5885,
      "environment": 5886,
      "Ġoperator": 5887,
      "ĠJoin": 5888,
      "ai": 5889,
      "MX": 5890,
      "Activ": 5891,
      "RST": 5892,
      "Ġdrop": 5893,
      "Definitions": 5894,
      "ĠCopy": 5895,
      "Ġids": 5896,
      "Ġsink": 5897,
      "INTERVAL": 5898,
      "VEL": 5899,
      "Epoch": 5900,
      "Ġflags": 5901,
      "OLDER": 5902,
      "position": 5903,
      "ĠSpan": 5904,
      "ĠgetT": 5905,
      "ĠdataSource": 5906,
      "ROW": 5907,
      "StandardTypes": 5908,
      "Ġ'\"": 5909,
      "Encoded": 5910,
      "Ġdesc": 5911,
      ")\",": 5912,
      "1111": 5913,
      "LY": 5914,
      "rough": 5915,
      "ĠDevice": 5916,
      "Ġdelta": 5917,
      "evaluate": 5918,
      "Matches": 5919,
      "isConsent": 5920,
      "ĠconvertTo": 5921,
      "Esc": 5922,
      "Trust": 5923,
      "Contains": 5924,
      "Drop": 5925,
      "Partner": 5926,
      "havior": 5927,
      "Subscriber": 5928,
      "section": 5929,
      "]*": 5930,
      "conditions": 5931,
      "ĠSortedSet": 5932,
      "ĠTimestamp": 5933,
      "ANT": 5934,
      "Nonnegative": 5935,
      "toList": 5936,
      "Mime": 5937,
      "Ġgeneric": 5938,
      "Ġfire": 5939,
      "ISO": 5940,
      "locator": 5941,
      "Hor": 5942,
      "ĠAelItemSolicitacaoExames": 5943,
      "etro": 5944,
      "engine": 5945,
      "ĠOption": 5946,
      "Extra": 5947,
      "rypted": 5948,
      "Ġgroups": 5949,
      "Ġarch": 5950,
      "Weight": 5951,
      "security": 5952,
      "70": 5953,
      "Specs": 5954,
      "Ġcolor": 5955,
      "Updates": 5956,
      "Analyzer": 5957,
      "Ġ14": 5958,
      "cloud": 5959,
      "EXPI": 5960,
      "LocalDate": 5961,
      "Fl": 5962,
      "ANY": 5963,
      "ĠFluent": 5964,
      "UTE": 5965,
      "Am": 5966,
      "Zip": 5967,
      "Fact": 5968,
      "Aggregator": 5969,
      "Closed": 5970,
      "Div": 5971,
      "REGEX": 5972,
      "Extended": 5973,
      "Unid": 5974,
      "LEMENTTYPE": 5975,
      "HttpStatus": 5976,
      "orig": 5977,
      "SHA": 5978,
      "ĠServlet": 5979,
      "ĠVER": 5980,
      "Icon": 5981,
      "Hosts": 5982,
      "Specification": 5983,
      "CMS": 5984,
      "question": 5985,
      "ĠinstanceId": 5986,
      "Ġescape": 5987,
      "LIC": 5988,
      "ront": 5989,
      "ĠFLAG": 5990,
      "Completion": 5991,
      "Ġselected": 5992,
      "Ġencoding": 5993,
      "Bits": 5994,
      "ITIAL": 5995,
      "ĠAtomicReference": 5996,
      "dist": 5997,
      "ĠCallable": 5998,
      "Occ": 5999,
      "Ġcolumns": 6000,
      "áĢ": 6001,
      "rowser": 6002,
      "Bag": 6003,
      "Ġrequested": 6004,
      "ColumnName": 6005,
      "offset": 6006,
      "Append": 6007,
      "Participant": 6008,
      "Mirror": 6009,
      "ĠAr": 6010,
      "Ġsome": 6011,
      "ituacao": 6012,
      "Ġverificar": 6013,
      "à¦": 6014,
      "Ġ\"{\\\"": 6015,
      "INVALID": 6016,
      "RESH": 6017,
      "beros": 6018,
      "will": 6019,
      "Manifest": 6020,
      "break": 6021,
      "ĠPrint": 6022,
      "ruptedException": 6023,
      "entrySet": 6024,
      "ĠSimpleDateFormat": 6025,
      "DataObject": 6026,
      "/\";": 6027,
      "IFileSpec": 6028,
      "Ġconn": 6029,
      "ĠgetClient": 6030,
      "ĠgetId": 6031,
      "allback": 6032,
      "sect": 6033,
      "INS": 6034,
      "Ġbecause": 6035,
      "ĠstartTime": 6036,
      "ĠgetProperty": 6037,
      "Sk": 6038,
      "Rad": 6039,
      "PAGE": 6040,
      "icast": 6041,
      "Ġdelay": 6042,
      "ĠArgumentChecker": 6043,
      "63": 6044,
      "adding": 6045,
      "ks": 6046,
      "ĠPrincipal": 6047,
      "ĠSlice": 6048,
      "Ġ\");": 6049,
      "Ġschedule": 6050,
      "isto": 6051,
      "nowledge": 6052,
      "Numeric": 6053,
      "ĠBuild": 6054,
      "ung": 6055,
      "Submission": 6056,
      "Ġ13": 6057,
      "Fore": 6058,
      "UNIT": 6059,
      "etary": 6060,
      "ingleton": 6061,
      "Ġ'%": 6062,
      "leep": 6063,
      "Confirm": 6064,
      "HttpResponse": 6065,
      "ae": 6066,
      "MODE": 6067,
      "Atom": 6068,
      "RETURN": 6069,
      "ordinate": 6070,
      "ĠNULL": 6071,
      "normalVol": 6072,
      "Require": 6073,
      "ĠUInt": 6074,
      "fetch": 6075,
      ",-": 6076,
      "Heap": 6077,
      "Wrapped": 6078,
      "Allow": 6079,
      "PublicKey": 6080,
      "000000": 6081,
      "ĠRectangle": 6082,
      "Representation": 6083,
      "prop": 6084,
      "ĠFormat": 6085,
      "ASS": 6086,
      "mine": 6087,
      "cii": 6088,
      "CC": 6089,
      "ĠRunnable": 6090,
      "Restriction": 6091,
      "ĠLabel": 6092,
      "Competition": 6093,
      "Duplicate": 6094,
      "ider": 6095,
      "Ġusing": 6096,
      "dec": 6097,
      "ĠUnsupported": 6098,
      "EventHandler": 6099,
      "ProgressListener": 6100,
      "ROOT": 6101,
      "lated": 6102,
      "ĠPatient": 6103,
      "Linked": 6104,
      "ĠFieldType": 6105,
      "ĠgetInstance": 6106,
      "intValue": 6107,
      "Ġfilters": 6108,
      "force": 6109,
      "ceed": 6110,
      "wh": 6111,
      "Station": 6112,
      "Ġsm": 6113,
      "TimeSeries": 6114,
      "Ġmore": 6115,
      "ĠWorkspace": 6116,
      "parameter": 6117,
      "2014": 6118,
      "adow": 6119,
      "RUN": 6120,
      "ional": 6121,
      "ĠFeature": 6122,
      "Notify": 6123,
      "COND": 6124,
      "Ġsum": 6125,
      "Unable": 6126,
      "<?>,": 6127,
      "coming": 6128,
      "ĠConstants": 6129,
      "ĠCOL": 6130,
      "Retrie": 6131,
      "Inet": 6132,
      "MULT": 6133,
      "Ġ{\\": 6134,
      "LOCAL": 6135,
      "Navigation": 6136,
      "68": 6137,
      "ĠGiven": 6138,
      "Ġ38": 6139,
      "ĠgetL": 6140,
      "lict": 6141,
      "Ġdelet": 6142,
      "Ġshutdown": 6143,
      "Install": 6144,
      "cut": 6145,
      "Ġpopulate": 6146,
      "essment": 6147,
      "ĠAtlas": 6148,
      "Primary": 6149,
      "iler": 6150,
      "agation": 6151,
      "ek": 6152,
      "Trade": 6153,
      "Band": 6154,
      "Transition": 6155,
      "ExecutionContext": 6156,
      "ĠBlack": 6157,
      "vance": 6158,
      "ador": 6159,
      "ITEM": 6160,
      "AUTHOR": 6161,
      "ĠEntityType": 6162,
      "EP": 6163,
      "cap": 6164,
      "ĠLists": 6165,
      "mbari": 6166,
      "fire": 6167,
      "Logado": 6168,
      "ORDER": 6169,
      "Ġtbl": 6170,
      "Ġmessages": 6171,
      "RuntimeException": 6172,
      "loader": 6173,
      "etooth": 6174,
      "Added": 6175,
      "Ġdes": 6176,
      "provider": 6177,
      "Ġzip": 6178,
      "UNCTION": 6179,
      "Persistence": 6180,
      "EAR": 6181,
      "Ġmillis": 6182,
      "Clean": 6183,
      "ĠRed": 6184,
      "Routing": 6185,
      "Skip": 6186,
      "Ġentries": 6187,
      "Mapped": 6188,
      "width": 6189,
      "Ġflush": 6190,
      "Ġinto": 6191,
      "def": 6192,
      "Ca": 6193,
      "plug": 6194,
      "ĠPRE": 6195,
      "Ġadditional": 6196,
      "Hour": 6197,
      "RESPONSE": 6198,
      "ving": 6199,
      "Ġpush": 6200,
      "/$": 6201,
      "ĠMetrics": 6202,
      "channel": 6203,
      "ATIVE": 6204,
      "GR": 6205,
      "ĠUT": 6206,
      "ueprint": 6207,
      "aries": 6208,
      "erOrder": 6209,
      "Note": 6210,
      "Ġexport": 6211,
      "ĠTerm": 6212,
      "Conditions": 6213,
      "Ġ\"_": 6214,
      "Ġaddr": 6215,
      "Forward": 6216,
      "Vehicle": 6217,
      "Jdbc": 6218,
      "OLD": 6219,
      "etermine": 6220,
      "Observ": 6221,
      "Ġ19": 6222,
      "ĠCONFIG": 6223,
      "oice": 6224,
      "Formula": 6225,
      "Ġcontain": 6226,
      "rest": 6227,
      "EVENT": 6228,
      "plied": 6229,
      "Spy": 6230,
      "Envelope": 6231,
      "Segments": 6232,
      "Fraction": 6233,
      "Negative": 6234,
      "Edm": 6235,
      "Framework": 6236,
      "Ġ\"\");": 6237,
      "Ġirods": 6238,
      "ĠdoReturn": 6239,
      "Ibor": 6240,
      "ACCESS": 6241,
      "Medi": 6242,
      "mon": 6243,
      "wait": 6244,
      "Ġiterable": 6245,
      "ĠSer": 6246,
      "Ġupper": 6247,
      "Agh": 6248,
      "ather": 6249,
      "ale": 6250,
      "ulation": 6251,
      "Ġconsent": 6252,
      "peed": 6253,
      "email": 6254,
      "unused": 6255,
      "ĠScheduler": 6256,
      "itter": 6257,
      "Ġplace": 6258,
      "å®": 6259,
      "Indexed": 6260,
      "ĠPARAM": 6261,
      "Pad": 6262,
      "orElse": 6263,
      "Amostr": 6264,
      "Upgrade": 6265,
      "uter": 6266,
      "Demand": 6267,
      "andatory": 6268,
      "Disabled": 6269,
      "CCESS": 6270,
      "Volat": 6271,
      "econd": 6272,
      "callback": 6273,
      "Ġ...": 6274,
      "MANA": 6275,
      "ĠoptionalLayer": 6276,
      "Callable": 6277,
      "Exact": 6278,
      "endsWith": 6279,
      "ĠTypeInformation": 6280,
      "Mappings": 6281,
      "âĺ¼âĺ¼": 6282,
      "Ġcatalog": 6283,
      "endimento": 6284,
      "Using": 6285,
      "Ġconsum": 6286,
      "ĠBinary": 6287,
      "iet": 6288,
      "ĠRoute": 6289,
      "operation": 6290,
      "ids": 6291,
      "Decorator": 6292,
      "ĠConstraint": 6293,
      "Letter": 6294,
      "rees": 6295,
      "OME": 6296,
      "getContent": 6297,
      "Bank": 6298,
      "fully": 6299,
      "Merge": 6300,
      "Vert": 6301,
      "getField": 6302,
      "Ġmaybe": 6303,
      "mporal": 6304,
      "non": 6305,
      "Convention": 6306,
      "ĠAPP": 6307,
      "ixt": 6308,
      "ĠFOR": 6309,
      "permission": 6310,
      "show": 6311,
      "ChangeListener": 6312,
      "Ġtwo": 6313,
      "Positive": 6314,
      "78": 6315,
      "Discovery": 6316,
      "Ġael": 6317,
      "ĠStore": 6318,
      "creen": 6319,
      "73": 6320,
      "Deserializer": 6321,
      "ĠSign": 6322,
      "Ġidentity": 6323,
      "ĠDo": 6324,
      "consumer": 6325,
      "sk": 6326,
      "ĠFILE": 6327,
      "Head": 6328,
      "icit": 6329,
      "({\"": 6330,
      "USTOM": 6331,
      "istogram": 6332,
      "(\"${": 6333,
      "USH": 6334,
      "second": 6335,
      "Privilege": 6336,
      "Encryption": 6337,
      "era": 6338,
      "Tenant": 6339,
      "ĠTarget": 6340,
      "sm": 6341,
      "FILTER": 6342,
      "Ġ64": 6343,
      "ildcard": 6344,
      "Translation": 6345,
      "ĠPack": 6346,
      "tl": 6347,
      "98": 6348,
      "tmp": 6349,
      "DES": 6350,
      "rate": 6351,
      "ĠBiFunction": 6352,
      "Ġdistance": 6353,
      "ĠCharacter": 6354,
      "dn": 6355,
      "Ġplayer": 6356,
      "preter": 6357,
      "Under": 6358,
      "transform": 6359,
      "sort": 6360,
      "Pur": 6361,
      "Ġcontract": 6362,
      "AAAAAAAAAAAAAAAA": 6363,
      "orit": 6364,
      "II": 6365,
      "Br": 6366,
      "Ġcomplete": 6367,
      "unnel": 6368,
      "Dependencies": 6369,
      "Ġtransfer": 6370,
      "Encrypted": 6371,
      "States": 6372,
      "ILITY": 6373,
      "ĠPeriod": 6374,
      "Ġorigin": 6375,
      "Association": 6376,
      "ĠoptionalLayerParameter": 6377,
      "iece": 6378,
      "(_": 6379,
      "ĠAtomicLong": 6380,
      "ĠDataSource": 6381,
      "ĠlognormalVol": 6382,
      "Blocks": 6383,
      "Ġcurrency": 6384,
      "ĠExpr": 6385,
      "Ġnative": 6386,
      "FFIX": 6387,
      "Game": 6388,
      "NER": 6389,
      "head": 6390,
      "owner": 6391,
      "vest": 6392,
      "Ġio": 6393,
      "orrelation": 6394,
      "OST": 6395,
      "impleName": 6396,
      "ettle": 6397,
      "charAt": 6398,
      "REQU": 6399,
      "bum": 6400,
      "locate": 6401,
      "ĠgetLong": 6402,
      "day": 6403,
      "METHOD": 6404,
      "SM": 6405,
      "Ġservlet": 6406,
      "Visit": 6407,
      "report": 6408,
      "ĠAsset": 6409,
      "fish": 6410,
      "ĠFraction": 6411,
      "icon": 6412,
      "parseInt": 6413,
      "500": 6414,
      "SPE": 6415,
      "zA": 6416,
      "Ġmemory": 6417,
      "Psu": 6418,
      "Stub": 6419,
      "ench": 6420,
      "IZATION": 6421,
      "Aggregate": 6422,
      "MAR": 6423,
      "Ġgo": 6424,
      "NLS": 6425,
      "Syntax": 6426,
      "IES": 6427,
      "Po": 6428,
      "Indicator": 6429,
      "Fix": 6430,
      "ĠOR": 6431,
      "ĠDocumentReference": 6432,
      "MON": 6433,
      "Such": 6434,
      "CEPTION": 6435,
      "Ġtransport": 6436,
      "Ġlat": 6437,
      "Commands": 6438,
      "Scheduled": 6439,
      "ĠprogressListener": 6440,
      "gree": 6441,
      "ĠInstanceIdentifier": 6442,
      "Sn": 6443,
      "ims": 6444,
      "CONTR": 6445,
      "psl": 6446,
      "Ġlayer": 6447,
      "Sets": 6448,
      "ness": 6449,
      "UserGroup": 6450,
      "Ġdeployment": 6451,
      "Ġtoo": 6452,
      "AccessToken": 6453,
      "()[": 6454,
      "Extensions": 6455,
      "Ġry": 6456,
      "ways": 6457,
      "ĠQueue": 6458,
      "ĠSafe": 6459,
      "ĠIS": 6460,
      "repository": 6461,
      "----------------": 6462,
      "hadoop": 6463,
      "Years": 6464,
      "metrics": 6465,
      "Ġlanguage": 6466,
      "Ġstrategy": 6467,
      "Ġenum": 6468,
      "KER": 6469,
      "ĠNEW": 6470,
      "RS": 6471,
      "ignment": 6472,
      "Ġmodify": 6473,
      "ĠReport": 6474,
      "128": 6475,
      "Hierarchy": 6476,
      "imil": 6477,
      "Ontology": 6478,
      "Words": 6479,
      "livery": 6480,
      "Ġel": 6481,
      "osp": 6482,
      "Ġ?,": 6483,
      "ursive": 6484,
      "Roll": 6485,
      "ĠProgressResponseBody": 6486,
      "Go": 6487,
      "Ġmay": 6488,
      "62": 6489,
      "');": 6490,
      "ĠTAG": 6491,
      "parameters": 6492,
      "ives": 6493,
      "Black": 6494,
      "Removed": 6495,
      "Expiration": 6496,
      "MAGE": 6497,
      "ĠApiCallback": 6498,
      "åĲ": 6499,
      "ĠKsql": 6500,
      "Coder": 6501,
      "ĠHttpStatus": 6502,
      "HEL": 6503,
      "gy": 6504,
      "UMENT": 6505,
      "VIDER": 6506,
      "Assertion": 6507,
      "Ġbroker": 6508,
      "INTERNAL": 6509,
      "xp": 6510,
      "Lists": 6511,
      "ĠPersist": 6512,
      "ottom": 6513,
      "inct": 6514,
      "SSL": 6515,
      "ĠJsonObject": 6516,
      "Pay": 6517,
      "Shift": 6518,
      "getCurrent": 6519,
      "Ġ500": 6520,
      "ĠMin": 6521,
      "Ġcertificate": 6522,
      "Ġobjects": 6523,
      "Ġ'\\": 6524,
      "THER": 6525,
      "isor": 6526,
      "Previous": 6527,
      "ĠnumberOf": 6528,
      "oubles": 6529,
      "TypeInfo": 6530,
      "ĠBuffered": 6531,
      "ĠLinkedHashMap": 6532,
      "Agend": 6533,
      "zone": 6534,
      "Aware": 6535,
      "ĠtimeToExpiry": 6536,
      "ADATA": 6537,
      "chest": 6538,
      "DOWN": 6539,
      "ĠWorkflow": 6540,
      "ĠDescri": 6541,
      "Topics": 6542,
      "ĠThreadLocal": 6543,
      "POSIT": 6544,
      "Tipo": 6545,
      "ĠunderTest": 6546,
      "ĠLock": 6547,
      "Ġui": 6548,
      "LEVEL": 6549,
      "Ġpacket": 6550,
      "anit": 6551,
      "ĠObjects": 6552,
      "RestService": 6553,
      "ampa": 6554,
      "Crn": 6555,
      "PROCESS": 6556,
      "MEM": 6557,
      "ampaign": 6558,
      "Procedure": 6559,
      "rp": 6560,
      "Func": 6561,
      "ĠISO": 6562,
      "\\\":[": 6563,
      "ĠCoin": 6564,
      "rimitive": 6565,
      "ProgressRequestListener": 6566,
      "ĠprogressRequestListener": 6567,
      "ĠProgressRequestBody": 6568,
      "sn": 6569,
      "stop": 6570,
      "enabled": 6571,
      "Ġupload": 6572,
      "Mailbox": 6573,
      "region": 6574,
      "Ġartifact": 6575,
      "72": 6576,
      "ĠReader": 6577,
      "Ġgas": 6578,
      "Ġ\"*": 6579,
      "Ġmaster": 6580,
      "dat": 6581,
      "Im": 6582,
      "Ġcursor": 6583,
      "Managed": 6584,
      "ĠDATE": 6585,
      "Streams": 6586,
      "ĠCredentials": 6587,
      "Increment": 6588,
      "GS": 6589,
      "Foo": 6590,
      "ApiClient": 6591,
      "Annot": 6592,
      "æ¥": 6593,
      "Ġ18": 6594,
      "\")),": 6595,
      "ĠBatch": 6596,
      "Ġinvo": 6597,
      "InfoEnabled": 6598,
      "roadcast": 6599,
      "Cms": 6600,
      "ĠEnumSet": 6601,
      "VIEW": 6602,
      "oneNumber": 6603,
      "Age": 6604,
      "ĠMy": 6605,
      "det": 6606,
      "hir": 6607,
      "GetMapping": 6608,
      "Ġ//$": 6609,
      "Units": 6610,
      "TIMESTAMP": 6611,
      "ĠdateTime": 6612,
      "DING": 6613,
      "Ġhigh": 6614,
      "verity": 6615,
      "ose": 6616,
      "ĠParser": 6617,
      "capture": 6618,
      "Signed": 6619,
      "Issue": 6620,
      "41": 6621,
      "Journal": 6622,
      "ĠMOCK": 6623,
      "NetworkLayer": 6624,
      "Fire": 6625,
      "ĠREG": 6626,
      "56789": 6627,
      "Ġqual": 6628,
      "Tile": 6629,
      "release": 6630,
      "Ġjust": 6631,
      "Pric": 6632,
      "Begin": 6633,
      "ĠgetKey": 6634,
      "Ġregex": 6635,
      "oci": 6636,
      "ico": 6637,
      "psp": 6638,
      "ĠPort": 6639,
      "FOUND": 6640,
      "ErrorMessage": 6641,
      "anc": 6642,
      "Src": 6643,
      "\\\\\\\\": 6644,
      "ĠSecure": 6645,
      "ĠMemory": 6646,
      "ĠyValues": 6647,
      "Ġcomb": 6648,
      "999": 6649,
      "(!": 6650,
      "Connected": 6651,
      "ĠAnaly": 6652,
      "ArrayEquals": 6653,
      "Persistent": 6654,
      "[])": 6655,
      "COM": 6656,
      "FAIL": 6657,
      "auge": 6658,
      "Ġsig": 6659,
      "æ¥Ń": 6660,
      "timeout": 6661,
      "STER": 6662,
      "ĠClassLoader": 6663,
      "\":": 6664,
      "Ġhere": 6665,
      "EntityId": 6666,
      "aption": 6667,
      "AttributeValue": 6668,
      "keySet": 6669,
      "Coupon": 6670,
      "Readable": 6671,
      "rpc": 6672,
      "Ġ\"--": 6673,
      "attr": 6674,
      "Checkpoint": 6675,
      "ĠHE": 6676,
      "network": 6677,
      "Subscribe": 6678,
      "Ġtop": 6679,
      "ĠDynamic": 6680,
      "255": 6681,
      "ube": 6682,
      "device": 6683,
      "entation": 6684,
      "NET": 6685,
      "ĠPRI": 6686,
      "DFS": 6687,
      "getSimpleName": 6688,
      "ĠStatement": 6689,
      "ĠgetService": 6690,
      "MATCH": 6691,
      "Ġsent": 6692,
      "ĠAN": 6693,
      "ĠLogical": 6694,
      "ĠJsonValue": 6695,
      "Restrict": 6696,
      "Lifecycle": 6697,
      "ĠRO": 6698,
      "Promise": 6699,
      "ĠSTRING": 6700,
      "Ġworkflow": 6701,
      "Keeper": 6702,
      "Sumario": 6703,
      "/*": 6704,
      "MN": 6705,
      "uring": 6706,
      "ĠNUM": 6707,
      "ah": 6708,
      "Ġorganization": 6709,
      "Balancer": 6710,
      "olicies": 6711,
      "STEM": 6712,
      "MetaInterface": 6713,
      "ĠTH": 6714,
      "aj": 6715,
      "}\");": 6716,
      "separator": 6717,
      "si": 6718,
      "CAP": 6719,
      "ACCOUNT": 6720,
      "Ġfix": 6721,
      "ĠGeo": 6722,
      "Detector": 6723,
      "NullArgumentException": 6724,
      "ighbor": 6725,
      "ĠgetRe": 6726,
      "Customization": 6727,
      "SUFFIX": 6728,
      "ues": 6729,
      "Ġmultiply": 6730,
      "ConsistencyCheck": 6731,
      "CKET": 6732,
      "93": 6733,
      "bind": 6734,
      "left": 6735,
      "Ġ\"%": 6736,
      "rad": 6737,
      "ReadOnly": 6738,
      "Ġstats": 6739,
      "Ġmissing": 6740,
      "ĠGeometry": 6741,
      "MAIL": 6742,
      "ĠTransfer": 6743,
      "ĠOffset": 6744,
      "sIn": 6745,
      "Checksum": 6746,
      "ErrorCode": 6747,
      "ĠCRE": 6748,
      "Round": 6749,
      "success": 6750,
      "luetooth": 6751,
      "MOD": 6752,
      "iber": 6753,
      "ined": 6754,
      "product": 6755,
      "Hostname": 6756,
      "uer": 6757,
      "Team": 6758,
      "ĠActivity": 6759,
      "51": 6760,
      "Ġremoved": 6761,
      "Help": 6762,
      "void": 6763,
      "ĠBitSet": 6764,
      "erberos": 6765,
      "2011": 6766,
      "It": 6767,
      "ENTITY": 6768,
      "Provision": 6769,
      "Ġresolver": 6770,
      "LOAT": 6771,
      "Ġ'.',": 6772,
      "Spi": 6773,
      "ology": 6774,
      "ĠgetData": 6775,
      "Resolution": 6776,
      "rivileges": 6777,
      "Ġedge": 6778,
      "Situacao": 6779,
      "Ġgrid": 6780,
      "Ġcached": 6781,
      "Logs": 6782,
      "ĠtenantId": 6783,
      "Configured": 6784,
      "SUP": 6785,
      "hive": 6786,
      "Ġprice": 6787,
      "Ġinstall": 6788,
      "readOnly": 6789,
      "sw": 6790,
      "RequestContext": 6791,
      "erivative": 6792,
      "Maps": 6793,
      "BAD": 6794,
      "ĠArt": 6795,
      "ĠProtocol": 6796,
      "original": 6797,
      "]{": 6798,
      "ĠPh": 6799,
      "vailability": 6800,
      "ĠexpectedException": 6801,
      "ENABLED": 6802,
      "style": 6803,
      "ĠremoveAll": 6804,
      "ĠgetJob": 6805,
      "alt": 6806,
      "Comparison": 6807,
      "Utility": 6808,
      "Backend": 6809,
      "BIG": 6810,
      "Ġdeserialize": 6811,
      "Ġconnector": 6812,
      "BLOCK": 6813,
      "\",\"": 6814,
      "OFFSET": 6815,
      "sr": 6816,
      "enable": 6817,
      "Idle": 6818,
      "ĠVitam": 6819,
      "bucket": 6820,
      "ĠCounter": 6821,
      "Ġabsolute": 6822,
      "Declared": 6823,
      "meta": 6824,
      "Pairs": 6825,
      "ĠEN": 6826,
      "Generated": 6827,
      "ĠPeer": 6828,
      "FFER": 6829,
      "ĠConcept": 6830,
      "THREAD": 6831,
      "Requested": 6832,
      "toLowerCase": 6833,
      "ViewModel": 6834,
      "Translator": 6835,
      "currency": 6836,
      "argument": 6837,
      "GroupName": 6838,
      "Quote": 6839,
      "ĠExternal": 6840,
      "Pac": 6841,
      "imited": 6842,
      "IGHT": 6843,
      "Ġdiff": 6844,
      "DY": 6845,
      "namespace": 6846,
      "ĠDATA": 6847,
      "Secure": 6848,
      "inger": 6849,
      "Interactions": 6850,
      "(\",": 6851,
      "','": 6852,
      "va": 6853,
      "Ġworker": 6854,
      "JsonIgnore": 6855,
      "concept": 6856,
      "ASK": 6857,
      "Utilities": 6858,
      "MAIN": 6859,
      "ConsistencyCheckLevel": 6860,
      "ĠSync": 6861,
      "Company": 6862,
      "sb": 6863,
      "Ġregistered": 6864,
      "ĠProgram": 6865,
      "rase": 6866,
      "xValues": 6867,
      "getParent": 6868,
      "ĠresourceType": 6869,
      "LINK": 6870,
      "pid": 6871,
      "Ġauthorization": 6872,
      "ĠLazy": 6873,
      "CASE": 6874,
      "DN": 6875,
      "Su": 6876,
      "Ġsubscription": 6877,
      "OPER": 6878,
      "UAL": 6879,
      "Ġbinding": 6880,
      "TAIN": 6881,
      "sId": 6882,
      "Ġmer": 6883,
      "Dev": 6884,
      "ApiResponses": 6885,
      "rawable": 6886,
      "Ack": 6887,
      "Nested": 6888,
      "Ġ\"#": 6889,
      "Cor": 6890,
      "So": 6891,
      "Assignable": 6892,
      "ressed": 6893,
      "hcache": 6894,
      "AVA": 6895,
      "balance": 6896,
      "ĠBinding": 6897,
      "ĠapplicationId": 6898,
      "userId": 6899,
      "ĠNames": 6900,
      "TIFI": 6901,
      "IRODS": 6902,
      "61": 6903,
      "Between": 6904,
      "Ġyear": 6905,
      "Servers": 6906,
      "Operand": 6907,
      "Verifier": 6908,
      "Ġconcat": 6909,
      "Visibility": 6910,
      "Paint": 6911,
      "Ġutil": 6912,
      "Ġzero": 6913,
      "Ġwarn": 6914,
      "pattern": 6915,
      "lem": 6916,
      "isInfoEnabled": 6917,
      "ĠpageSize": 6918,
      "agination": 6919,
      "Ġpending": 6920,
      "RESULT": 6921,
      "getMethod": 6922,
      "Ġinterface": 6923,
      "Ġdisp": 6924,
      "Constraints": 6925,
      "insert": 6926,
      "Latch": 6927,
      "WO": 6928,
      ",\\": 6929,
      "Multimap": 6930,
      "modifiable": 6931,
      "ĠVERSION": 6932,
      "Ġwrap": 6933,
      "2013": 6934,
      "Cannot": 6935,
      "GB": 6936,
      "Ġcost": 6937,
      "ĠModule": 6938,
      "setValue": 6939,
      "Ġseq": 6940,
      "ĠSortedMap": 6941,
      "igible": 6942,
      "127": 6943,
      "ĠgetR": 6944,
      "subscribe": 6945,
      "Loaded": 6946,
      "iset": 6947,
      "Ġdestroy": 6948,
      "ArgumentsChecked": 6949,
      "ĠgetClass": 6950,
      "ĠUP": 6951,
      "TOPIC": 6952,
      "(\"\\\\": 6953,
      "NEW": 6954,
      "DOM": 6955,
      "Problem": 6956,
      "toArray": 6957,
      "Pdf": 6958,
      "Ġsender": 6959,
      "ĠgetCache": 6960,
      "cf": 6961,
      "herit": 6962,
      "sample": 6963,
      ")?": 6964,
      "Parametro": 6965,
      "EE": 6966,
      "ĠBusiness": 6967,
      "CONTEXT": 6968,
      "Life": 6969,
      "SENT": 6970,
      "Md": 6971,
      "ĠInetSocketAddress": 6972,
      "getCode": 6973,
      "ĠgetObject": 6974,
      "Ġrows": 6975,
      "Vec": 6976,
      "Provided": 6977,
      "BOOLEAN": 6978,
      "MetaStore": 6979,
      "ĠFor": 6980,
      "ĠFake": 6981,
      "DEN": 6982,
      "OrEmpty": 6983,
      "uggest": 6984,
      "ĠserviceName": 6985,
      "pend": 6986,
      "DIS": 6987,
      "ĠAdmin": 6988,
      "ĠImport": 6989,
      "ĠHTML": 6990,
      "Ġgen": 6991,
      "ĠVoid": 6992,
      "Ġtimer": 6993,
      "Sco": 6994,
      "Hive": 6995,
      "atfish": 6996,
      "Stri": 6997,
      "Measurement": 6998,
      "ĠCategory": 6999,
      "MSG": 7000,
      "ĠcolumnLabel": 7001,
      "ĠBIT": 7002,
      "zure": 7003,
      "ãģ®": 7004,
      "loor": 7005,
      "ILED": 7006,
      "ularity": 7007,
      "else": 7008,
      "Decode": 7009,
      "ĠShard": 7010,
      "ĠfindBy": 7011,
      "losing": 7012,
      "ĠDecimal": 7013,
      "Ġreason": 7014,
      "Many": 7015,
      "attributes": 7016,
      "Ġev": 7017,
      "Restore": 7018,
      "LIMITER": 7019,
      "Bad": 7020,
      "DENT": 7021,
      "ĠLocalDateTime": 7022,
      "enta": 7023,
      "QUAL": 7024,
      "Given": 7025,
      "ritt": 7026,
      "Ġocc": 7027,
      "ĠerrorMessage": 7028,
      "101": 7029,
      "Facet": 7030,
      "Ġprev": 7031,
      "TIES": 7032,
      "Ġacl": 7033,
      "willReturn": 7034,
      "avail": 7035,
      "EventType": 7036,
      "BYTE": 7037,
      "ĠCode": 7038,
      "Traffic": 7039,
      "Ġblob": 7040,
      "ĠCondition": 7041,
      "TYPES": 7042,
      "ategories": 7043,
      "ux": 7044,
      "TASK": 7045,
      "\"};": 7046,
      "regist": 7047,
      "(\"%": 7048,
      "oto": 7049,
      "0001": 7050,
      "invoke": 7051,
      "Ġdat": 7052,
      "Ġprovided": 7053,
      "DataService": 7054,
      "getMax": 7055,
      "Ġcy": 7056,
      "loaded": 7057,
      "Ġsuffix": 7058,
      "\\\"},": 7059,
      "lying": 7060,
      "Mgr": 7061,
      "LER": 7062,
      "rivacy": 7063,
      "essor": 7064,
      "Ġthrowable": 7065,
      "HttpInfo": 7066,
      "temp": 7067,
      "Ġimp": 7068,
      "only": 7069,
      "Ġredirect": 7070,
      "kit": 7071,
      "REFERENCE": 7072,
      "Ġsw": 7073,
      "Authorize": 7074,
      "PH": 7075,
      "Ġtenant": 7076,
      "Finished": 7077,
      "Ġinc": 7078,
      "Estim": 7079,
      "Ġcard": 7080,
      "Surface": 7081,
      "Qualifier": 7082,
      "Parcel": 7083,
      "Ġvisitor": 7084,
      "Routes": 7085,
      "arvest": 7086,
      "Mpm": 7087,
      "CEPT": 7088,
      "quires": 7089,
      "Ġ<?": 7090,
      "ĠPosition": 7091,
      "PACK": 7092,
      "assertNull": 7093,
      "SUCCESS": 7094,
      "Shop": 7095,
      "Identifiers": 7096,
      "BAL": 7097,
      "endpoint": 7098,
      "Replica": 7099,
      "Replication": 7100,
      "Ġsymbol": 7101,
      "database": 7102,
      "Ġintyg": 7103,
      "Ġcls": 7104,
      "gingStation": 7105,
      "Ġchildren": 7106,
      "ĠPower": 7107,
      "ana": 7108,
      "TestUtils": 7109,
      "Handlers": 7110,
      "Ġunique": 7111,
      "PLUG": 7112,
      "ĠAll": 7113,
      "CY": 7114,
      "ĠclusterId": 7115,
      "Relative": 7116,
      "ritten": 7117,
      "ĠPdf": 7118,
      "ole": 7119,
      "CHANGE": 7120,
      "ĠJms": 7121,
      "BuildingBlock": 7122,
      "getInt": 7123,
      "Ġframe": 7124,
      "ĠAuthorization": 7125,
      "Ġfailure": 7126,
      "Ġstyle": 7127,
      "common": 7128,
      "Colon": 7129,
      "Ratio": 7130,
      "BR": 7131,
      "ScalarFunction": 7132,
      "Ġinteger": 7133,
      "UNKNOWN": 7134,
      "Ġhand": 7135,
      "ĠByteArrayOutputStream": 7136,
      "ĠSubscription": 7137,
      "entaho": 7138,
      "mot": 7139,
      "ServiceInstance": 7140,
      "Ready": 7141,
      "rift": 7142,
      "Ġreturned": 7143,
      "asc": 7144,
      "POR": 7145,
      "ulator": 7146,
      "ITLE": 7147,
      "Interpolator": 7148,
      "iser": 7149,
      "compute": 7150,
      "ĠWrite": 7151,
      "ĠjobId": 7152,
      "wd": 7153,
      "(\"^": 7154,
      "Ġmonth": 7155,
      "Ġaggregate": 7156,
      "Publish": 7157,
      "env": 7158,
      "Ġfactor": 7159,
      "ĠgetInt": 7160,
      "Matchers": 7161,
      "execution": 7162,
      "Ġalias": 7163,
      "handler": 7164,
      "EXCEPTION": 7165,
      "ALSE": 7166,
      "Ġos": 7167,
      "implify": 7168,
      "SW": 7169,
      "ĠELEMENTTYPE": 7170,
      "ĠClose": 7171,
      "getLast": 7172,
      "Generation": 7173,
      "returnValue": 7174,
      "Ġadded": 7175,
      "Ġauthent": 7176,
      "MultivariatePolynomial": 7177,
      "hello": 7178,
      "ĠmethodName": 7179,
      "(\"<": 7180,
      "AttributeType": 7181,
      "ĠIllegalNullArgumentException": 7182,
      "Vo": 7183,
      "ĠTrace": 7184,
      "jar": 7185,
      "headers": 7186,
      "Ġencoded": 7187,
      "Providers": 7188,
      "bt": 7189,
      "SUM": 7190,
      "Ġ25": 7191,
      "ĠQName": 7192,
      "Ġts": 7193,
      "reset": 7194,
      "[],": 7195,
      "Quantity": 7196,
      "omet": 7197,
      "ĠLevel": 7198,
      "ĠaccountId": 7199,
      "ĠNew": 7200,
      "ROLE": 7201,
      "ral": 7202,
      "Ssl": 7203,
      "ĠNot": 7204,
      "LOCATION": 7205,
      "!\");": 7206,
      "category": 7207,
      "collection": 7208,
      "Ġdecimal": 7209,
      "Absent": 7210,
      "ĠVALID": 7211,
      "Ġfl": 7212,
      "Pub": 7213,
      "atesProvider": 7214,
      "Ġcompany": 7215,
      "idual": 7216,
      "202": 7217,
      "äº": 7218,
      "ĠgroupId": 7219,
      "Bond": 7220,
      "getParameter": 7221,
      "Anchor": 7222,
      "Ġrad": 7223,
      "Ġscan": 7224,
      "tics": 7225,
      "redit": 7226,
      "Video": 7227,
      "nost": 7228,
      "Ġagent": 7229,
      "mar": 7230,
      "Ġtrigger": 7231,
      "transaction": 7232,
      "multi": 7233,
      "Ġvari": 7234,
      "oke": 7235,
      "TRUE": 7236,
      "Ġsubmit": 7237,
      "IFIER": 7238,
      "WT": 7239,
      "buf": 7240,
      "Ġedit": 7241,
      "ĠrequestHeaders": 7242,
      "Ġpromise": 7243,
      "ĠgetH": 7244,
      "Decision": 7245,
      "ĠSymbol": 7246,
      "HERE": 7247,
      "Ġruntime": 7248,
      "ĠObserver": 7249,
      "Ġ\"(": 7250,
      "Ġpresenter": 7251,
      "Difference": 7252,
      "limit": 7253,
      "Binder": 7254,
      "IndexOf": 7255,
      "ĠApiResponse": 7256,
      "ĠProfile": 7257,
      "cm": 7258,
      "Ġreverse": 7259,
      "ĠIs": 7260,
      "Ġinner": 7261,
      "cludes": 7262,
      "ĠTABLE": 7263,
      "Enable": 7264,
      "****": 7265,
      "ualiz": 7266,
      "enableFuture": 7267,
      "getObject": 7268,
      "ĠPost": 7269,
      "eterministic": 7270,
      "PAYMENT": 7271,
      "UnivariatePolynomial": 7272,
      "ĠSerde": 7273,
      "Domin": 7274,
      "Loading": 7275,
      "Responder": 7276,
      "ĠTimer": 7277,
      "Ġchunk": 7278,
      "cedure": 7279,
      "ĠrequestId": 7280,
      "ĠXmlItem": 7281,
      "versal": 7282,
      "Verify": 7283,
      "Ġevents": 7284,
      "vation": 7285,
      "ĠREQUEST": 7286,
      "Construct": 7287,
      "Ġtri": 7288,
      "ĠAcl": 7289,
      "INPUT": 7290,
      "FLOW": 7291,
      "amera": 7292,
      "Decomp": 7293,
      "CLUSTER": 7294,
      "Ġtranslate": 7295,
      "\\\"\\": 7296,
      "Ġtuple": 7297,
      "ĠgetRequest": 7298,
      "mn": 7299,
      "ĠAUTH": 7300,
      "ARGET": 7301,
      "Effect": 7302,
      "Ġ+\"": 7303,
      "00000": 7304,
      "ĠSelector": 7305,
      "payment": 7306,
      "=\\\"\"": 7307,
      "ĠLogging": 7308,
      "ĠUnsupportedOperationException": 7309,
      "Federation": 7310,
      "Extr": 7311,
      "ĠManaged": 7312,
      "roles": 7313,
      "Ġhead": 7314,
      "ĠGET": 7315,
      "Could": 7316,
      "Money": 7317,
      "PrivateKey": 7318,
      "iagram": 7319,
      "Locations": 7320,
      "Flush": 7321,
      "Ġ23": 7322,
      "ius": 7323,
      "Ġwithout": 7324,
      "tree": 7325,
      "Ġsubtract": 7326,
      "plica": 7327,
      "ograph": 7328,
      "FACTORY": 7329,
      "Ġdetermine": 7330,
      "Hub": 7331,
      "control": 7332,
      "ENTRY": 7333,
      "reaterThan": 7334,
      "Ġdifferent": 7335,
      "Lon": 7336,
      "ĠclusterName": 7337,
      "FieldName": 7338,
      "Submit": 7339,
      "rollback": 7340,
      "WARN": 7341,
      "vnd": 7342,
      "icker": 7343,
      "\\\"/>\"": 7344,
      "RC": 7345,
      "Ġ`": 7346,
      "latMap": 7347,
      "sole": 7348,
      "Coll": 7349,
      "ATURE": 7350,
      "ocab": 7351,
      "Implicit": 7352,
      "Ġpair": 7353,
      "Windows": 7354,
      ")\\\\": 7355,
      "XWiki": 7356,
      "ĠTri": 7357,
      "Scroll": 7358,
      "Into": 7359,
      "ĠExperiment": 7360,
      "ĠChange": 7361,
      "Ġaudit": 7362,
      "Outcome": 7363,
      "References": 7364,
      "cur": 7365,
      "TimeZone": 7366,
      "ĠGson": 7367,
      "ĠMpm": 7368,
      "fields": 7369,
      "WithHttpInfo": 7370,
      "TEMPLATE": 7371,
      "Ġloader": 7372,
      "Already": 7373,
      "Threads": 7374,
      "CALL": 7375,
      "ĠEdge": 7376,
      "Ġserv": 7377,
      "Font": 7378,
      "Organization": 7379,
      "Ġdon": 7380,
      "Ġ\"\"": 7381,
      "TreeNode": 7382,
      "elist": 7383,
      "atten": 7384,
      "ĠVO": 7385,
      "Configurations": 7386,
      "plain": 7387,
      "dl": 7388,
      "ĠforEach": 7389,
      "Ġintent": 7390,
      "Ġproducer": 7391,
      "Ġpriority": 7392,
      "Spread": 7393,
      "Ġreplay": 7394,
      "Subnet": 7395,
      "ĠNamespace": 7396,
      "users": 7397,
      "Stock": 7398,
      "color": 7399,
      "Unsupported": 7400,
      "JO": 7401,
      "side": 7402,
      "SIGN": 7403,
      "Ġconcept": 7404,
      "Pricer": 7405,
      "aco": 7406,
      "pri": 7407,
      "ĠEPS": 7408,
      "Ġsupport": 7409,
      "ĠfindAll": 7410,
      "Compare": 7411,
      "ĠnodeId": 7412,
      "etic": 7413,
      "Ġxmlns": 7414,
      "Nan": 7415,
      "Ã©": 7416,
      "ĠSw": 7417,
      "ĠisIn": 7418,
      "MASK": 7419,
      "atype": 7420,
      "SED": 7421,
      "ĠComposite": 7422,
      ")\";": 7423,
      "pd": 7424,
      "-\";": 7425,
      "Ġsupplier": 7426,
      "ĠattributeName": 7427,
      "Ġdriver": 7428,
      "paces": 7429,
      "ĠCriterion": 7430,
      "soft": 7431,
      "ĠBean": 7432,
      "irc": 7433,
      "ĠFROM": 7434,
      "Ġincrement": 7435,
      "ĠVirtual": 7436,
      "ĠMark": 7437,
      "plor": 7438,
      "Cached": 7439,
      "StartDate": 7440,
      "Three": 7441,
      "Ġdelimiter": 7442,
      "ĠCallback": 7443,
      "Thrown": 7444,
      "timestamp": 7445,
      "wiki": 7446,
      "Stroke": 7447,
      "Ġvnf": 7448,
      "ĠOrg": 7449,
      "Ġcomparator": 7450,
      "available": 7451,
      "Low": 7452,
      "formed": 7453,
      "Ġdisable": 7454,
      "Then": 7455,
      "inc": 7456,
      "ĠTypeDescriptor": 7457,
      "Importer": 7458,
      "total": 7459,
      "getB": 7460,
      "IE": 7461,
      "Ġparts": 7462,
      "YEAR": 7463,
      "ĠCount": 7464,
      "car": 7465,
      "Charsets": 7466,
      "ĠgetFirst": 7467,
      "pslObject": 7468,
      "setDescription": 7469,
      "ĠInstruction": 7470,
      "ĠPreconditions": 7471,
      "ParseException": 7472,
      "Ġsocket": 7473,
      "omin": 7474,
      "Infos": 7475,
      "Ġcur": 7476,
      "Ġcollect": 7477,
      "ĠOwner": 7478,
      "Connections": 7479,
      "Ġunder": 7480,
      "ĠNullPointerException": 7481,
      "script": 7482,
      "Ġengine": 7483,
      "pass": 7484,
      "Multipart": 7485,
      "ĠValidator": 7486,
      "]\";": 7487,
      "ĠcompareTo": 7488,
      "ĠDb": 7489,
      "ĠOptions": 7490,
      "FormatException": 7491,
      "Polygon": 7492,
      "ĠCoordinate": 7493,
      "REMO": 7494,
      "Digits": 7495,
      "ĠSink": 7496,
      "Ġsafe": 7497,
      "Ġsince": 7498,
      "Ġquestion": 7499,
      "ĠindexOf": 7500,
      "Ġmodified": 7501,
      "Destroy": 7502,
      "Ġcommon": 7503,
      "ä»": 7504,
      "\\\"}": 7505,
      "Ġfollow": 7506,
      "Exec": 7507,
      "ĠDown": 7508,
      "CLO": 7509,
      "ĠBY": 7510,
      "ingRule": 7511,
      "level": 7512,
      "8080": 7513,
      "ĠCertificate": 7514,
      "////////////////": 7515,
      "Gran": 7516,
      "HH": 7517,
      "MAT": 7518,
      "WID": 7519,
      "Ġ\":": 7520,
      "payload": 7521,
      "Ġ\"+": 7522,
      "Ġgenerator": 7523,
      "Ġcanvas": 7524,
      "Like": 7525,
      "ĠtargetType": 7526,
      "Ġvolume": 7527,
      "Ġadjust": 7528,
      "UnderTest": 7529,
      "ĠFIELD": 7530,
      "subject": 7531,
      "itespace": 7532,
      "orities": 7533,
      "PermissionRule": 7534,
      "TLS": 7535,
      "aterm": 7536,
      "ãĥ¼": 7537,
      "FROM": 7538,
      "Ġsecret": 7539,
      "HTML": 7540,
      "randomUUID": 7541,
      "ĠWX": 7542,
      "Ġca": 7543,
      "ifecycle": 7544,
      "Ġrm": 7545,
      "uuid": 7546,
      "proxy": 7547,
      "iom": 7548,
      "POOL": 7549,
      "StreamReader": 7550,
      "Behavior": 7551,
      "(((": 7552,
      "Fs": 7553,
      "LET": 7554,
      "getLocal": 7555,
      "Ġpad": 7556,
      "ĠGlobal": 7557,
      "urrence": 7558,
      "Employee": 7559,
      "çĶ": 7560,
      "Now": 7561,
      "<?>...": 7562,
      "Const": 7563,
      "Exit": 7564,
      "rity": 7565,
      "ResponseStatus": 7566,
      "pn": 7567,
      "als": 7568,
      "ĠSocket": 7569,
      "ĠIO": 7570,
      "Offsets": 7571,
      "Ġdraw": 7572,
      "Mvc": 7573,
      "Sw": 7574,
      "ipt": 7575,
      "Ġgrant": 7576,
      "REQUI": 7577,
      "reatment": 7578,
      "ĠSSL": 7579,
      "ChannelHandlerContext": 7580,
      "xM": 7581,
      "Ġmatrix": 7582,
      "Ġdto": 7583,
      "ĠACCESS": 7584,
      "2007": 7585,
      "span": 7586,
      "defined": 7587,
      "ĠMedia": 7588,
      "Ġgenerated": 7589,
      "Ġĉĉĉĉĉĉĉ": 7590,
      "Ġeach": 7591,
      "policy": 7592,
      "ributor": 7593,
      "ThreadPool": 7594,
      "ĠWallet": 7595,
      "ĠUtils": 7596,
      "ĠdbName": 7597,
      "ention": 7598,
      "ĠKTable": 7599,
      "atermark": 7600,
      "POS": 7601,
      "reject": 7602,
      "HttpServletResponse": 7603,
      "ynamo": 7604,
      "Ġ\"$": 7605,
      "InstanceOf": 7606,
      "ĠLogin": 7607,
      "CONDITION": 7608,
      "isk": 7609,
      "ĠIntentBuilder": 7610,
      "HELP": 7611,
      "ĠClock": 7612,
      "OUTPUT": 7613,
      "Ġcandidate": 7614,
      "udent": 7615,
      "cepted": 7616,
      "ĠInterruptedException": 7617,
      "ĠcolumnName": 7618,
      "Statements": 7619,
      "bench": 7620,
      "ĠRout": 7621,
      "econds": 7622,
      "cise": 7623,
      "Ġ31": 7624,
      "ADMIN": 7625,
      "existing": 7626,
      "PROVIDER": 7627,
      "Coordinate": 7628,
      "DebugEnabled": 7629,
      "profile": 7630,
      "Author": 7631,
      "REL": 7632,
      "())));": 7633,
      "Ġchanged": 7634,
      "Compute": 7635,
      "getT": 7636,
      "ĠgetMessage": 7637,
      "METRI": 7638,
      "Chart": 7639,
      "Ġsut": 7640,
      "BC": 7641,
      "ĠgetIn": 7642,
      "Ġbetween": 7643,
      "estRate": 7644,
      "Until": 7645,
      "Ġmaximum": 7646,
      "Depth": 7647,
      "WRITE": 7648,
      "Sem": 7649,
      "Eviction": 7650,
      "]\");": 7651,
      "ĠREF": 7652,
      "factory": 7653,
      "Ġdao": 7654,
      "ĠobjectMapper": 7655,
      "ĠPROPER": 7656,
      "Ġtra": 7657,
      "Ġ201": 7658,
      "idence": 7659,
      "fe": 7660,
      "ĠExp": 7661,
      "Ġlike": 7662,
      "Correct": 7663,
      "Ġsite": 7664,
      "Expired": 7665,
      "Ġcapacity": 7666,
      "Ġaggreg": 7667,
      "aaaaaaaa": 7668,
      "Ġdr": 7669,
      "Ġprimary": 7670,
      "Warning": 7671,
      "ootstrapCacheLoader": 7672,
      "opt": 7673,
      "BIT": 7674,
      "acon": 7675,
      "Diagram": 7676,
      "ĠCms": 7677,
      "ĠCacheManager": 7678,
      "allow": 7679,
      "ĠElements": 7680,
      "(){": 7681,
      "Related": 7682,
      "Ġrelative": 7683,
      "GIN": 7684,
      "Ġkeep": 7685,
      "arge": 7686,
      "agraph": 7687,
      "protected": 7688,
      "alk": 7689,
      "Ġder": 7690,
      "ENSION": 7691,
      "Receive": 7692,
      "ĠCommandLine": 7693,
      "Ġinf": 7694,
      "orrection": 7695,
      "ĠIRODS": 7696,
      "OWL": 7697,
      "ither": 7698,
      "Ġpermissions": 7699,
      "ĠHttpClient": 7700,
      "Pod": 7701,
      "LAT": 7702,
      "Ġcla": 7703,
      "Modules": 7704,
      "Ġ--": 7705,
      "/\"": 7706,
      "vide": 7707,
      "Ġprocessing": 7708,
      "Regions": 7709,
      "192": 7710,
      "CONNECTION": 7711,
      "Ġcriteria": 7712,
      "LOGGER": 7713,
      "Rfc": 7714,
      "tp": 7715,
      "getService": 7716,
      "artment": 7717,
      "del": 7718,
      "ĠProxy": 7719,
      "Allocation": 7720,
      "rich": 7721,
      "Ġĉĉĉĉĉĉĉĉĉĉ": 7722,
      "TAINER": 7723,
      "sel": 7724,
      "Done": 7725,
      "Bee": 7726,
      "ĠLeg": 7727,
      "Ġentities": 7728,
      "Availability": 7729,
      "ĠAND": 7730,
      "park": 7731,
      "Ġut": 7732,
      "ILD": 7733,
      "PROTO": 7734,
      "metric": 7735,
      "valuation": 7736,
      "ĠCassandra": 7737,
      "ĠMonetary": 7738,
      "rupt": 7739,
      "Serializable": 7740,
      "FC": 7741,
      "ĠresourceId": 7742,
      "getAbsolutePath": 7743,
      "aff": 7744,
      "TaskId": 7745,
      "ALLOW": 7746,
      "Ġdump": 7747,
      "Alive": 7748,
      "ades": 7749,
      "Ġdescribe": 7750,
      "Combination": 7751,
      "DAT": 7752,
      "reserv": 7753,
      "PLACE": 7754,
      "ĠCell": 7755,
      "ĠWindow": 7756,
      "Ġdirection": 7757,
      "MILLIS": 7758,
      "CacheManager": 7759,
      "Ġ\"/\"": 7760,
      "ONENT": 7761,
      "ĠAPPLICATION": 7762,
      "Shutdown": 7763,
      "Templates": 7764,
      "Ġexample": 7765,
      "cee": 7766,
      "getEntity": 7767,
      "Ġdirect": 7768,
      "Coordinator": 7769,
      "Ġannotations": 7770,
      "tlement": 7771,
      "IMAGE": 7772,
      "ĠFast": 7773,
      "equalTo": 7774,
      "Ġissue": 7775,
      "Ġidx": 7776,
      "HOP": 7777,
      "71": 7778,
      "Own": 7779,
      "Logic": 7780,
      "ĠFetch": 7781,
      "Statistic": 7782,
      "ositories": 7783,
      "reement": 7784,
      "atis": 7785,
      "Allocator": 7786,
      "Partial": 7787,
      "ĠNe": 7788,
      "ĠclientId": 7789,
      "words": 7790,
      "(\"-": 7791,
      "Continu": 7792,
      "optional": 7793,
      "Ġpoints": 7794,
      "dig": 7795,
      "Distributed": 7796,
      "Ġ42": 7797,
      "Draft": 7798,
      "ctet": 7799,
      "ixture": 7800,
      "inner": 7801,
      "findBy": 7802,
      "Ġrunning": 7803,
      "PERIO": 7804,
      "Ġbinary": 7805,
      "ĠgetNext": 7806,
      "ĠFire": 7807,
      "andidates": 7808,
      "ĠTASK": 7809,
      "Ġobserver": 7810,
      "Sha": 7811,
      "ĠInvo": 7812,
      "ĠAST": 7813,
      "RANGE": 7814,
      "Evaluation": 7815,
      "essaging": 7816,
      "aS": 7817,
      "Coin": 7818,
      "Ġshape": 7819,
      "Interfaces": 7820,
      "AelItemSolicitacaoExames": 7821,
      "Ġrespon": 7822,
      "Equ": 7823,
      "rator": 7824,
      "ĠgetTime": 7825,
      "Ġtasks": 7826,
      "ĠNon": 7827,
      "Ġrename": 7828,
      "Review": 7829,
      "ught": 7830,
      "edit": 7831,
      "replaceAll": 7832,
      "Dates": 7833,
      "JsonObject": 7834,
      "ĠBlob": 7835,
      "Capabilities": 7836,
      "ObserverContext": 7837,
      "Ġcb": 7838,
      "iecewise": 7839,
      "Urls": 7840,
      "google": 7841,
      "SYSTEM": 7842,
      "Ġdeleted": 7843,
      "ĠSpec": 7844,
      "require": 7845,
      "Ġmask": 7846,
      "',(": 7847,
      "ĠResolved": 7848,
      "Indexes": 7849,
      "Defined": 7850,
      "ĠIdentity": 7851,
      "Ġlines": 7852,
      "Ġ{\"--": 7853,
      "ĠgetNode": 7854,
      "IDENT": 7855,
      "FieldType": 7856,
      "imation": 7857,
      "updated": 7858,
      "EventListeners": 7859,
      "2015": 7860,
      "Leaf": 7861,
      "Ġattempt": 7862,
      "Naming": 7863,
      "TemplateOptions": 7864,
      "Ġserializer": 7865,
      "ĠgetLocal": 7866,
      "RequestBuilder": 7867,
      "Sources": 7868,
      "DEFINITION": 7869,
      "VfModule": 7870,
      "getContext": 7871,
      "WH": 7872,
      "Cause": 7873,
      "ORITY": 7874,
      "Parsing": 7875,
      "ĠgetContext": 7876,
      "ĠAudit": 7877,
      "Doubles": 7878,
      "OC": 7879,
      "tokens": 7880,
      "pool": 7881,
      "ipment": 7882,
      "EXIST": 7883,
      "png": 7884,
      "+\"": 7885,
      "ners": 7886,
      "Js": 7887,
      "uce": 7888,
      "results": 7889,
      "Migration": 7890,
      "odo": 7891,
      "Ascii": 7892,
      "olume": 7893,
      "Iso": 7894,
      "Facility": 7895,
      "getFile": 7896,
      ">>()": 7897,
      "getStatusCode": 7898,
      "ItemSolicitacaoExame": 7899,
      "Ġhelper": 7900,
      "Containers": 7901,
      "emo": 7902,
      "getFirst": 7903,
      "Invoker": 7904,
      "PROPERTIES": 7905,
      "Steps": 7906,
      "FRA": 7907,
      "ĠListenableFuture": 7908,
      "PUB": 7909,
      "Ġcp": 7910,
      "ĠfilePath": 7911,
      "MET": 7912,
      "izedType": 7913,
      "ĠOP": 7914,
      "Horario": 7915,
      "ĠLE": 7916,
      "FG": 7917,
      "Wrong": 7918,
      "WrappedArray": 7919,
      "Blocking": 7920,
      "Slice": 7921,
      "idr": 7922,
      "skip": 7923,
      "Ġbr": 7924,
      "ĠINVALID": 7925,
      "ees": 7926,
      "ui": 7927,
      "esNot": 7928,
      "getAttribute": 7929,
      "REE": 7930,
      "fit": 7931,
      "Theme": 7932,
      "ris": 7933,
      "NAMES": 7934,
      "VED": 7935,
      "Ġpaths": 7936,
      "Ġredu": 7937,
      "Ġ{{": 7938,
      "ĠtestSet": 7939,
      "tyg": 7940,
      "Clients": 7941,
      "Ġla": 7942,
      "mpt": 7943,
      "ĠPool": 7944,
      "Ġnet": 7945,
      "Ġseries": 7946,
      "WithArgs": 7947,
      "ceeded": 7948,
      "ĠgetBoolean": 7949,
      "ĠpsU": 7950,
      "DisplayName": 7951,
      "åĪ": 7952,
      "QualifiedName": 7953,
      "UpperCase": 7954,
      "getResult": 7955,
      "Ġcorrect": 7956,
      "Prob": 7957,
      "Ġcustomer": 7958,
      "GMENT": 7959,
      "Ġ\"\\\\": 7960,
      "||": 7961,
      "getL": 7962,
      "Ġexec": 7963,
      "ECUT": 7964,
      "Medium": 7965,
      "extension": 7966,
      "Fat": 7967,
      "getNode": 7968,
      "Counts": 7969,
      "CHED": 7970,
      "manager": 7971,
      "INITIAL": 7972,
      "fd": 7973,
      "ĠSort": 7974,
      "Launch": 7975,
      "Ġsorted": 7976,
      "ĠCOMP": 7977,
      "ĠSpi": 7978,
      "Ġ404": 7979,
      "CUSTOM": 7980,
      "StringTo": 7981,
      "AI": 7982,
      "Ġalert": 7983,
      "ambda": 7984,
      "Ġscheme": 7985,
      "InMemory": 7986,
      "getHost": 7987,
      "FieldValue": 7988,
      "Ctx": 7989,
      "Frequency": 7990,
      "Placeholder": 7991,
      "directory": 7992,
      "aching": 7993,
      "ĠOUT": 7994,
      "ImmutableList": 7995,
      "Mis": 7996,
      "ĠUrl": 7997,
      "segment": 7998,
      "PK": 7999,
      "ĠTransport": 8000,
      "fp": 8001,
      "Stamp": 8002,
      "ĠMongo": 8003,
      "Markdown": 8004,
      "\\\">\"": 8005,
      "Ġmultiple": 8006,
      ":\\": 8007,
      "Ġexclude": 8008,
      "Ġperm": 8009,
      "Ġsk": 8010,
      "Logical": 8011,
      "ĠtestCreate": 8012,
      "ĠMailbox": 8013,
      "ience": 8014,
      "CommandLine": 8015,
      "'\",": 8016,
      "Ġrs": 8017,
      "Timeline": 8018,
      "commit": 8019,
      "Ġtool": 8020,
      "Ġ36": 8021,
      "Ġssl": 8022,
      "PostMapping": 8023,
      "imen": 8024,
      "INDO": 8025,
      "etime": 8026,
      "Ġtrust": 8027,
      "World": 8028,
      "ounded": 8029,
      "ĠgetA": 8030,
      "Embed": 8031,
      "Ġrestore": 8032,
      "ni": 8033,
      "ĠFiles": 8034,
      "OnWrite": 8035,
      "Trial": 8036,
      "Ġstruct": 8037,
      "ha": 8038,
      "Ġcons": 8039,
      "ĠRetry": 8040,
      "Ġscore": 8041,
      "ELEMENT": 8042,
      "Ġ27": 8043,
      "ĠShared": 8044,
      "cogn": 8045,
      "ĠPA": 8046,
      "kafka": 8047,
      "JobConfig": 8048,
      "Vlan": 8049,
      "andExpect": 8050,
      "ĠGROUP": 8051,
      "login": 8052,
      "Ġbackup": 8053,
      "Ġoverride": 8054,
      "xis": 8055,
      "Ġ26": 8056,
      "LAST": 8057,
      "OrCreate": 8058,
      "xff": 8059,
      "isDebugEnabled": 8060,
      "expression": 8061,
      "vsdb": 8062,
      "ibl": 8063,
      "IK": 8064,
      "Membership": 8065,
      "gt": 8066,
      "Successful": 8067,
      "ĠgetPath": 8068,
      "ov": 8069,
      "EXPIRY": 8070,
      "ĠMono": 8071,
      "storage": 8072,
      "jdbc": 8073,
      "Ġ?>>": 8074,
      "PV": 8075,
      "åħ": 8076,
      "ReturnsMutable": 8077,
      "Ġarchive": 8078,
      "Ġinstant": 8079,
      "FAILED": 8080,
      "Ġrate": 8081,
      "getState": 8082,
      "ParserContext": 8083,
      "atic": 8084,
      "Cross": 8085,
      "JsonInclude": 8086,
      "PACKAGE": 8087,
      "]),": 8088,
      "Ġslot": 8089,
      "grees": 8090,
      "Generate": 8091,
      "icket": 8092,
      "ĠUINT": 8093,
      "ĠAR": 8094,
      "ĠContentType": 8095,
      "ĠCore": 8096,
      "ĠanyString": 8097,
      "micro": 8098,
      "ĠgetAel": 8099,
      "ĠassertSame": 8100,
      "RATE": 8101,
      "ResourceId": 8102,
      "nate": 8103,
      "Monitoring": 8104,
      "oler": 8105,
      "ĠDay": 8106,
      "agger": 8107,
      "SESSION": 8108,
      "polate": 8109,
      "Idx": 8110,
      "Ġexchange": 8111,
      "ecess": 8112,
      "ĠDownload": 8113,
      "folder": 8114,
      "lookup": 8115,
      "Sca": 8116,
      "Discounting": 8117,
      "getLong": 8118,
      "Ġpoly": 8119,
      "Ġstrip": 8120,
      "package": 8121,
      "ĠNME": 8122,
      "Encounter": 8123,
      "schemas": 8124,
      "Ġclasses": 8125,
      "Ġtax": 8126,
      "ibernate": 8127,
      "module": 8128,
      "Refer": 8129,
      "Ġplatform": 8130,
      "ĠAmbari": 8131,
      "ĠAWS": 8132,
      "ĠSend": 8133,
      "exl": 8134,
      "ĠSnapshot": 8135,
      "Realm": 8136,
      "getVersion": 8137,
      "Interest": 8138,
      "ĠDateUtils": 8139,
      "ĠArtifact": 8140,
      "WARD": 8141,
      "PY": 8142,
      "etype": 8143,
      "ĠendDate": 8144,
      "CssValue": 8145,
      "Plain": 8146,
      "ĠAggreg": 8147,
      "ĠConnect": 8148,
      "(\"\\": 8149,
      "TypeId": 8150,
      "ĠAS": 8151,
      "Digit": 8152,
      "Dirs": 8153,
      "Ġvert": 8154,
      "ĠgetVersion": 8155,
      "Trail": 8156,
      "Ġdue": 8157,
      "Ġhref": 8158,
      "Synchron": 8159,
      "ĠAvro": 8160,
      "activate": 8161,
      "Ġjar": 8162,
      "ĠHive": 8163,
      "ocabul": 8164,
      "AO": 8165,
      "DataStore": 8166,
      "ĠCloseable": 8167,
      "ATTRIBUTES": 8168,
      "tenant": 8169,
      "atisf": 8170,
      "LoadBalancer": 8171,
      "ĠvitamContext": 8172,
      "ĠTrack": 8173,
      "Ġmedia": 8174,
      "ada": 8175,
      "ĠPK": 8176,
      "StartTime": 8177,
      "Ġreturns": 8178,
      "TITLE": 8179,
      "isBlank": 8180,
      "RACE": 8181,
      "GUID": 8182,
      "player": 8183,
      "Ġwrapped": 8184,
      "ĠoutputStream": 8185,
      "ĠProcessor": 8186,
      "Edges": 8187,
      "Ġpur": 8188,
      "Ġvertex": 8189,
      "utures": 8190,
      "Ġpublish": 8191,
      "going": 8192,
      "Ingest": 8193,
      "ĠVertex": 8194,
      "getD": 8195,
      "ĠjobName": 8196,
      "Power": 8197,
      "Ġcharacter": 8198,
      "Ġns": 8199,
      "Ġ21": 8200,
      "center": 8201,
      "Recipient": 8202,
      "ĠgetConfig": 8203,
      "Queries": 8204,
      "Ġcar": 8205,
      "ĠDoubleArray": 8206,
      "Ġcontact": 8207,
      "DIRECTORY": 8208,
      "IBILITY": 8209,
      "ĠuserService": 8210,
      "Reserved": 8211,
      "Uid": 8212,
      "ĠtestIs": 8213,
      "StatusCode": 8214,
      "Ġalgorithm": 8215,
      "Ġdetails": 8216,
      "integer": 8217,
      "Ġinjector": 8218,
      "VALUES": 8219,
      "reference": 8220,
      "Ġshared": 8221,
      "Ġdeploy": 8222,
      "HttpHeaders": 8223,
      "PORTED": 8224,
      "Ġstrings": 8225,
      "stackPush": 8226,
      "Ġparsed": 8227,
      "ĠRender": 8228,
      "Ġ34": 8229,
      "Ġoffer": 8230,
      "ĠCC": 8231,
      "ĠrequestContext": 8232,
      "Carry": 8233,
      "Ġrequests": 8234,
      "pingCart": 8235,
      "####": 8236,
      "ĠREAD": 8237,
      "atasource": 8238,
      "DR": 8239,
      "ĠAuto": 8240,
      "Ports": 8241,
      "antic": 8242,
      "listener": 8243,
      "ĠappId": 8244,
      "Circ": 8245,
      "remote": 8246,
      "Ġ10000": 8247,
      "ĠSplit": 8248,
      "<?>[]": 8249,
      "ĠConnector": 8250,
      "Ġ[{}": 8251,
      "lationService": 8252,
      "HAND": 8253,
      "Aud": 8254,
      "ĠgetLogger": 8255,
      "ĠmetaData": 8256,
      "Models": 8257,
      "CIMAL": 8258,
      "endor": 8259,
      "Ġtransformer": 8260,
      "achments": 8261,
      "Finance": 8262,
      "Obs": 8263,
      "rientation": 8264,
      "ingMode": 8265,
      "METADATA": 8266,
      "ENCO": 8267,
      "Ġtxn": 8268,
      "iente": 8269,
      "plugin": 8270,
      "ĠRM": 8271,
      "Ġshift": 8272,
      "amples": 8273,
      "FILENAME": 8274,
      "Ġ{-": 8275,
      "SHORT": 8276,
      "ĠCompletion": 8277,
      "encoded": 8278,
      "scope": 8279,
      "ApplicationContext": 8280,
      "Recovery": 8281,
      "Ġeth": 8282,
      "esquis": 8283,
      "ocus": 8284,
      "DBC": 8285,
      "member": 8286,
      "UserName": 8287,
      "stor": 8288,
      "ĠBASE": 8289,
      "tags": 8290,
      "Decomposition": 8291,
      "Self": 8292,
      "WebElement": 8293,
      "Ġreceived": 8294,
      "ĠDependency": 8295,
      "LogadoFacade": 8296,
      "ĠCriteria": 8297,
      "ĠOperator": 8298,
      "IFT": 8299,
      "Rnr": 8300,
      "ĠChild": 8301,
      "ĠOData": 8302,
      "ingBox": 8303,
      "Ġattrs": 8304,
      "Keep": 8305,
      "ObjectMapper": 8306,
      "getText": 8307,
      "ĠgetParent": 8308,
      "Comments": 8309,
      "Ġcookie": 8310,
      "ĠWorldpay": 8311,
      "forward": 8312,
      "Pages": 8313,
      "FALSE": 8314,
      "ĠINSTANCE": 8315,
      "Grad": 8316,
      "marshaller": 8317,
      "ualizar": 8318,
      "ĠDataset": 8319,
      "Handling": 8320,
      "push": 8321,
      "Ġconstructor": 8322,
      "DUCT": 8323,
      "ĠMS": 8324,
      "Ġ28": 8325,
      "Phase": 8326,
      "ĠSH": 8327,
      "PROJECT": 8328,
      "Reject": 8329,
      "Pe": 8330,
      "pector": 8331,
      "AXB": 8332,
      "ĠScheduledExecutorService": 8333,
      "Ġresp": 8334,
      "UTO": 8335,
      "Ġauthorisation": 8336,
      ">\",": 8337,
      "Ġsure": 8338,
      "Ġrules": 8339,
      "Ġminimum": 8340,
      "InBackground": 8341,
      "Ġrevision": 8342,
      "Projection": 8343,
      "Ġsubscribe": 8344,
      "ĠtypeSystem": 8345,
      "ajor": 8346,
      "xf": 8347,
      "authentication": 8348,
      "Ġsyn": 8349,
      "æĸ": 8350,
      "MY": 8351,
      "Medica": 8352,
      "Jms": 8353,
      "Ospf": 8354,
      "Ġcs": 8355,
      "uffle": 8356,
      "Ġ(!(": 8357,
      "Whitelist": 8358,
      "[]{\"": 8359,
      "weet": 8360,
      "SECOND": 8361,
      "Less": 8362,
      "Serialization": 8363,
      "vanced": 8364,
      "FormulaRepository": 8365,
      "ĠgetMin": 8366,
      "Numbers": 8367,
      "(\"\");": 8368,
      "Months": 8369,
      "Clear": 8370,
      "Ġreply": 8371,
      "400": 8372,
      "Ticket": 8373,
      "PropertyValue": 8374,
      "Known": 8375,
      "ĠgetG": 8376,
      "Quality": 8377,
      "Ġjcr": 8378,
      "Css": 8379,
      "ivot": 8380,
      "ĠSUB": 8381,
      "Ġerr": 8382,
      "ĠTopology": 8383,
      "Ġresolved": 8384,
      "æľ": 8385,
      "Annotated": 8386,
      "aped": 8387,
      "IRI": 8388,
      "display": 8389,
      "SecurityContext": 8390,
      "GENER": 8391,
      "ORMAL": 8392,
      "ĠgetLog": 8393,
      "Least": 8394,
      "ithub": 8395,
      "Ġ400": 8396,
      "Stored": 8397,
      "ĠConcurrentMap": 8398,
      "MER": 8399,
      "Room": 8400,
      "Ġinformation": 8401,
      "ĠPolynomial": 8402,
      "ĠVis": 8403,
      "Strict": 8404,
      "Modifier": 8405,
      "Ġ22": 8406,
      "ReturnsMutableCopy": 8407,
      "alformed": 8408,
      "assign": 8409,
      "ĠgetServer": 8410,
      "Leader": 8411,
      "competition": 8412,
      "Ġspot": 8413,
      "ĠWriter": 8414,
      "ĠcheckNotNull": 8415,
      "Ġdone": 8416,
      "LEG": 8417,
      "AMPLE": 8418,
      "KeyPair": 8419,
      "ĠRel": 8420,
      "program": 8421,
      "._": 8422,
      "mbed": 8423,
      "Ġcleanup": 8424,
      "Vitam": 8425,
      "ĠSO": 8426,
      "descri": 8427,
      "getRoot": 8428,
      "ASC": 8429,
      "ĠSTAT": 8430,
      "ĠinOrder": 8431,
      "uilt": 8432,
      "ĠPreparedStatement": 8433,
      "ĠAws": 8434,
      "BIN": 8435,
      "ked": 8436,
      "ĠCLIENT": 8437,
      "None": 8438,
      "iecewisePolynomial": 8439,
      "Ġnome": 8440,
      "ĠCase": 8441,
      "CONTROL": 8442,
      "Ġrunner": 8443,
      "otype": 8444,
      "parser": 8445,
      "Ġbook": 8446,
      "rel": 8447,
      "Adjustment": 8448,
      "Neg": 8449,
      "Ġyou": 8450,
      "Ġĉĉĉĉĉĉĉĉ": 8451,
      "ti": 8452,
      "Insn": 8453,
      "Ġmd": 8454,
      "ProjectId": 8455,
      "CSV": 8456,
      "services": 8457,
      "ĠVehicle": 8458,
      "Heartbeat": 8459,
      "Amostra": 8460,
      "ĠSensor": 8461,
      "WL": 8462,
      "alf": 8463,
      "DEP": 8464,
      "OfCarry": 8465,
      "getProperties": 8466,
      "itation": 8467,
      "COMMAND": 8468,
      "ĠSelect": 8469,
      "Aggregation": 8470,
      "KV": 8471,
      "ycl": 8472,
      "ĠSubject": 8473,
      "Ġ40": 8474,
      "track": 8475,
      "BeforeCall": 8476,
      "ĠMultimap": 8477,
      "FUNCTION": 8478,
      "Play": 8479,
      "Bv": 8480,
      "Ġrecords": 8481,
      "AccessException": 8482,
      "Guarded": 8483,
      "Ġcert": 8484,
      "ĠsetValue": 8485,
      "ObjectFactory": 8486,
      "ACTIVE": 8487,
      "ernel": 8488,
      "QUO": 8489,
      "MasterCoprocessorEnvironment": 8490,
      "RECOR": 8491,
      "ĠPoly": 8492,
      "Atendimento": 8493,
      "Zoom": 8494,
      "structure": 8495,
      "LoggerFactory": 8496,
      "riend": 8497,
      "ĠReal": 8498,
      "Overlay": 8499,
      "ĠSERVICE": 8500,
      "ĠNoSuch": 8501,
      "ĠVAR": 8502,
      "Capture": 8503,
      "Fim": 8504,
      "Ġliteral": 8505,
      "fill": 8506,
      "ValidateBeforeCall": 8507,
      "Sharding": 8508,
      "Ġ]": 8509,
      "ĠgetView": 8510,
      "Boundary": 8511,
      "QUEUE": 8512,
      "oted": 8513,
      "Ġcoll": 8514,
      "Ġbig": 8515,
      "Cli": 8516,
      "IfNot": 8517,
      "eder": 8518,
      "emptyMap": 8519,
      "AU": 8520,
      "aws": 8521,
      "ĠSQLException": 8522,
      "ãĥĪ": 8523,
      "ENG": 8524,
      "Timed": 8525,
      "vg": 8526,
      "Comparable": 8527,
      "mac": 8528,
      "begin": 8529,
      "ividual": 8530,
      "ĠOspf": 8531,
      "ĠStreams": 8532,
      "hex": 8533,
      "Resp": 8534,
      "ĠgetEntity": 8535,
      "Ġcredential": 8536,
      "ĠnewValue": 8537,
      "ĠtoArray": 8538,
      "ĠStruct": 8539,
      "Authenticated": 8540,
      "Seed": 8541,
      "ĠPackage": 8542,
      "urable": 8543,
      "atz": 8544,
      "ĠSY": 8545,
      "Tools": 8546,
      "acle": 8547,
      "Ġrpc": 8548,
      "ĠassertArrayEquals": 8549,
      "pi": 8550,
      "ĠRoot": 8551,
      "amel": 8552,
      "ĠSegment": 8553,
      "Ġpartitions": 8554,
      "ĠPROPERTY": 8555,
      "Fi": 8556,
      "MASTER": 8557,
      "Multicast": 8558,
      "patient": 8559,
      "Ġmime": 8560,
      "option": 8561,
      "Initializer": 8562,
      "ĠsessionId": 8563,
      "IENT": 8564,
      "Ġplan": 8565,
      "Ġupgrade": 8566,
      "EqualException": 8567,
      "Escape": 8568,
      "Classifier": 8569,
      "ĠPR": 8570,
      "chestration": 8571,
      "oring": 8572,
      "MONTH": 8573,
      "ĠNMEA": 8574,
      "Rational": 8575,
      "batch": 8576,
      "Alt": 8577,
      "perform": 8578,
      "ĠJPA": 8579,
      "PreAuthorize": 8580,
      "Defaults": 8581,
      "ĠConverter": 8582,
      "Ġct": 8583,
      "ĠtypeName": 8584,
      "CONNECT": 8585,
      "Once": 8586,
      "Unexpected": 8587,
      "longValue": 8588,
      "ublicKey": 8589,
      "ĠMapBuilder": 8590,
      "ffin": 8591,
      "ĠBound": 8592,
      "ĠHH": 8593,
      "AAI": 8594,
      "EH": 8595,
      "ManagerFactory": 8596,
      "ivalue": 8597,
      "ationToken": 8598,
      "ATORY": 8599,
      "Inventory": 8600,
      "DownLatch": 8601,
      "DELIMITER": 8602,
      "Fund": 8603,
      "Pull": 8604,
      "ZoneId": 8605,
      "ExameDAO": 8606,
      "ĠOk": 8607,
      "ĠCMS": 8608,
      "Mongo": 8609,
      "ĠEXPECTED": 8610,
      "384": 8611,
      "ĠstartDate": 8612,
      "olt": 8613,
      "ĠgetQuery": 8614,
      "NoMore": 8615,
      "Hosp": 8616,
      "ĠAmazon": 8617,
      "DEFAULTS": 8618,
      "workspace": 8619,
      "bi": 8620,
      "ci": 8621,
      "Ġless": 8622,
      "metastore": 8623,
      "uples": 8624,
      "DT": 8625,
      "activity": 8626,
      "respon": 8627,
      "ManagerImpl": 8628,
      "getColumn": 8629,
      "Ġcart": 8630,
      "Ġ$": 8631,
      "Ġcast": 8632,
      "RESHOLD": 8633,
      "========": 8634,
      "Ranges": 8635,
      "Ġcapt": 8636,
      "Ġ29": 8637,
      "ĠWOR": 8638,
      "ĠBO": 8639,
      "Ġnotes": 8640,
      "Termination": 8641,
      "EUR": 8642,
      "ĠgetContent": 8643,
      "IDE": 8644,
      "OrUpdate": 8645,
      "uFacade": 8646,
      "Angle": 8647,
      "LTA": 8648,
      "VERY": 8649,
      "Den": 8650,
      "Ġfeed": 8651,
      "ĠRESOURCE": 8652,
      "isNaN": 8653,
      "Ġdepend": 8654,
      "mous": 8655,
      "Ġexpand": 8656,
      "nos": 8657,
      "BUFFER": 8658,
      "ĠReflection": 8659,
      "amma": 8660,
      "}/{": 8661,
      "Ġrelation": 8662,
      "Ġignored": 8663,
      "copyOf": 8664,
      "KA": 8665,
      "Ġdivide": 8666,
      "Ġconverted": 8667,
      "Ġra": 8668,
      "ymbolic": 8669,
      "Rank": 8670,
      "ĠLanguage": 8671,
      "FileStatus": 8672,
      "Ġzk": 8673,
      "ĠOB": 8674,
      "onymous": 8675,
      "Candidate": 8676,
      "Ġdefined": 8677,
      "Inner": 8678,
      "Anal": 8679,
      "FIRST": 8680,
      "losure": 8681,
      "ĠsetName": 8682,
      "ĠArch": 8683,
      "Ġdimension": 8684,
      "Quiet": 8685,
      "SACTION": 8686,
      "getClient": 8687,
      "ookies": 8688,
      "Delimiter": 8689,
      "ĠElastic": 8690,
      "Ġinvite": 8691,
      "ĠMultiple": 8692,
      "persist": 8693,
      "Ġuns": 8694,
      "etData": 8695,
      "RULE": 8696,
      "ised": 8697,
      "Ġcontaining": 8698,
      "ServiceMock": 8699,
      "uting": 8700,
      "HOUR": 8701,
      "AccountId": 8702,
      "Vars": 8703,
      "asset": 8704,
      "APPING": 8705,
      "ĠEND": 8706,
      "FOLDER": 8707,
      "AIL": 8708,
      "Optim": 8709,
      "Altern": 8710,
      "EB": 8711,
      "Perform": 8712,
      "ĠProcessing": 8713,
      "rith": 8714,
      "Baseline": 8715,
      "Suite": 8716,
      "Calls": 8717,
      "Changelist": 8718,
      "pier": 8719,
      "ĠINT": 8720,
      "argin": 8721,
      "Way": 8722,
      "ĠaddTo": 8723,
      "ĠPropertyKey": 8724,
      "fl": 8725,
      "simple": 8726,
      "Resolve": 8727,
      "Ġour": 8728,
      "ĠSW": 8729,
      "ĠJSONArray": 8730,
      "Shell": 8731,
      "Ranger": 8732,
      "encia": 8733,
      "Ġhelp": 8734,
      "Inclusive": 8735,
      "idade": 8736,
      "ĠgetParameter": 8737,
      "FLOAT": 8738,
      "AsStream": 8739,
      "RETRY": 8740,
      "Ġdelivery": 8741,
      "ATTR": 8742,
      "SEARCH": 8743,
      "POT": 8744,
      "Ġmatching": 8745,
      "WEB": 8746,
      "ĠCSV": 8747,
      "plus": 8748,
      "WX": 8749,
      "CAT": 8750,
      "ĠassertThrows": 8751,
      "Ġunt": 8752,
      "Computation": 8753,
      "Ġweight": 8754,
      "ĠgetMetadata": 8755,
      "depre": 8756,
      "CLE": 8757,
      "GING": 8758,
      "ĠcheckIf": 8759,
      "TypeHint": 8760,
      "ala": 8761,
      "lin": 8762,
      "ICAL": 8763,
      "Limiter": 8764,
      "Ġsingleton": 8765,
      "Conflict": 8766,
      "PERIOD": 8767,
      "Inc": 8768,
      "ĠEmail": 8769,
      "MODULE": 8770,
      "Dump": 8771,
      "Minutes": 8772,
      "ĠTool": 8773,
      "keys": 8774,
      "GHT": 8775,
      "Mutation": 8776,
      "ips": 8777,
      "91": 8778,
      "FB": 8779,
      "OutOf": 8780,
      "Apply": 8781,
      "rict": 8782,
      "Ġseconds": 8783,
      "pet": 8784,
      "Ġ;": 8785,
      "ĠXWikiContext": 8786,
      "ographic": 8787,
      "ĠMaven": 8788,
      "created": 8789,
      "Schemas": 8790,
      "import": 8791,
      "Bindings": 8792,
      "JS": 8793,
      "REA": 8794,
      "168": 8795,
      "ĠByteArrayInputStream": 8796,
      "Ġfunc": 8797,
      "ĠgetColumn": 8798,
      "Ġdepth": 8799,
      "EXP": 8800,
      "DocumentReference": 8801,
      "Ġbad": 8802,
      "Ġunregister": 8803,
      "Utkast": 8804,
      "lemet": 8805,
      "Tracer": 8806,
      "ĠComparable": 8807,
      "Procedimento": 8808,
      "Ġbus": 8809,
      "AndView": 8810,
      "Backoff": 8811,
      "ĠDateFormat": 8812,
      "aringBitmap": 8813,
      "dev": 8814,
      "ĠSo": 8815,
      "PRIORITY": 8816,
      "Retries": 8817,
      "erspect": 8818,
      "clusion": 8819,
      "IfAbsent": 8820,
      "Indices": 8821,
      "å®ļ": 8822,
      "Ġrelationship": 8823,
      "ĠValidate": 8824,
      "FD": 8825,
      "nu": 8826,
      "ĠCREATE": 8827,
      "ĠCard": 8828,
      "ĠScope": 8829,
      "CONF": 8830,
      "ĠTransformer": 8831,
      "Preferred": 8832,
      "Marshaller": 8833,
      "SCRIPT": 8834,
      "ĠPropertyDescriptor": 8835,
      "estam": 8836,
      "hn": 8837,
      "Cour": 8838,
      "Tracing": 8839,
      "Cipher": 8840,
      "Risk": 8841,
      "ĠtaskId": 8842,
      "internal": 8843,
      "Ġchars": 8844,
      "Ġnote": 8845,
      "Applications": 8846,
      "WAY": 8847,
      "Alarm": 8848,
      "([^": 8849,
      "Ġselection": 8850,
      "Ġrestr": 8851,
      "Ġaws": 8852,
      "coin": 8853,
      "ItemId": 8854,
      "ingerprint": 8855,
      "XmlElement": 8856,
      "ĠFunc": 8857,
      "SI": 8858,
      "ervisor": 8859,
      "ĠSets": 8860,
      "ĠresultSet": 8861,
      "Iteration": 8862,
      "ĠgetJ": 8863,
      "arshal": 8864,
      "Bi": 8865,
      "ĠInetAddress": 8866,
      "ĠMime": 8867,
      "ĠDateTimeFormatter": 8868,
      "ivalued": 8869,
      "Ġvisible": 8870,
      "AndGet": 8871,
      "FromFile": 8872,
      "Ġmarker": 8873,
      "Ġloop": 8874,
      "ĠNMEAObserver": 8875,
      "ĠgetTotal": 8876,
      "Actual": 8877,
      "Slash": 8878,
      "mployees": 8879,
      "LECTION": 8880,
      "ocabulary": 8881,
      "Ġmath": 8882,
      "2017": 8883,
      "interval": 8884,
      "Ġhostname": 8885,
      "ĠCopyOnWrite": 8886,
      "Ġbar": 8887,
      "FACTOR": 8888,
      "Ġident": 8889,
      "ĠgetV": 8890,
      "Ġpod": 8891,
      "AssignableFrom": 8892,
      "ĠnotEmpty": 8893,
      "PMD": 8894,
      "Filtered": 8895,
      "EXTENSION": 8896,
      "Implementation": 8897,
      "MC": 8898,
      "xFF": 8899,
      "getHeader": 8900,
      "ANDATORY": 8901,
      "times": 8902,
      "plan": 8903,
      "Plus": 8904,
      "getMin": 8905,
      "KeyChain": 8906,
      "ĠHOP": 8907,
      "Follow": 8908,
      "ĠgetConnection": 8909,
      "ĠPROP": 8910,
      "Ġinst": 8911,
      "ToId": 8912,
      "groups": 8913,
      ">\");": 8914,
      "ĠJsonInclude": 8915,
      "OO": 8916,
      "ĠJsonReader": 8917,
      "anded": 8918,
      "ĠsetMax": 8919,
      "secret": 8920,
      "ĠRex": 8921,
      "BufferSize": 8922,
      "Hit": 8923,
      "ooKeeper": 8924,
      "Lsa": 8925,
      "FACE": 8926,
      "serialize": 8927,
      "Rendering": 8928,
      "OVER": 8929,
      "ĠWHERE": 8930,
      "GP": 8931,
      "esis": 8932,
      "Share": 8933,
      "ĠProdu": 8934,
      "Ġreserv": 8935,
      "ĠEm": 8936,
      "OrderBy": 8937,
      "Tcp": 8938,
      "ĠPolicy": 8939,
      "qrt": 8940,
      "ENDPOINT": 8941,
      "eloc": 8942,
      "found": 8943,
      "ĠDataSet": 8944,
      "Ring": 8945,
      "Ġhour": 8946,
      "defaultValue": 8947,
      "oose": 8948,
      "Varargs": 8949,
      "iddle": 8950,
      "Ġorganisation": 8951,
      "ĠgetN": 8952,
      "getCause": 8953,
      "Ġvirtual": 8954,
      "principal": 8955,
      "lemetry": 8956,
      "Reservation": 8957,
      "Characters": 8958,
      "Ġds": 8959,
      "deprecation": 8960,
      "åº": 8961,
      "olid": 8962,
      "uffers": 8963,
      "Calculation": 8964,
      "venio": 8965,
      "Inbound": 8966,
      "ĠSwitch": 8967,
      "ĠsetDefault": 8968,
      "MessageId": 8969,
      "Ġencrypt": 8970,
      "contact": 8971,
      "two": 8972,
      "ĠassertNot": 8973,
      "ĠPAY": 8974,
      "Solr": 8975,
      "INGLE": 8976,
      "ĠSTART": 8977,
      "ja": 8978,
      "ĠTimeZone": 8979,
      ">...": 8980,
      "Ġexit": 8981,
      "ether": 8982,
      "getEnd": 8983,
      "Ġtile": 8984,
      "ApiImplicit": 8985,
      "Browser": 8986,
      "Ġattachment": 8987,
      "expectedExceptions": 8988,
      "calculate": 8989,
      "Bs": 8990,
      "export": 8991,
      "Ġpi": 8992,
      "Ġann": 8993,
      "RPC": 8994,
      "Ġgateway": 8995,
      "ĠisDisplay": 8996,
      "Assigned": 8997,
      "Ġcould": 8998,
      "ually": 8999,
      "ĠJdbc": 9000,
      "Ġpercent": 9001,
      "ĠLiteral": 9002,
      "ĠKSQL": 9003,
      "ĠgetBase": 9004,
      "irth": 9005,
      "GO": 9006,
      "Descriptors": 9007,
      "yang": 9008,
      "Ġlow": 9009,
      "ICY": 9010,
      "Parallel": 9011,
      "isNotBlank": 9012,
      "Ġstub": 9013,
      "atMessage": 9014,
      "ivation": 9015,
      "Accessible": 9016,
      "forClass": 9017,
      "THRESHOLD": 9018,
      "Lib": 9019,
      "Avro": 9020,
      "getQuery": 9021,
      "Products": 9022,
      "Retriever": 9023,
      "Rates": 9024,
      "bean": 9025,
      "parts": 9026,
      "ĠjsonObject": 9027,
      "Contracts": 9028,
      "ĠcheckArgument": 9029,
      "Ġuid": 9030,
      "Ġcreation": 9031,
      "PM": 9032,
      "SearchResult": 9033,
      "Ġcr": 9034,
      "sync": 9035,
      "ObjectType": 9036,
      "Ġtested": 9037,
      "Ġbest": 9038,
      "License": 9039,
      "âĶ": 9040,
      "valuator": 9041,
      "pg": 9042,
      "HASH": 9043,
      "ĠFull": 9044,
      "META": 9045,
      "Consume": 9046,
      "Ġthem": 9047,
      "vey": 9048,
      "ĠINTER": 9049,
      "Csv": 9050,
      "stNode": 9051,
      "rece": 9052,
      "Protos": 9053,
      "anguages": 9054,
      "ĠhttpClient": 9055,
      "ĠUI": 9056,
      "LineItem": 9057,
      "feature": 9058,
      "adin": 9059,
      "ookeeper": 9060,
      "ITERAL": 9061,
      "emon": 9062,
      "RegionInfo": 9063,
      "OMETRY": 9064,
      "Ġpossible": 9065,
      "Ġlon": 9066,
      "ĠStatistics": 9067,
      "Dead": 9068,
      "Tokenizer": 9069,
      "umbn": 9070,
      "Ġown": 9071,
      "NoMoreInteractions": 9072,
      "Ġfoo": 9073,
      "Ġ00": 9074,
      "Imm": 9075,
      "USD": 9076,
      "Ġ123": 9077,
      "AccessControl": 9078,
      "Nanos": 9079,
      "EST": 9080,
      "RequestException": 9081,
      "Ġsee": 9082,
      "Lng": 9083,
      "getBoolean": 9084,
      "Wildcard": 9085,
      "Fx": 9086,
      "ĠgetDate": 9087,
      "ĠPlan": 9088,
      "Ġleg": 9089,
      "jb": 9090,
      "Ipv": 9091,
      "Authenticator": 9092,
      "arguments": 9093,
      "ster": 9094,
      "Ġinputs": 9095,
      "Reports": 9096,
      "Watcher": 9097,
      "Ġ39": 9098,
      "PARTNER": 9099,
      "REQUIRED": 9100,
      "Policies": 9101,
      "Speed": 9102,
      "amodel": 9103,
      "Ġ\")": 9104,
      "Percentage": 9105,
      "crual": 9106,
      "VATE": 9107,
      "AtTypeHint": 9108,
      "ĠLogManager": 9109,
      "Ġservidor": 9110,
      "cor": 9111,
      "ĠPiecewisePolynomial": 9112,
      "ĠDirect": 9113,
      "ĠMAP": 9114,
      "ĠasList": 9115,
      "Whitespace": 9116,
      "Listing": 9117,
      "MIC": 9118,
      "identifier": 9119,
      "125": 9120,
      "NEL": 9121,
      "SafeVarargs": 9122,
      "OrNull": 9123,
      "Ġ${": 9124,
      "Patterns": 9125,
      "Ġdid": 9126,
      "ĠgetStatus": 9127,
      "Ġconfigured": 9128,
      "ĠCan": 9129,
      "LengthUnit": 9130,
      "ĠdoNot": 9131,
      "Ġcomponents": 9132,
      "Ġissu": 9133,
      "IONAL": 9134,
      "WebServer": 9135,
      "Gadget": 9136,
      "Ġalter": 9137,
      "Ġmailbox": 9138,
      "Ġreject": 9139,
      "Termin": 9140,
      "ecessary": 9141,
      "chno": 9142,
      "Signal": 9143,
      "agent": 9144,
      ">[]": 9145,
      "Formats": 9146,
      "metic": 9147,
      "Ġunknown": 9148,
      "items": 9149,
      "MenuItem": 9150,
      "sem": 9151,
      "ĠreadBytes": 9152,
      "ĠAns": 9153,
      "Sep": 9154,
      "ANNOT": 9155,
      "Datanode": 9156,
      "validation": 9157,
      "Printer": 9158,
      "ĠStringBuffer": 9159,
      "ĠInvoice": 9160,
      "Ġobserv": 9161,
      "Modify": 9162,
      "*/": 9163,
      "TC": 9164,
      "Ġtopology": 9165,
      "ĠresourceName": 9166,
      "ĠBDD": 9167,
      "Ġtake": 9168,
      "ĠSn": 9169,
      "ĠPlace": 9170,
      "Dialect": 9171,
      "bcd": 9172,
      "Ġcompleted": 9173,
      "PostConstruct": 9174,
      "ĠZone": 9175,
      "Customer": 9176,
      "ĠUserCapability": 9177,
      "FIED": 9178,
      "Ġseed": 9179,
      "(\".": 9180,
      "ĠisNull": 9181,
      "lines": 9182,
      "Instrument": 9183,
      "Precision": 9184,
      "dp": 9185,
      "ĠgetO": 9186,
      "Patch": 9187,
      "Inst": 9188,
      "ycler": 9189,
      "Ġud": 9190,
      "Intyg": 9191,
      "ĠSm": 9192,
      "ĠMeter": 9193,
      "NotEmpty": 9194,
      "term": 9195,
      "Ġanother": 9196,
      "ĠNum": 9197,
      "xc": 9198,
      "TargetInstance": 9199,
      "Compatible": 9200,
      "Documents": 9201,
      "ĠJcr": 9202,
      "FLAG": 9203,
      "UserCapability": 9204,
      "finite": 9205,
      "TextUnit": 9206,
      "MOCK": 9207,
      "fac": 9208,
      "_()": 9209,
      "Force": 9210,
      "nodes": 9211,
      "å¼": 9212,
      "apath": 9213,
      "Ġreceive": 9214,
      "VitamContext": 9215,
      "erspective": 9216,
      "Dsl": 9217,
      "Jvm": 9218,
      "OLER": 9219,
      "Spaces": 9220,
      "clone": 9221,
      "war": 9222,
      "ĠInvocation": 9223,
      "FailedException": 9224,
[...]
